memory_initialization_radix=16;
memory_initialization_vector= 
2222232824282A252827252322212728212123212425272A2722282126282727282822292528272424222A262723232427272A22282626212428242A27222427,
2921272126242628232323232821252824262526232628252526272829212226252228292421222927262724282526292423272722242428262623232325262A,
2729272923212A272A28282528252A25262123262126272324272823232728272422282226222721242425282424252A23212625252323252624282624262627,
2A23202126242724282926272328282928252628232527272A2128232424292224252821232724282729242727252329242528292A2125242825272A27272723,
2625212722262627282228282620262A232728232728252625222929282627242826272728242A2828232723262226262624282A282323222126262427252427,
25292024212329232925292327272A27232624232024272325232624292827272129232626212822282628242527232727282728252623212523272424272928,
2322212129262729282725262324242224232A292325282827272823242226222829292722252828232625212726252828212828262622252823272524262526,
272825232226252423252221232229232523222824272823292626282927272425262A262623232823252828242824292628262524232827242125272525252A,
2A2824222822262620212522292426262123222A2326252623222A21232723232622282A28262724272423232226292925282A2224262521262126262822242A,
2928232723272427282929272622282927262327252525242926282325262524262825282528262525232127242A232726222723252727212729232724252223,
222225222422272628222A24292323232928232A2827282823242722232429222127262A22242929272227232426242926252A23232724282229252A2429282A,
25252627202525262927292127272924262223242224292623282A2A2625252626232422272124252627262521232822252525252328242623252A2A22242427,
2525262725252424272829242826292725262A2926222A22252A26262925252A2626242625232826232927282523292522262927232821252826282627252A23,
242722212427222728232320262223232828282726212729242725282623252623262326262625262224242229252425252127222826272125272A2625292A2A,
232625282621282A2822242125262329262321232728242625272A23292424232727232525252323272628262A22212527222A27252228232327262329292726,
2A232524232224272A21242426292A232426252325282423222522252723272227212423212626252427272724262A2A21262821242628232429262927232527,
2829232423242A26212726212A202729262325262329282828242327232122232428232927272229242627212527262326272126272525272124232A22272427,
232825212427272A2722232827212326222527232426262A262424222A2924282527232925212626222525262829282427262729282224282723282622232326,
2B28242321282625262A2924272128242524282627222A23292523232924242823252A2326252524242925262729222524212126232524242527292423232224,
29272228282528242928252422282824262628262722292923282A232A2222252A28222725282328242823242325272A272222252826252222242A2626272824,
2A2426222226252323282925292226292828262A23242A282A26282A2325242224222626262125252627252A262429282327242324232123252125292A292528,
2625252625242327282224212522232727252224242323272422232429232724252626272924282828272725252821282226252928252721232726242A272226,
271E2817142335253E162723270E36352327263026273B282631292231232A111425321B2724232410212F272117232C27232504270B273419261F2F2C092D35,
2E2C241C1D2336203F1B272328113933282129322427382825312927332821191A282D0D252525270D213426271622272723240D2707213A1F26152A2D132B3A,
2526261C1D212B26341C2324281C332C25222E2E23232F25243126242E27221818262F18272621260D212D27211C262925282116231424322126262B31172738,
262421231D253122312925252318322D25222A2D2826322B283624272E26221A232326102522272220262C26281E2323262726132413213B25281727281E203B,
252321201F242C212A212122281B322A22282D2826282E261E3C25253021241A212424162227282419282823231F26252822231225152439252420232B182336,
221A251D1F272F241E252725271D302821252B2A24252B252436242832242920232521192226222120232723231F2120242321142716263B20261B252919212F,
231D211922272A282E202028201B322828252B2224242D231B3C1D242C202B1D1C22261923222527182324252721282326262814240F213D21261E2624152533,
1F16261D1C2427262B1E2129281F2E2822232D2321222D211C3C26232C272E1F22242418232625261F2422262123262323272511231525382424222023151F32,
232123201D27232527222524241F342221273128212331211D3E2228292527171E242A1A252622281B232621211C242524242316280F27371F231C21291B2135,
2520251F1B242A262A1F2824281B34282323352D252735201E3627262F212B1C1D21271B2226282812212127241F24272620270D230D24371C27202524172331,
221F28191B2629242D1C212226183A292122342723272D241F3526272A2826191C2626212324252117232224241B21282824230D251125341E231F252D0E2237,
281D261921232D21291725272818322D28222F24232328201C371F272F242A191A2326192323212717232622221922282626221027132735172323202817282C,
251B201B19232E23341D202127172F2F2623352B27252F1C1B36222132262D191B212A172721282719272426281B262A22222410250E253C1F262123250F2A30,
211A26181A222A2324202326241934282925312828272D19183928232C242E191722261E20202321182426242520262A27222612251224401C23201F28142A30,
231F26172024272327222326231C312521242F2828222D241A352A2828262D1D1C28281D2125222311262327281A232726272114250E273D1B22222427122030,
2428251A2322272723212527231E2D2B2324322C24232E201E3728262C28261919272A182822252619262025261C2525242725142814253B22251E23261A272F,
242624181D2329252B1F272628212F2B2227322923282923203724272A2523191F232617272227221A202628232425252628280E230D233D2121231F2414202F,
262326181A272922281D2820202034252425312E252730251D352B20282127211D26261C2922282416282422232321222723240B270A273A25221F262A122334,
241D271713263028291C262827182A3122222D2C27233222212D25202C2327211D24251E2424282111242320211B222A2527220B280B253A1C251D222B132B31,
221D2319162537232C17282828152B342728332F282236261F322A232F25221418212A20262327230E252623211E252C242124062709273B1E2520292604252A,
29292413112535293519252526132F362623303425223721262E2E2130201B12192431192628262309282E222617242D2128280B2706283A1A27222B330E3035,
2C25211007223A293E152428260E353D2528363724274220232D392734251A111621381B2223282201222C2624102635252225FC28032130182628302EFE2F35,
253A25313A231B26203426212437371127292A2E2327313A431728221A241B263227221A26282527282626272735211927232224241F221F372515362C271842,
2730212A33221F2823352125263432132528272924222C3A391A2B241B27212733262121222728212325202426302521272321252323272334281B2E28251B3D,
2534252836271B231B2E232522332D182423202324222E3237202727142823242D251F2426262025222323232732251F232226232725212634271F2E242C1A33,
2429222A2D2618221D2D2527232B301B2725252727212A2C2D2225221C212D282F22212323252321252125282729221D2323201F2224282E2F20212821251E2E,
202428242D2517281E2B2624282A2D1826232A2324212D312722262516272D2628272526222225231E272125212A27202826211E2526222C2D23222822272230,
2022222729281B25162E2428222A2819232422262422292D292B262116222825292629292625272628221E262826241F212723232422262E2B241F2728281E2D,
202726252B261B231A2E2225282A2D1F242222242128292D292521241E222B2A2D252823272423272326252528282321262725262027272C2A2123272526242D,
242623282A251E2719302623222E2F1F2626282724212F2F2B2623271A2822262F232721232221211E212424262E21212421241F271F262B3027222828221E33,
242525232E2320221E2F21212227302127252B2723222C302E22222119222427272829222524242627282726252F23202625271F2023252C29271D2523251D37,
292C242531281C231C2C2321232B34222629252724272C2D292621211B2526282B2222212029232824282124212E2222212622242120212B2E271E2A26261D32,
222B20222C2416241C2E20212230351E22232C2828262E322E2B24221921232B2C242220222226282A2425222130221D27272023282225252C241A2224282036,
252922222A2618271F2F2021212B2D1C2824272622222A2B2B2C23231523252C2828222427282425222725222328282021232825272523282F221D2926232134,
202C26232D211C212A2C2527252A2F2327232B2624222D322D2326231D211D2E2E2520262628282429222123272E291C27272725262028242E211B25272A1D35,
252B26242C241A252E292122232F311C2526252325252F2C292926271C201D272D2629262126212923251E21262B251E2528251F291E24242C291C282224222F,
2626282627261A2527291F23262E2A202125232326232A2E262C212518221F282C26262023252325262123232226231E282626262721222129271C2421291E2D,
222921272F211A27292F2222292C2B162127292926272A2C272F25221C2023282B2225282226262520232327212E292024232125212227172E21202424271E2E,
27282127322315282D2C2024232F2B1628292C2828282A2C28322A201B211F29292126262422222321232125222B221C2722291E2326222033291B29272B1A2F,
262C24202F211927392A2428232E2E172027222123242D29293121211D21202B252424242824262121221F25252A231F242424232425241E2F282122212C2430,
252622232A23162838292522232C281828262A2521232B2F2C352A2217271A2D2922262B2626272128272022242D281F21202523272725182C2320222328172E,
2531222731271021362D2626213232182526292326272A322D332426182817303228232822222823262521242631221A232225262320251130271C2A21291835,
2434242B35260F263531202622352E0F24242B2723282C35312C262212261C2A32232428282524292B231D27252E2621212725232126241131291D29252C1435,
2A3B222C36230D27403A27232636360D2726302F25242E3C3D2529251525102A39292422212028222A231F212836291D25242627251D260D3B28182F272D0E3D,
28272525222427272128252729262429252A25222825282325222928242123292822212227272326282528272227222727252622232523232224262623282128,
292828252827272929272624272227232525222A25252929292A2929252921232325272624272828242428242722272626232623272423292A21252522252222,
2726252A2526262427242824282A22222325212723212228252524282529242A2625262128272525232427232323252A28282826282927252622292228242420,
23222829292028222825252424252321212322252322272222222329292627242524252824292224242321262526292927262829282A22292526262824232721,
282827242327252A272424242A24252726252523252828232729282A222223262A2A2925252123282A2221212923272626282326242324272524272427262327,
2828212625262523252A2925292323272022232724282528282A28292427232B2428262427252524262126282A27232526262825262424262A24272829252626,
27232422262528232322252329242828292427272626232428222225262725262822242223222828252923272621282721222124222425272325212528242928,
2429222224282323232A21252325262725252425222422212928242326222628222727292624232222232728242526282A242A22252A25262628232823282428,
2522232929242A2824272228292226232327282A2623252128282626262623272828212625222823232724222323222121242526272524262628262827232523,
222327292A2827282827242625212126212227222628272224292823242225252723212429282726272623262429292529262625232829252A222329212A2128,
262226242A22282427272725292323232622232A212A242921242726202428292325252422232523262426262123272428262528272324232425212424282727,
25292827242822242A29252623282126282923282229252725292424252727242922212327262528272425252223292526282822282424252628262825262223,
252829282327272727232126232A2322242223262426282526242929252326252129242928242523232724262229242627282628232A2A272426262524242425,
2A2626292822252922242827222326232424212227212625292A252723252528222421272323242729262625262A222527272522292A27282727262629272321,
262729272A24252A232724292325212926232929282826272828232828272429272628222820272729272627252A252328242421292726282624272528232625,
292A2828252827292A2322242A292829232425282A262825272A2625292721282121282428212128232229272A2821282622292A252327262B242728252A2227,
2426212623242623272724242427222622242A272725262529222626232627262423212125272829262127282129242126242826262323272420212423232823,
24212626232823232A2220252A232827212627252722242721252426202829292424282723282327292828292427272125272629242828232221272425282728,
25232128262426262522282826232826252421272127242927272326212729252727212428212424252922272721272628262229282A272A2528252624262323,
272A242A272028242824282A22242324252423282427232A292929222321222325242824292421222A282425252923262225242A282522242625202628242223,
23272427242826232825252923242325232226232924272628262727282321292921242822262229252126242822232523262325242526252322282723272725,
292521232B2226292926232323242323222822222724252825262223292322272124202421212825282424222726262428292225232A292A28212322232A2624,
3437221E19223328301A262825123A2E202135332723382951D535243A22F81721263E232725282329213820241E2736232225202A1826EA1C212A4A40193136,
3E33261C22232A232C202628251B31252622232A28252E1E4CF225242A21EF081C2636262328212825223F242619233226252128272820EB16202F413925362E,
2B31211F21222821221C2826231B332D25242E292423302B49F931242A21F71824213525212425232B2732232725222D23212326242023FD1F232D3A2D212B2C,
2B3424292E272321152B2622282A322A24232F302222322A44F2312221221E0D28272A202425272429282C23222C2522262425232A262106252527332E2C2033,
2A37232924242F2221262725211B2B2A26232A2C26291F29420227222428120F23262E23202320223929302228252926262423262923220420262B2B2C212B2D,
333122222927222521222523212336222522312922262B283BF32E2828240F15252130222728262427242F2526262126242423242520230C23232A373424252E,
2B2A251B1B282828141E212121182F2521262E2A28222C1F3E142A2328201921212735252024222231272F22262526302528232825232109212729332D232727,
2D2D28221C2727231E2124252224312926272C2624242D2744172C262C23E22320242F28262124242D2330212225212622212328262126101E282B3930242829,
2D31252129232327202727282525322128282D2923232A24490824262A22ED1821262C26262328212A282A222429222427222124242828FE272129342D252931,
222923232422262621222421261F2A2624252A27242225213D0D24212B26FA1826212C25282824262E212C212826282C2723272A272428041F252D2F2A252C23,
312A261C21202A231F212222221E332625252D272723341F3F0F2B242B23FC151D253128252523241F273126261D25312626242A252422F11C272B39301F2E28,
3532251E212529221F222328251E3A1E262534312823372843092F232B28F51C22262F1F26232722272235222423222726222729282222022524243D3321262C,
2425221B1F231B272324272526212D212822262720242825370B2121222111192326272B212625282C2829232227232721242329252822FC21232B322B243229,
2E28211E202520231F212525241B2F22272627292125312033E928272921121F1C243128222628231B2831232723293026222724232223F621292C3031253023,
2225211E232722281122222221272E1E27242B1F2625272231F326282723E01F2028292E232422272A2120242626252B2421242A292C2105222130292A272824,
2D2723201F222428141C2423241A2B2322272E2722252A2037F827243028EB1C1C25332E2726262127232D27241C292B26252727222921E321242E3428292D27,
2A2E251F1F2726241F26212321232D1D24232F2621272E233F0F2B242725DD1F1D2130252521252830282A272525292B2123252C242526E12625262F2E252A29,
2C30262421252D28271F20242421302921222F2A27252D2030292D242424F3251F23292428212721262726272621242C26212624292125EF2229252C2C232A29,
342F251D20252C2626232426231B29292125272A27242D1C381424252827001A1E262D25242222262A242A27281E292B28292627222721071B262B2A32252923,
3A3C271D232426282E1F2323221B311D2422282F22282A233D0F28252D25091C192132232625202827233525282023312427212D292623DD1D232A3034262B28,
2B2E2320232524201D1C252821222F202527232523222E20350D2C282B2013201B26302E2028282229222B21221E242D2624222A233029D71D242F2A2A253326,
433F2A1A20253226351E2426261A3E2E22252F3223263A245CE932222C22FF1013243824252620221B2442242220223226282328271F28CB16242C4A39213932,
252B221A12283326361921242413293628292F2F2725402335D338253325FD0A1D234027232427221A263425271A283A22252716281A283D17232F373A0B3429,
362F282226282E2233162324271E2B2D2823292D23282F2235D42D252B24F50C21243420282122231A233423221A28312126221D2720245A20262A3134213228,
3337212326233223291D2426231D282829262833232132233BEF33272B25020F22242F17242224241E233928291A222F242827252220273521252C33321D2F28,
293021261E2625211E212328211F2B2A2623353121243627321C3B272923F10B292238242825282127212422271C28302123261A261D201F1F252B2F351F2826,
2F3323222D272226212228252120232923232D3123252C25293C2B2723263A031E21311D242325211C222C27261E212E2122231F221F23452226272233232B23,
343623231B29242318262425221C3729222935332220312A3A0A3C281D26F32221253A1D202925241E232F222623232A2827271A292221FD25222B3D301B242A,
302A2224202A28282B1E2321282428272424292B2526311F37F02C2626230C16242332222128262825252E262525232D232328252622242F26282D2D2F1E2E29,
28222422282622291E1D2121242924212021282426252B1F2C2822202025DC171E2528262529242519282726261F2428272623232729276823262F2226222E23,
2424232524272323251E292628241D26252827262827221D2B081D222A22E51A1E242426242A232528242A22251F212A2328292A252B271422232F292824331E,
1D33282423232322392522212222272424282D2E2129352C39F736252424281124242523212326241F212B22262122272225291B261F281A25272C282F1F2929,
2F2C261F26292B241B2124272426262E222527292324352533E02C242C21071B1B272D24212127241C222324261E2730292624272A2922FB1D272C2026262D20,
2E26291A272625202922292221212324262723242821241B2E0C21262228D1111A262A2E272224261A2726252423272A222227292931260F2122312F2B273819,
2724281A15282F2433172723241A27322523243127283F222A0634222A27100F1A253B25292822240C262C23251425352420251D271F233416242C2A37113523,
242D2720282223253D1E2723262226252724252B21232A2222F32D241C23570D1D232425202128211D232821231E25282123221B271F232826262C1C2B1D2E22,
262F222C29211D222D2621212227251E27252A2C2425242626002F2420251B1622232721232625242428282728232827222528262826270622262C1A2B232822,
2235212C292826232428222520242B282025312D28242D282AF631202626131728262818292825262C242422282621292228271D272125F92726232626202329,
223225262B282824322226262427281F22232F2F262736252F193422242415132727281F2229202724241F2128252629262522192220272629292728261D272B,
2021281B27282B243524242128211E2221272523282728192628242324280810222724292923222827252426211F222B28262429232A21171F23351D29213319,
392D211E1D2428222E192829211F242623261E2E24262B1B22232B2727240B15172534232327272225213527241E283124272528272524DA1A242D2A2D1E321D,
212E271E21232A25271D23242120222322242E302821331F2C1634272628470C1C27292C2124272727241F25261E242F28262919242428171B25352129162F1C,
343A241D1F232E23411F2523272228292524273323222D2737FE2A242E2300171B262C1C242624271D2639272520242E212523232922240520242C25361F302A,
3E3727121D2939214711252823143130212225322223381C46CC2D273425FE0F15233D2A26282823112341252419283C212822232221283B142630373A1D3F32,
25232A2727292525292328292227262525252A22252423262326292225242223272A272325282227262728272424222623282128282522262523222728242625,
232426232825282725232324262224252223262122252A29222826242925292A2223232928272229212924262724252724272625252829252321252A23282825,
2423212122222628282425252A23272323222825292623272626252A242325252724262929282626242225222A25272A24282225212425232128232627252821,
2428272724282428232824222328282723212521252628232726272A2A252126272526262524242327272027272427252528222A282823262524252326242529,
2225222427242A22222A282A2726282721242621252826292926272625252828242927242727242824292A252222292320292722262825282321242727242221,
24252426242123242422292A282A272623272A25232229272528262A232626262324272323232621282623242923272A2723242425272A2923252A2122242123,
242721222123292A2325242429282923272623262122232523282326262727242622282428272626272123212826292623252924212624282627252926232325,
272A24222326262526262629242A2823262821222824262A272624232824272B2A232623272522262822282626282225242425252528272A2B22232928282826,
2A23262228222423282A28282726252328222828252726272223232726272125292A2523252227282428272822282724242322282123262326222A2525292321,
232521282422272326262124292125272128242724262427252B24232426242727272323262826242A28272222262523222528292621252325272625252B2628,
222723282A292A22262A2621252426232022282226272927242523242124262524272529222224242628272628222527232A2A23282A27272221282421252124,
2724272924232A2529282628232227292624282223282921262823252123262A2223252726212422252427242125292523272A22212726222A2726242123252A,
23242A272A2625282328292924242623222327282626252928212528252328252827242321242A23272728242827242921252226282222232122252927212824,
282A242225282621292726202327262525232923232324262829262922262A23252521252727232925252429252324222627242828292225232828252429222A,
242529262628282A242928272929242121242328272426272725252829222623292524282721252524242723252427262A222325292526292622262626242627,
2A232626252322272A2724212A27262426232624262823282325272824232322222529252627262624282328292A22282725282A2328252427242222242A2227,
272326282823222A24282A2627262927212428262223282126282824262424292525222828282628262821292926262721242223282527232422242829232528,
2523252528262822272521262826232728212728232528222229242426232426242220252524292128252923252A2623232822282924252A2927272926272628,
2825212629262326242523242729262123282426222224242228222425262322232622232827252825272827272A2523282125282925262925292928242A2521,
2922282427242A2826242127222A292522242421212624262823282A242626252328212821262227262225212823232A23272823272326232525272825272323,
232224212327242125262826222622272322292824252628292B27292A21232A2623212725272826282428252027292325252727212522262428292126262621,
2B26252222282928292327282728292426262526242125222525262922222824252223222627272924232A262522252324252522262427262627272224252823,
0D3824424E240D281A4A26212348260B2824191A2829053F3EE10C230C26232D4121001C222725234F25142A274B270B232424382134213B43220D1814431836,
16322837452513260E3A2527253F1E102624141824250A352ADE0926102722303929041D2828272741241D2524362815242325392537243B39251D0E113E1D29,
212F28363F231324153426252433211225271B17292312312CF0102412292B2B3025121A2829262331252527283427192323243328342430302817141B33222A,
202E2628352321291B2E2626272C201A2225201F2428162F26F51921132728252E231C1D202126282B242728232A21202227212A222B263230251C18232D202A,
242E242E322324231D2C212722271B1E26251E1F2721182C1F0D1926192729232C231B1F24212226342524262826231D2821262D2730252E2B242113282C2425,
2A2D2628342720221C2B2025252A191C27221B1C2524182621101525172227262B231E1D262127242D2429272226282125242131232F233028211F15282F2827,
29292829312815281528282428251B1F2423211F21251C291D101A29132724222C231B21272621272B24252125242226232826292231252B26232319282D2925,
2C2428222926272717242228271E1F2B23261B1E242317291B151524212624262B271C20252527282E252A242425212228292231222F223021202117232B2D22,
1E25242A36231828182A272527331F1A2223161729241327241F1326112623263024182022272723352726212233231C232323322834273A2A2220151F312A28,
1F2D292B3329162421322524282F261E222123202225172D2A18152311251B2932211B2129282A272B232624282F261C26292A2B272C293232251B1D242F202C,
222B272C2F261C21222B2521242C231B21232021292714312A1818271B22212B3127191F23232A243426262624312818252A222A222E27362F241C1A1F2F242C,
1B2A2A2E33231F2424362727233125202125221B23261931301F16281726162C3127141E26232524332323262631281727222634212927393727191A20312532,
2227252935211823272C2728262F1F1C28241A192222182C2418132314271C312B281A2124212229332421222930261A242827382432232D31291D151D35252A,
2426222A30221421282B2123242B271929211C1C26261926251517270E26152D2921181F2124212729282326242C211E2423262E272D23172C20201B20352B2E,
201922212D2716272E2A2424232D24162428201A212219261D151227142314302B251A2722272621292323232131231F2829242C223126312C24231B20312927,
232122262C261D292A2E23232A2D1C1E2421221C22281A231C2116251126142E2C261F292225222629222026252C2522212924302330261B2F22261A1E2A2426,
1E1E242A282518232D272124252C231B24272118252525281F1F19281124172A2E231D2B2528272529261E252828241A2428262C2230290F2D23251E1F2A1F23,
2D25222230281C253528272924291C1A2622202123211F231B2616291723122A2C241A29242527212C2626222124272228222736233725162B252614202E261E,
2D2F2227342218223A3225222430211823241E1C22231528232917230D2818312E221C212121212836232521282B291C26282636233422122B281E1C203A1E29,
242C232E3A2412203B312825282C2415222821202425192A1C2E16240F24142B352317242422282235231F24262C211B2426273122382312312520131E361A27,
1E3028353F221225403C262724341D1322281C1927251232201D1229112714343C230B1F222324253D2518282833211421272336263729173627161218401A2A,
0F2F23394B2708203A3D272528491D0327221A12272911372A1B0D270628152F3B230025282326273F231028223C250E232A223E273528104128170A113F1230,
4A49272024232A26281B282227213A2527262A36252531205CE13726292117FD17213821232527251E234726261B283B2223222B272724071D28304E3B1F3F38,
2F3F2725222229251C222427241F312825292E2C2824292449E62B2230270D1823212C1F262823272D2138232423292C24222224272424071F292C392D27312D,
2B43233030262523232926242228321D2726292F2322292B51F42F2122260E172B28271A282826243E243027272F262228252526241F22092A2623372B2C2A37,
383B272825232A221D24252824212926282522292127221B43022C232D210A0E22223127202423283A263928282325312826272C2A2B25F92129302C31273326,
353B282329272B221F222428262523252824253225262320340530242C2521132826291A2321222130253324261F282D26282828262B26FE1E2A28272C2B2C28,
2D41242229292521162223222825262421272431202826233DE530201E22490824272F20222221232D2536272523212F26262628242A24EF1E272C3432283329,
273B262628212A211D29212829292B2D24282D29222728263B152B28232539182D272C21272821223625282521262526282524242625260B2926252E2B222A2D,
1C2F2425272128281F2129252827292225282A22242824253716292327233F0F29272D222822282636282525282A2525242827252627281323282E2925232A28,
35382524272228211C242324241F31252623312D29242A26431730242B29160C24202E2226282327362235292326262922232826241F260E1F27263A3526292F,
2B3425241E232C2622202628251B342A2223323223232F24421536212C240C0D2620321B222121232F233325272124282426251E231928132023243C361B2E2D,
333B222728252C24292420262320272B2722232F28252923390727212926FA1020282F1D222424212A283927281E232C27212426232327191C28272B30243329,
2C32201C1E292B242A1F20272822292523252A282526231C390A2A222922161E1C282F2628282828322334252225232B2628292B212825211B2A2B352E273028,
2E32221F2626282119272623272628202527232722232519371829212328F513212431282520262639282C282327292F2724272A2430210A202830372A2C3021,
363827222A2521232A2727232624291F2624252D26232A233A232C232022130E1F25311C2121242230222F222425242C22212325282229012327243532292926,
32312823262522222B242225282427242228252A26222C22312A3225232343142522312522212622312630212726272A26212428292623EC1D23272E32272C26,
2731261F292324282D26282829202320212A21242021201A361224262528380F2125262B2725232232242B22212729292324242825312A011E2733252A273023,
203427262B231B2728282423252821172328272427281F21320A2D20202A180428222728222826283A232123222E242322282526262B230E28222D252B272621,
333E24262B2620283227242122272C172828242C262823203618302221250E0525272F17242427252E243727211F222821272527222726152526232F37272E27,
2F38262422261E2333212525271F2A1C27262F2B23252923381A362624291D1127272D222621252736282E252824292B27282923212621F5232A2A392F24261E,
3140262423272B283A2224272320302724292C2D28272C2440042E262924000C20212A1F26252723362736242723272923212626222326F923252230321F272A,
343F2125272125263A25242529232A2624282D2F2822292148E62D2128210A072720282625232223362936222626232A2421231F2322280726262636321D312C,
493D20121F232926451925272416392A282025332427371D51DE3026312102FE11273D2623252522222749232217273D25272329252627E915262E413B244036,
1635273541241528213D2325283C1E0C24251F1324230E342A0210240D23262A3E280A23242927253D281624253D290E25262739283528413C221E12183A1E2B,
1C36273039210927153321222138270B262523222129203438FF1E28082124283523142721272728302420232635281624272A31272C25253525222C2637192E,
1F31222B3E251128182F29282A351E0E2724222229271A3338FE1B25062726223229182825282722302820252737251E26262730262D2636332423262231242E,
2836252A342915241E2F2322252D271226221F222129202B36001E270D2A1F1B30211B21292728242E242928292F241C23282826272F25342D28222E292D1D29,
2B2E262B31241D25282B2222222D281E29252B25222226312D06232410231F1C2A212520242624292A242E22272C281E2727221F282327312D291B2B2D241D29,
2928282831221B2622292324242F2A15272127202922282C330722270D271F222E2826252421262524242721222A2824272724252628252F302821272723242A,
232727292F271B27222A29252A2A23252824242221201B2C2904182914271E242D281A2225282623312525222327211F2722232C212D26422927271F292B2727,
262F282A2F2513291D2E23262A2E21182724272027261C312B101A261527241D2D28191F272728212925222828282222232926252127252B3226202528271F2D,
152C252A302521272230272A292F241F27232524272119332C1823281221231F322719212628282930232022233123192222241F2228283D34251A23282A2028,
2C39242D34241828212E2A25242F241A2224202423271F2D2F171D2515221E1A2E231E1E2525212831272D252631251F2421292821282433332520242C2C252D,
2133272D33231429232B24282A31261923272322212A1E2D2F1C1F23142721273027191F21212725322426252A2F231A242626262427212830241F22232D232C,
1E2C20232A241D2326302327282B211E2228201A22231D2D2825122514291F2B2F261B2A27242824302824292530261C2224242E212F213C3125231C212B272A,
1629252B2D221323292D29222933221B26291F1923251D2929161C260E261B2A2C281325282322273027202327352A152826262C202E212B31271E201F2A242E,
2028222935231527342B2729292D231B2525211B27271C2F260C192512251A202D26172120232225282825262230271927272627282B2733302322222130282D,
2227262831220B22322723252331241322201F2322282024221B172711281A1F2E2421272423252A24272226272D211C27242428252D252330221D26252E2328,
252723232B2816242E2C2823272E29162628241E222620272B1B1D2511291B2B2D252229212925232D242425212F22222726262F2031241330252125222C202B,
2C2C2824342613283C2C2425232F271127242724232620242F251E281224142428222327222925282D282925242D251C2123272A242D230D30232228292D2026,
2D2B2324312515253F2B2725242F26142324211D23222428271E1C291224152030231F292325262229232629282F28202527292F293120132B212623232E1E25,
23242827302210233E2723262627230E2223261C26271F2B292820230A24172728242426212129262A282023262A241C282829282230220B2A232525282B202B,
1E33282A3A250B273F3428282538280C2226271B272116322E171B2B0D2311283222132724272122362722282632271922232231252E280E3826222224301D2E,
2130202935230E21393321222730200E2722221A22251229261217230F210F26332A17312726222534251B252834271D2427283A293722042E2222201C341C26,
152F252F422804213A382523244120FF29261F18252112372B14172301220F2F3D280D2E282626283F280A20263F260D222827332539281C3D2620181037132C,
6F542422292837273B18242A201F133727270B4028281D1C34162024332332FE0C262C16232624271F286B28220B273A22292237272D255F0F2631244325491A,
523823252C262E26251A2925261C182D22251F36242629232D0F242729211F0119222C1D2329262821294E23271527322421222A252A24551A282D38402A3B16,
473E223029242D283B202527271E1F29272226342324272C2720282A25253B1021252B12232722222B294525221A272E2527282B221C214321261D2532283422,
4645252C2A2927222B2125222322222E23221E35262825252D342D26232636FD22222316272825272F254027221D252C2225292E2428202D1C232622302C301B,
4A502132302528253D222522222820272828203828271C2D302426272724320F222123072524222933264526281E2426222625322620262626271C19332E2E24,
2E4327332926322238272329231E183221222B3426271D291C5E2A222825420D2C231F0F232627272A293024231E252424242629221E20462122211129272820,
4949232E312731254020222825241B3421261E342726192819241E282625540B1F241F072828282823254728251B21262526263127252665222921133230311E,
2C37283334232A283C272423222A21232425292E22271A2D291C23211C293A04292218182327272332262E222329241F2323231F2423205D29291D212C252025,
534824262B292D29391E252321241E232828233A27261F212A5C272224265E001B252D122428222221294722271927272325232525222241212625253A263217,
3C37231F27262925301B2224241D1A2322221A2F2229221D32352529262755041C2328172525232624224229241A222C26262A2D26242152202427243521361B,
393A21282B22352339222923242416312727193026231A282E1F1B282223320820282012242527222C263F29241F232A2024222A23212352212325172C213619,
3336222A2F233028432A292322251A2D242523312523222630211F2522282B1A28272015212425242D2336282629252129272721251C26252B281D1D2D21271F,
3839212B27262927312424262223222725222333282725252F392D292528201C242926152521282828243B252620222C26282622282028392120231D2E222E21,
4B40232E2E272D253023252223271D2F24261A312321181E1F4A1F271B295B1F1C261C11262923252F233C272421242A24212131222824522023240F2A343318,
313A25332F232D203F23282725271D262121242C25281E252D3629291E28320F26282019242828223B26312821232424212625272825285F242523202B2F231C,
4949242D232441224C222129261D243723212B4324261B282D21342427242D00262726062125212836264823261D28262724291B231C252F1E271C273A222423,
494627272F232E233B222322282B1D1E24231E3A22241721322E2B291E2955041D25240A232A2729362343272324232A2828252C2721264623241F222F232C1B,
4549243235262929312C252724281B262229162D21261129313022281A28460F23242010222525234023472426262226222927352428246C2A26241B2E2E2B20,
4F47242826273324391E2625241F1C3925211839252A1728261C202224213910222923032026232733245029251621292624292E2A1B21561F212217362C3520,
5D4A282333233328321B2529261D112A23231239222319172910202528212EF612232613282925241C2457272212293424272230262C267F15262B1C382E3B0F,
485022292B2334223E2422222720212F2424253D27221E293EF72A27292542FE2628250D242727283A275022251B2A2925262921261C20412526252B3E20341E,
6C6524232F233C27361E2224211F1F3323261A4723251B1F401F27262C223CF01725290B272428272E22612A24112633282525322424245C152623293D2A3A21,
333F241F202626262E202923291F3E27232331342822342B67F12C282C2AEF05212736272625242121283C252227283422252628261F26F323212748391C363C,
222D232329261C29202221282621322529272B2629262E234C08202829270D1024242A29272A242528233525232B232B27282626202327152728273C2B253033,
2330292D1E252429232A252225203625212434282928272C593131242426F01229272B282223252246223226232B222622232523231E281828241E4A2E212C30,
1B1E251E12242C2823242125241924272623281F2722251F3A3430282B23F31323273335222228253A23272829292431252523282727292826232C3C28192D24,
201C221C1E262C222B26282521212B2022282B212928221D392021252025EA1D20272F2C262624252B26232A2524282B26222728262728212821283028202E28,
2230242A1E292C283024282324272D2E23252D2826251929411E25262C28E60F292724272225242542262A242A28242A2425282C23222506272822312B252C2C,
29372325262730232726252325252F3226212F2E2A242426432330242B2AE7072C282B2829282829352631232826292E2824252824242814272127322F272B27,
2927231F1E272D26152522272123292F22242A26252627223F372A22262213182527342F2825232438282A292927222B2724272D203221022029323A29232F20,
3F3425222B2A24222E25292724252E252422282D2625231F4B2427272426F30B20252E2A28292323322439282725292A2724232D242F271127232F44332C3028,
3A272520202327222224262226222E2227292E2429292117471E332A2A21CA1222263628212424273A243A24282225292525282D252A201D21272E4D372A2F20,
272E28252C2527262329252721272E2325282D28242124224C2028252425D0122B252923212429243B232F25252E26222128252C262526132D26273D272D2629,
272A292428292826292723292127302921232C2928222921481F26232428E91A27272A27252423292F222D22262D27282923252921252601262522332E242C2E,
2F32252425232F23322627272223362B23262E3126212C234D252B2A2B24DD1B28243220232827282B273527232B22292922232A252125092927243D2C2C2A33,
2E2528271F242927282824272723342C28282F2C2224271E48222B282E26DF1C23272E222925232830243127252624282225232A262527192726233B2D2E2631,
2123232D242518251E2D272621252F1D27232A2727292A253E36242321260A152A24262B2927232834272428242A252323252428242628152A29242C252A252B,
1E21242321232D28242425262827252F29222C2423272523391A26272523FA1526222530282923273A2423222A2721222228272A212D280E24272A2D23232B24,
2D372820272635273822222623271E3126241D2522241A1D39091F252828FC12212928242822282636282F22272A242B232126362333250027282F292E293422,
2F3926281F262C2629252226221C322A2728302E272623224AEE32263125EC1124292E1E23282722342835282325252E25272827252423FD1F23293D38262830,
3931272327232329271F232428232B292622292A2525231C410B2D232A29E3161C28302A252426242A2830222722212B29242430202D28FD20272E382E2D2E2B,
1C3B292D28282B242F30222827282F2C24282D2A27281B30500928282624EB18372719202128282849262A29293428192626232C272324F03021232F27272033,
1E2C241D18292C2724252423241F2C2A292733282924292153232E222424E21125252E2F262925243B262823282E28272326221E272323042A242C422E1E2D2B,
423C27191E2222282923272425233B1D2A22343124252B2167092A272C23B4151E27382C2328252630234222262B26302827242B242422E225222F5338233133,
5352282029253C27291A212626212F3622212F402124311F73A531212E238AFD1D243C25202821281B2254292819243A2828232B282825151720345947213D33,
4F45241F23222C222719232822242526242827362823352055DE31263027C91520283623212224251B2645222318263628222336232F2320182535453B243527,
3838252119223027311B2825291D262D2825362E28232D1D461240213221C215282735212528252530293222271925312129272A2126201E1F262D3A311D3220,
36352827252324232E1E20252421212928252D2C2328222445102E223226DD11262A2B2224222723352A3426211F28302527282A212B221D1D272E3534302A22,
2F36222721253928342926212820293021272B322323242248FB2D252C29E90A2D2A2F192329212933253926232723292325212A2922252124222134381D2E28,
2E2E202323272A262F262622222325252429283023282A23331827242224E6142821261723282425242331262625252927282426271F252A202524262D1F2F26,
4738232E282624251E212322211E2C2626251D312323282B3B2E25232322ED2020242E16242327272A274327251F252C232524322721241A2224212C342D2A25,
372D242413283C2624202623241726302521223129242D274EFE2D292A27B8212624341D2726242435214128281C28342223232928242123222627453E1B2F2C,
393C262C26243824232624222127282924221D2F29232321491C2A272828CB1D23232D1C212321212D283E232820222A202126372126242520242B342D263926,
3D3B2329262437242E1D282324252733262326352826292147F02C243224B40D2622271A2422232429263A252620223126282A2A23212422212028383626332B,
453C212425273529362828282521272C262524342123201C4A182A272E26BC172A2630172527272737233F252820292D2822262C292626182629233F3A282E29,
3D402128202228291D272827281F2F262223282E2623252659322E262321BD1723242C1C2327252939253429292A262D2724292B222125272826264234252E28,
2E3D282921273523352C2827281D2E3925262C322525282F5E412D222B26C71828222B1B292321283D243627262B242C25272626251828292B262445331C2C31,
3932242722262B283225242621232A282428272B282A2A2158202A232722CA111C232E1B2426242827263F24241E272D2327292D29232729252323463227312A,
393B24272A27272621282723252C211B27211D2E2627222A592A26222027C7102828291C262422252F243828262A27282825232B2524212C2722204531232C2A,
3133212522232525232423262223212221281B3027282D25434A2E262028FD1D1D262D2125222A2230222C2626212929282A261F2422240522272E362B1E2C23,
323E212B222A30293B212424221E222D25211D2F2922292956182F261D23CA1828252D16242527262E2533232822292B21272520242327442922263E391E2C24,
293623292329282330212721281C2C252323332B29272E285B0E31252926AB1929232E242127232638252F222923233023282722272224F52627284C3728272E,
2E3A282424212C232D2A232825241E2522272E2F24282E2E4C1331252222C604292423252626212337292C2523242228272627202221272F2624293836292925,
4041232E2C273D24292121272426173725232237252324253CFF1F272926BA0821262016232324222D283E25261A273228282529272A2219202627222C323624,
3537262C2124322736232224241D2B332125363D28253B2B530E37263521B0102827351F2421212229233624261E21312323252128232604222425403E1A2E2C,
4541212A252836213F1C2722261B26332625263A23252F305E2A32213D27800D2624341C2625282324234921221726352321291F231B242C1F25284D3E20362E,
3325221E12232B22301C26242118343526233B2827213F2948DC3E213D24A91F212044302428272924212D222219243A202122202527280D1D283C513A17302C,
3721221C242721222F19242123232E25282825272623332246E528222D23CA1818212D2F212028271B2436262619263524232726232C222D2026353B2C2B3625,
2023262516233526191D20252319293821252A242423322739EE31202F25E726232131312721242523222B262422212F242322232823211A2025323A291E2A2A,
2823251F2A212D241920202228261F3326222026242634242B352E242227DE1922242933202521281F231D28271D25292125242E273428031F2631301E29271B,
292B28242A242A232921262328291D34212928262027262835F82F262124C61F1F242E2B212525272A212526221F252C25282626222B2736262832362B24251F,
281C25241D232B2115232528252125302120272322282F2631122D202927ED342324342F232227222F2421262722242E262526292828223226292F33292E2D1F,
1723252827232225262A25282522321D212038292124392F38EC32222A26EF222F252C2A2421222826282022282925282421261B2A1E25352C28273829261D29,
26172522282524221E2823262627291D282924212023302632FD29251F20DE2520222A36262221231A272227262822272122292C252C282C23233234222E2823,
3521241E252723252622262323202F292424312C262338243B0D34212C26D71B2527362C282428221C232D26251C242D27222825222324121F23304535282925,
3228241D1E2739242D1D212820182B3825212D2A2827372641FA30252A26C71F2026392E2422262122223228231E223324272624232B201620283248321D2D21,
2B23281E1F21272528202A2124232E25262534282526402542EC39242A27A71D212537312722272517272823231C292E212424232626281620262F4433212826,
3529212127251F242720252224222A2126242D2C222541263A0433212821BB1A1E26332C242127220F242C23251F223323232525252D21FF24212D3F2E282C24,
2321242B282520252B222228232821252523222722282C252B102E242922E5282A292329242423222A232422251D232723222A272A29221E2820252628332323,
2423232B24242826292528272825212B2128252B2127312B27CB31222724F52526242A24212728271E222A252121272D25232A23282022312521262B2F262825,
181A292622252126111F25202226252722282A202626362A36E02C282928C81D2825292D2327272224251C212825252923252522272C262229282F3A262B2623,
191D2622232825281F2323262620211E22222B1C232633292B182B272D28BA1925242A292724242820281D272223242B21232621222C2634222632312429291F,
1E232525212622241E282622272A271C23282E262527342F3EFD33222425A9242E2127252028252326262228272A242021212422291E23302F2523422C231F2C,
252D26211D26312225222721231E263126212B2C24263428312039282124E71D28252F28242226251F272528282128272322211C2725261F27272D352A172020,
2C23211C1D263528331D2425241D1B3421261A252726331D2BFD29232123F2231D233030262422281F232C26251F232D25272827222D282F202536292B212F20,
352D2520252728262B1B2622232222282426282E2724312330FB36252728E32D1D26322E262222231F263123281C253525262828262825FE1A27342F2D252C20,
291E241A1A222F212B182323241621312725232B2327371D2DE32F252C23DA1B1B23342F27222326182029282814203121282322222A203B1622352E291B3523,
3E32281C20273724311D2125272231362324272E24233E2155F32E272421D01416253E2C2321202413274522251F233823272728272B2801192136473B203E2A,
2F2222171B2727263209272327110F32262329242428351A14E93924352625FD1A233E27272826240D272226240F294126262616242E241B11243C1C37103A11,
20242623232225262E1A29232020132B28212F2525273D230FED35282A2A1F1420212D282423232813221A282310262E28222511222A202A1727391C2A0F281A,
2928271F22272021251822262818192828232D2721243C2315083824232927161F2933222226222208231E272A132931242725172725234F1D2732213019291A,
3126271F2826182429192123271B18212122312B22243E2014DB3A26222524F81C222D1B2329212201271D232213263124222710272621171D27341E2F132A16,
1621282C1F272328281B2927231D112C2729332A28213028071F36262E281C102A25251D2024242622241522251C212D202723102925291B1E222E0B2D131E0F,
271D2822292413242A22282523231C222724272222282F2414F82C221822220B20262721252428271C271E282A212528232223142926260921292F1D2F222616,
2820242629261B251F1924262721162525262224212828250BF2282520242319282626242725242219261429211A252825252821252722301D28300A24212417,
1620222822251C21262625222026182727282C24232A282918F62E242324202529222B262823272920261E2927212120272625192423241D28222A212A20251D,
1023232828292624251F282125221C272721302426253328134A3122262424162927211C212225271A291226241D242525252A11242220212727281427142420,
382F271C262225282C19292423220F2A2525202E21282A171C1F2F262328160719262D1C25242725182330272214232F22232322222E252B16252F1C2F13330F,
15222824242823242A202528281A142B2124312823252E2B151C3422272112142D23271F2427252221231927261D212626232113231E253927272D1B3010241E,
242222191F2A2F25251C22222319112F2124282128292D19150F2D202524131A1B25312525262929202224212717242E23232A22292A270D17273317301A3216,
241E222123242C222C142329271F162B20232A242222362519EA2E23232411151E292925252126210F221D252418222928292919272C24251925311926152B1F,
1F1C281F26261926221B2322251F1A1B2324282326293A231B1032271528151725272E27272729280E281724251D2127222726172429263D24272C203018271E,
151F27231B282722291A2422211C1C2A232331282727382913FD30242823151626222A1E2425252714271D232716262921242810241D281D1F272A1C2F142723,
1225222425271D24262524212621182322212E1F2228342522FA2E281B250A0626242629232725251E25112724242123272328142A23242A25242E2528121B1E,
122B232524282325252226242723112421212926252933251A2130232223021928261F1D202723231F250F24281F2626252522152423270A23252E2024151B1A,
2428232827211B27262528272625142522221F2825292E22132C25211B21FE142624201E2725282822241D262120212822282A1B232826FE24232B172520211E,
2A27212825272D293A1722212615132A25212F2D22273528113433252527030E2722291A21212428182820232815262C2626250E242228271F232D1B3013221A,
212E242B26222928301C2324231A16332522312E23232C26122732242826F9102C27261B2523252528251E26241D252628222815292628C822222B0F2F191F17,
2F3127252B232B233B182124231E083223251F2924213122071B3424292705FC22242F2125272122112126222714273321252617262D2301192434102F1B2B10,
2A2226161F22312035112A22251F09322725202222243217100132212827FE00142735362223282309211729261528372721241B2A322307172945112D14350B,
3B2226181E2928261D072623291A10362224282A26243D1010FF3922312829FF0D25383124252228FF222428220929472321232029332227092247113519440C,
3F2323161D2323241A092421261B172F2526232D2526451704FF38202D2823130C273F2724282625EF222027220B23452521211B2333213607203B0F2A153711,
1211222120211D2411132224222019232621311F2827352012E938262524231D22262D2D2820202811240825211B283028242014222C232B1927391421152918,
231F24211E2323201A182321231F1B2F24252B29222632220FF832272728261C1B212E1F2728282210291E2624192534272229182828263C16242E0A28182918,
353727302C281F2923202327221F1D212023292D2424272615EE2A252526271323252414252728291C232A25271D2A2B23262023232921111C21270A2726271B,
382725212B271B231F1B272126211A202621272826222E1F14FE27221D22201A20282B192726282210252221281D27262627281F282624E51F292B1529232819,
2518292228251422182125272529111E262328202422281F060B25221825261F1C2624262124272614281523271D22292624221F282F20291B212C061C262419,
262525242E221624232022282726241E27252F2721283523181D2E251D2526211D262C21282121250B241F2524212924222622192827240F26292D19261E2123,
392A28212621242629192028231D1D23242A2A332326371D193132272525221C1424361D2526282201262823281727302126201A252320081827291D2C1E2C1F,
3B2C26262B212A27291A2326282016282728293128262C1B0F463123262715101F282B1921242626152428232817232E252423192427242C1D2029102C242916,
2125282821282D24231C2521291F182D27272E2920272F200B25322128210A0E2528282024262423182319232819222A22282815232921181B272E0B301C2D18,
201F231D2420252728182124221E172B222A2D2928282E1E0E1C342323260D161E252A23242627210F261D28261729302122271D2328283D1B20330B29182C15,
2E24271A242828281E1A2621231B1B282721262624232D1715202D272227162115222E2224212428162429272519252F24282920292925251D272D13291A3017,
331E251E2529232222152725251B232522282A2D21283C200F1B3022222312241A26311B22272324002324272713253223242319241F255116242D1F30202E1F,
1C182426212524251C1A2A20271B17272727342521273B2212132F222526101E22212E2120222626112714212417232D252628142724205920272F19261A271C,
2922282229242026231A2720211E19212422302D25273A1E15223127192705131C252F19252127220224202124152928242327132726232720272E192E20221E,
342821222A282027281F272221241221272820242229291D1D0B24281B23FF1018202C2123202222132226262217252D27272221243127141D213411251D2D16,
261C252120292926251A272721211F2A23282B282123331F100931272021FA221F22281B262320211C271B28241C282A25262118252423071B282B162619251C,
24232322282219252B1B25222424272121242E2E28234124191031201724FB171C282D242223262006271E23261926282822230F272126FF22232E1E271A1F22,
251B271F1F2127262B14242522171B2B2426322926253E1D0D152F212527F6121F2829252623252415231B272313282F2326270F232527E3152731122718291A,
3E172210222125271B0F212627200C2E2326212925283C15FE2131242622F8130D22352B23282628F8251B24251128382322231D2733202A0D253E0C261D370F,
4B2A24161D273628370C20282815143B2224263323283716091138253122F40213233423292526220A263225240C24402224281E272E23120C283F123919400F,
0000000000000000000000000000000000000000000000000000000000000000B3030008150B0D0C0321050A050A030A14F70801210C070A0405051A12190A08,
000000000000000000000000000000000000000000000000000000000000000001080C20FC05FE0E05F10E0D0306110905320D04FF0F051B08250CFE0609F409,
0000000000000000000000000000000000000000000000000000000000000000080712100C0D140509070705070B0A07020C081804080C020A060A0C1F08090A,
0000000000000000000000000000000000000000000000000000000000000000FE07090C0A06090D050D0C08080E0A0C11F008F90E0C050D0E1708080811010B,
0000000000000000000000000000000000000000000000000000000000000000E40C060F0C0B0F05040A04060A030A070FF207F01208050E090C030D0D13FF09,
000000000000000000000000000000000000000000000000000000000000000006071212F702090604F20B0908061A06FE100404130D060C06190B0502100E05,
00000000000000000000000000000000000000000000000000000000000000000608080F060A07070A0C0D080B06070D07070A0D0807090A0B0B0A0C0A0F0A05,
00000000000000000000000000000000000000000000000000000000000000001B0A0D000D0A14090A1008060C0B020C10080228140D0B02080604141F0B1208,
000000000000000000000000000000000000000000000000000000000000000012070DF9F10A350A0B03080A0909070C4B210C11000D071807090B0210BF2F07,
00000000000000000000000000000000000000000000000000000000000000000609060D06060E0C050B0E0D070707060D080D0A080E080D0D0C090908060905,
0000000000000000000000000000000000000000000000000000000000000000E806201206030E0806F609060908160DF90F04FD0A0A0AF70612091015041104,
00000000000000000000000000000000000000000000000000000000000000000A0B09070E0A080C090E0C080A090A0A070A0C0A0C0C060D0A0905090C080708,
0000000000000000000000000000000000000000000000000000000000000000F50A141E10050D090BFA0C0C0B030D07040B050FFF0206080809070E21070A04,
00000000000000000000000000000000000000000000000000000000000000000D0A09070C0D070B0E090C060B050B0A0D0B08070F0B0D0C0E0F070E090E0A0B,
00000000000000000000000000000000000000000000000000000000000000000C050C060A0B0B0E0E0E0D0D0A0D0A0B050D060F0B090B06050C080E070A0E0A,
00000000000000000000000000000000000000000000000000000000000000000C0A0808080E0B0B0A0B08070707090C060A070B0E0C0E08090D08070D070507,
0000000000000000000000000000000000000000000000000000000000000000030E0B0D0D0905050B070B0509070A030C0308040C1E070F05150C00FE11040C,
000000000000000000000000000000000000000000000000000000000000000009060A0E0B0A0B0E0E0B09090509050E080E0905070A09080E0709080A060B08,
0000000000000000000000000000000000000000000000000000000000000000100606050E0A1909090805070E070107050D0B1D100E0AF80601081723101004,
00000000000000000000000000000000000000000000000000000000000000000905070D070B0A0E0B060A090B0C0B0A060A0C0B0A080A0C0B0E07080B090A0A,
00000000000000000000000000000000000000000000000000000000000000000A080A070E06080C080E08080D0D0909080B0B070E07060908090A0B0B0B060B,
0000000000000000000000000000000000000000000000000000000000000000F0050319180B070A060C0E0A0A08060A110B07FEFE08090C0A1509090809F208,
000000000000000000000000000000000000000000000000000000000000000006090E0D0E060C080509080C0D0E090B06060C05060E0A0D080D0B0C0B090808,
00000000000000000000000000000000000000000000000000000000000000000305031022071F0E0DF804090C04F30C0F10060AF80208040E03050D2D050502,
0000000000000000000000000000000000000000000000000000000000000000080D0C0E08060E0B050D05050A07060B090A070908090D0707070E060B080E0E,
0000000000000000000000000000000000000000000000000000000000000000090607080D0C0A05090B0B0C0D0D0E0B0908080C0C0D0608050D0C0A080D0E07,
00000000000000000000000000000000000000000000000000000000000000000B06060C0A06060C0E0C050D070E0D0B0A0E060608070A070B0B08060C0B0E0B,
000000000000000000000000000000000000000000000000000000000000000007090C0D0507080A0A0A070608080C0C0D0B0E06090D0B0C090B0B080D070909,
00000000000000000000000000000000000000000000000000000000000000000806110F00020A0506F908060409130C0211060B1A0C0B0A060B060E0A16100C,
0000000000000000000000000000000000000000000000000000000000000000040B080F0B07070B0909060A05090F0610F90503101A090D0C0E080002140606,
00000000000000000000000000000000000000000000000000000000000000000807090A0D060C07070B090B0A0E070C0A06050B0A0A090D0D0F06090A06080C,
00000000000000000000000000000000000000000000000000000000000000000207090112091D06060F030A07030209120B06190E1A050007030C1119091304,
0000000000000000000000000000000000000000000000000000000000000000120A0BFD0C07100C09070508070507080307081416120B020EED08020F1E1B0A,
00000000000000000000000000000000000000000000000000000000000000001B05EC1F210A0F090625070A0808EA0CE6190D1DF00C0DFD0D070313250E230D,
00000000000000000000000000000000000000000000000000000000000000000707060D060D0D08080A0C0E050D060D07070C06090E06080B0E0C0C0D0D050A,
0000000000000000000000000000000000000000000000000000000000000000E506020C110B020A051C0D050605FD0E1F1505C6F80709150B1306FD0309020C,
00000000000000000000000000000000000000000000000000000000000000000A0C0B0D0A0C0D0D07070A0807050E090606070B0806060B0B0D0B0E0E0A0C0A,
0000000000000000000000000000000000000000000000000000000000000000F80B0CFF100A0C0D0411060D0205080513E10C001830091109110604030E0D04,
0000000000000000000000000000000000000000000000000000000000000000170903EFF40B1F0B07030A0407071007F31406130905060C0CF50AF40CB42806,
0000000000000000000000000000000000000000000000000000000000000000E505070D14040D05030C080A050409070FF803F1130A0509091109131315050B,
0000000000000000000000000000000000000000000000000000000000000000FB05FF031E05150A041E0B0A060404081C0308121A0E0D0D0C0806140B0A0E0A,
00000000000000000000000000000000000000000000000000000000000000000A0309050602090508150B06070313060FFA08071C0F0611080C040A04150B08,
00000000000000000000000000000000000000000000000000000000000000000C0D0F0A0A0B090808080C0C050C090D090E0C070E0A0B0B0B08080A080F070A,
00000000000000000000000000000000000000000000000000000000000000000B0B060809070C0F09090A080B0608070B06090D0E0E0C0A0B0907060D0B0D06,
0000000000000000000000000000000000000000000000000000000000000000FB060708160A0705091606060A09030B13F20A061417070D0E13060A05060008,
0000000000000000000000000000000000000000000000000000000000000000870C02FB1009100E09190B070807070A16DB08AB2A21060D0C06080AFF110D09,
0000000000000000000000000000000000000000000000000000000000000000070E0D0C05070A070B09060E0E0906090C09050707090607060E090C0609090E,
0000000000000000000000000000000000000000000000000000000000000000090B0C08090E0705090B06070E0B0D0C0F0B0C0A060C060B0E0E050B0C0E060E,
0000000000000000000000000000000000000000000000000000000000000000040704100607090D06070A0D040D04081532050501090515090E0405010A0506,
0000000000000000000000000000000000000000000000000000000000000000800CFC0B1B06080C0C2005060406060916DC05DD230E06100C0004121018050D,
00000000000000000000000000000000000000000000000000000000000000000E0B090708051505060C0B060A090C05070A0A250F0C08FC090909171D071405,
00000000000000000000000000000000000000000000000000000000000000000C0C0D0B0B09070E080608080A0E08090B060D0907070C08060D0A060806090C,
000000000000000000000000000000000000000000000000000000000000000008060609070D0A0A060E0B0C07050A080C07060C0706060B0A0C0A0F0C060C08,
00000000000000000000000000000000000000000000000000000000000000000E08060E0B080F090C0D08070B05070E070909090E060E070B0B0B0A0A0A0807,
0000000000000000000000000000000000000000000000000000000000000000050B0703130818070B0F0A0A0E0A04040C08081E0F0F0DFC0E020B1520070E05,
00000000000000000000000000000000000000000000000000000000000000001106FF060E0A0B0C0B180A0803070205137F0DF8FE100A15071E0713080AF804,
00000000000000000000000000000000000000000000000000000000000000000D060D0C0D0D0C0A0A09070A0D060C080D0C07050D0C0707070E09060D0C0A05,
0000000000000000000000000000000000000000000000000000000000000000F908FA10190901070C0F0C0D0D0AFC091F320BFAFD0907170914020302070A08,
00000000000000000000000000000000000000000000000000000000000000000B0E0A090A0B0C060A0C0A0E0D070C06060F060E090D0B0D0A0B0C05060C070D,
0000000000000000000000000000000000000000000000000000000000000000FF0B11050C0519050710040805080C07040D071A060F08F50D0D07161D051005,
0000000000000000000000000000000000000000000000000000000000000000FD0A06FC2D051F0B0D1A08070504FA0C120A0B0607080B030606061D1FFC0D06,
0000000000000000000000000000000000000000000000000000000000000000090D0E0605060F0A070F090E09070B0C0907090C0508060F0E0C0A0C0A070709,
0000000000000000000000000000000000000000000000000000000000000000EB0B0B0D1706100A0B1104070903080710F90BF01008090D06140B11120B0508,
0000000000000000000000000000000000000000000000000000000000000000FD050C150D090505070F070B06090A050AF108FC09070509041604020C05FE04,
00000000000000000000000000000000000000000000000000000000000000000000000000000000000000000000000000000000000024211F1E141E12221D14,
0000000000000000000000000000000000000000000000000000000000000000000000000000000000000000000000000000000000002F21F1F3083326183309,
0000000000000000000000000000000000000000000000000000000000000000000000000000000000000000000000000000000000008023270F27ED2A1AF920,
000000000000000000000000000000000000000000000000000000000000000000000000000000000000000000000000000000000000270B1F23FC1F1D8E2D14,
0000000000000000000000000000000000000000000000000000000000000000000000000000000000000000000000000000000000001D1C2728238A27F5EA2E,
0000000000000000000000000000000000000000000000000000000000000000000000000000000000000000000000000000000000001F232A242D131A192320,
00000000000000000000000000000000000000000000000000000000000000000000000000000000000000000000000000000000000029220C1C2E0DA538F318,
000000000000000000000000000000000000000000000000000000000000000000000000000000000000000000000000000000000000261B191D1217111F1319,
0000000000000000000000000000000000000000000000000000000000000000000000000000000000000000000000000000000000001B03281B2133F8381827,
0000000000000000000000000000000000000000000000000000000000000000000000000000000000000000000000000000000000001F1D2426112927241F20,
0000000000000000000000000000000000000000000000000000000000000000000000000000000000000000000000000000000000002B1C18020C1F1C311F1F,
00000000000000000000000000000000000000000000000000000000000000000000000000000000000000000000000000000000000001201F1B183D2112C82C,
000000000000000000000000000000000000000000000000000000000000000000000000000000000000000000000000000000000000E9D2BCAAAE1125BF54BD,
00000000000000000000000000000000000000000000000000000000000000000000000000000000000000000000000000000000000018291611291B131A2215,
0000000000000000000000000000000000000000000000000000000000000000000000000000000000000000000000000000000000003CD6FBF6FAB3A7F73FFE,
00000000000000000000000000000000000000000000000000000000000000000000000000000000000000000000000000000000000037E93F1A24F60A3E2118,
000000000000000000000000000000000000000000000000000000000000000000000000000000000000000000000000000000000000181F22112B20211A2111,
0000000000000000000000000000000000000000000000000000000000000000000000000000000000000000000000000000000000002244FB0B1C4E151CEC0D,
0000000000000000000000000000000000000000000000000000000000000000000000000000000000000000000000000000000000002814220E15131E1E1A1F,
000000000000000000000000000000000000000000000000000000000000000000000000000000000000000000000000000000000000231A1C261E231C141A1D,
0000000000000000000000000000000000000000000000000000000000000000000000000000000000000000000000000000000000001222101228192214252A,
00000000000000000000000000000000000000000000000000000000000000000000000000000000000000000000000000000000000024291823202025111618,
0000000000000000000000000000000000000000000000000000000000000000000000000000000000000000000000000000000000002C22674823AC242E108D,
00000000000000000000000000000000000000000000000000000000000000000000000000000000000000000000000000000000000020161210281511191B1B,
00000000000000000000000000000000000000000000000000000000000000000000000000000000000000000000000000000000000019210F25151321211111,
0000000000000000000000000000000000000000000000000000000000000000000000000000000000000000000000000000000000002F0B2720F03019EA2D26,
0000000000000000000000000000000000000000000000000000000000000000000000000000000000000000000000000000000000002527172210282A201512,
00000000000000000000000000000000000000000000000000000000000000000000000000000000000000000000000000000000000002F7222925D41512F029,
0000000000000000000000000000000000000000000000000000000000000000000000000000000000000000000000000000000000003B26192D33DC1728F5F8,
0000000000000000000000000000000000000000000000000000000000000000000000000000000000000000000000000000000000003C311620F5251B0BE90E,
0000000000000000000000000000000000000000000000000000000000000000000000000000000000000000000000000000000000001A0F191F10200C181F0E,
000000000000000000000000000000000000000000000000000000000000000000000000000000000000000000000000000000000000C9CDD2C6BF92E0D17FC0,
