memory_initialization_radix=16;
memory_initialization_vector= 
392265FFE27426E34F23730E26C38D0F826314326027807E27329A26E25F24F27A22419B271277267309274368339DEB2002AB18F30F2681CB3932013792692052632561EC26428123F43C2812791D83B02772D42F821E2780B03442795D92E7,
3122B617F2642762A02D429F2562E51DD2642662702751D41A92E22632BF26B23120B27726025F2682B42673163041792212682162F02792EC39425A2AB2692F825828326726726D2A034F26627C21B1DC28622028F2722141BB2DE26D3B11CC,
2C524F19B27226628021427A2572D123526324526F2681FF28C2542EB24826523B2A02E026C26526D1FE27D2ED2C11DB2942A03062512622A62BD26327126930325A1D328C24A27D30637626F2812711AE2671EB2B52B21E02E01E827A3881F8,
2A12822492622663102D12CB25C2A81DA2571DA25427C27A21927323324A25C2662432D826827726427628426E2D02B726922D35A1792741F823E2842C426227D26A1F927424E27F3442C727527529321C27E26B29D2272281FA31B27E2CD310,
2A830329B26D26E2D32DC2C425E2CC1C526B28A26C27126A10E29328F22926124029A2E426527327B24528322728322628630332F1D32822FE20C2B327627220C25C24126425927B25823926827729123F27A2492B821721825628027619F2BE,
3103111E527926F29928627224727E28A2652BB25C26026027A27B2952982792512702D425E2672702C227D25D25F30821D26336E2B226A1FC2792352762682A026E1AD2B125526C2A722026226B26F1E026125825A2812002DB29827E27525D,
2972672D926E27527B3142DC2502642E526F27D2552732C31F62A82582B526D3182DA26F26628125D26326A22D22414A1FB28A37926B27C30F26726424228425E25F20828F26627321922B2672732B11A22752D42A02701F32C82D627D2571FA,
2911FE2B825D26324B28D29825A22628C2732CA26827227214D21023E28027E2AC24424126328627931727A24423C2132602DB2AE21B27F2D629323B24126B27F25F1F428924426B2712C327327F26A1F225922E2361E221C27724627F1CC2CD,
29E2882EA26C26823A22728525F23E26E26427F25126E29B1D52692FE26826C22D20623825F27226D2A227321121A0E527522F2722A02802B724624528C2692192572842F725928124729327627B2431BE25724B2B623926A2AF27828522229D,
2DF2A73AD26B26928F2882442591B31D625820025F2811B81BB2AE2A023526825127023026526D26828126824921924425227C23F26127B2DB29C24C2A126D26726B2902AD25026A2EB2E72632792582D025B2582CD2532772F325B27A29227D,
2AC2AF29F2642622AF21C2D32682281FA2561C725327C18B23524B26C24028225925A24227128526E2E927524025214E26A2872412B72512872EB21E2A32642CE2502072F62582662BE34827926D22324125C2B62091C82502C632126626A229,
2AE21D25126027B24B2D329527B2591F826D2102532821A826D2C832020C27B26728827F26A27726726B27A25625E0D12A62AD24F2A027020F30423C29528128025125F2EE26D2782D331227E2702032AF2652BA2B328129B2C12B22762F02AB,
29521924C26C2642742952C32442831A726F1C125627721D2A32DB3142E827E2442B729726126427027226B26D2C01FE2282BD25B29B2651A633522230B2712632632E531E26D2802E63542882692372E925B2812842072CF26732227034727F,
2AF1DC26425E2772A822C2DD2552A421626D2582772692843231FF2A623D27C1F92652B726027526324727D29928E1AB22F26231A1DE26E25622D28528E27C28A26D2412C625927825631227A27023B2E326320A28A2D82BD22B26E26B37D240,
26B25D17C27427B29326B28225F21F2B225B2C625B26B22D2682602772B026F2C22A230826728326928D2782BA29D28324A2622C022028522025326E23626C2DF26C2BD2B824D26926A2692752722901CC26C2502952892BB1F82B327F2B42AD,
2832462452742692712532A32612022B62552E328627124529122B2BE25427122F2A02C925B27827125227E2A22A83E92272653C41C62742C526027328726926126126F28126827A34925427226C2671AD27028928627E2C923428327626C31D,
2D92BE28F27126C2752BB28D2671F72C925C29026326C2D91B628E1CA26127A2D226525925F25726F2752732902DF1102D728A2A81DF27927728527323626826D2632FC2B725C26829D25628626B2A416F26424B2A92752D327226827125B261,
2A629C24826626C2562902A124128123725D2052622792842012C227A3782762DD27424825826D25F2E327D26F2AE28E21728434A2FB26D27521924F23A27120626835F2A123D26F2362A826827124B23427B22329C23C2EF2332A028819A279,
32024D2D027326026B2942832691F723F26E1E926827B24E1E12432E72392712D324521B2552762592A827226029E2B32C424232D2B627C2882522122C125F28125932F26C24126725B2B426D2811F82C82712AB29022C2C626628328420C214,
2FA2932C226826F2C32CA2DF2452691FF2612C12652702282B329027C21526F23D24E28327228327128227027D28B21E2562FA2B42722852A223726A2C82632D925B3171E82592672972CA27526C25A25F24C26C2C02582CF25E2B5280208274,
2CA21439D27628327624327E25621B1DD2952152672721DF2BE2CD26C29B2671DD2432CE26727025D2B727B27B22801529128825627C2852BE36528331C26A23C2742AE1AB25828231931527427129837625929D2662532B52D82CF27A150259,
2FE2AF52F26226D28021329624E2640F625F16326326703D3082273A524926A2372CC1E528E25E25F314267206231CA929F2601BC2632701ED3AC20635B2702B825A28111A26125E34B47C27026E29552226A1CB2CE2692A72F237A276FD827E,
E6B1362A826E26D1CB2342242573421FD2581B125C26230E0B91732402642671F34352E52AB2662633FB28409C1891F02E9D0B23F2DF25A36C21C54B1F52711CE2542B119326226D2D733128226D26A2DB26329D23B1EA22727C2FC27E36A27C,
1423242C92652832612E02C326034E27F26128E29C2742323492AE34B24C28324B3032D327427627733E2720B416C2C922A0F728232225528B1E62B82332761A22562012E325827D26931126E2622582BC27C2C822F3092A522031726924C2BA,
0172041C327A27815F31830D27D3912832531F027E27529213339727D1B327422E2691F126726726529827A12E2631AC279F2E2E725D2632DB3383791E827A2A62542B229324B27C3323A926E26321F1B62602B92B725738D0D52C627C2981AD,
00D25728426E26725530A23D2602F427926A3362922792DF30E2EB2F129525E2CF2F627026727526837E2751333312091E20D824616D27734A19434619627932326724D2CA26827A2C629527E2621F720026925E2702453E121B26D265350262,
14927F2BE27227A2BF1E332B27229329125C26D2762672AE3241F61FC2732551E333229027827027631E2721B92AC2EC2C0F603442FC2602682BE30623127C1E126A2642692652842AE2FC28527322820B27725C2891FF4132F7292277211331,
07531323526D2852844262AB2612542D82622662572802752762631B522626C19C2B62FE2902772592E428226433B28E2322C81FD2A02552942A22A222A27426325D25F24026726C3012CA2772802D416525D26E23716843424735627331522D,
15E23932F27626D2351CC27325B27A2582732C829028230318931828D2F426331A1F927926F27427530E2762ED3351FD21825F2F138B23E27126121F2142762A826C1A82A427228124C2DC27E28E28F2ED2651E12AF23A3FD2612622741E71F7,
21F2B51752762802CF28325124E1E126325E2B729126929022C2B42502E72702502B21FD25D2742702D42763803BE2B926305320D1C823C2962AC3121A927931E27B1C329B25D27431324327428423129427E23029D20D43535121E28034C1E2,
17027931126E26D1EF23A25724C2942D52571C627326E24F17C1CD22A2E92841712B229C25927627326227039E3D928824E1EB32C25E25026328237A2C227C21427B25D24226F27328D27828626D25B3B82802142051E64242CC23A28026C2ED,
0EB1E23152732671CE2642A823126818A26E10F2722852901FE2B71DF28C26926821E1B32612742672AC26836E3C72072B317D2B72302683771D52AF20926A19C26F1CC2C22742732402DD27B2752442F727F30D1AB3163BC3452942822072DA,
12725F25B26B28527D2582272531D025F27C21027F26C28532D23131424226C1E92C926C25D25C27F2DD2773553CF1BE2900C52A62D52793A728537C1B227025725B2A229C2602892B62F02762692AB25525729825124334125725B2822E6276,
1C126832E26A26D28A3A922025427D1F029220127627529F45721F2D734925C1CB29627225C26626530027534B3DC3082761842891F624024516B37A24426B2B326B20E30926E27131531D27E26D28A35725122F1D12362CD28234327121D2CE,
13A25121126726E1ED2A22802501C61F025C21E27F27224720723C20F2E326C27D2FB2182662732712A026F38937F2632E80C72EB29424F2CE2C13E525526224F27924E35D25B27A2D32D127328722B29E2722C72142B42621ED2B32772CC299,
03923C20226126F1C42572752463082AA2662F22742612E32D82493401BA26029E2DD22327D26126A28128B3982EE2972540FC26D2CF2512F02FF3941E52602642653202B224A2851E025927727B24823327D28D2D520A1BE1C42712802A41D9,
1F52492DD27B27923D3242912551F722A26A18A28527F2C52402042822A124C12125E2BF26F26526823D2743D13162332441D332525223D1E126F23821A2641F926425F3392682763222DF27427B25A2AC2832F225A2D315324520D27823E23E,
11F2C02CD26526C2431F32A623A27A2F32662CA2932702592A12651BE2132722841E928C2592732752382803EC2B42CD2190CA2E628F2632492862F123428230B2692AF2BE2722812112D228227420F26A26B2002AC1C60BF1B92782852E6226,
0C329231E2822642721BF30E26222E3602882AA26E27630A23631827F2D427F31B2C327F2632672672F62893CE2111742A7F3E2DF2A12602E12BC2BE20F2812EA24F2E127E29128833B2AA2822672891D62662882B91F306C2D02942782641EA,
1DD1D316126E26726626928026825929329F26C25927D2D52B91FE3421FA28716E2EE2DB26E27F2602C127D2D82402DD36D08A2952BD2641E81F535A23128217226A2CE2322892812192C828228E23928B25F20027D2860793012F827529E308,
15D24C2EB27627522A2A628428524C2F928D21D26F28024212035827322A2720C22A42EA26D2622602DE28B28F1A22532C1F8B2E626725928426838A24627728425F2D321525C26D3232F227127D23C2DE28427628228104A2C827727C2992BB,
FFC23135427527425F25A26625A1E72B726727626626F29E1B52CF38C28625D26624D1E226626D27334E2731C908529F28A0352B82B72523042792ED2192602072732D21C426D2702FF26627626525E1AF2752F71D12BC0D52EC33826C342283,
0A62B31E827826A23431E2D825D2420D52722A827128328A2B721538B29127B1333712FA28227B27424528214109E2DE26313B21F3282582502D93852402832EF26A29327926F26923E31226A26426727F27625424B23713821C30127F14C204,
EC515423B27926D18030724B24B24E1672961792592742363DB1B234C26D26A17E42023926A2652693A027FFE403917434ED683BA29B24D3592F852620528322725D30013228B27C28F3902882772371E72662581E125F2463102C726C1C02F7,
3032AA17427026B24C4042E027226B2BA28129626626F1CA1A334125E35526B2E12741F027A2742772A827D1F5BA12042C120429B24F2583671322B220827120C27B23028727727E14714E26428528C30326632525E2AE2B024D28426D248223,
1FF26F24A26426026223621228128E2AA2592A02922642552C822425C2672622313222EB28226326F2D528723EF152EC30B3032D52292641CB23D2A72C12662D526527B2C425E27E29A27727B27227F3612772302932CC2862742B527318716A,
24B2D31D527326F25A31C2B027225425C27232127927C2353561674073362782DF2AA22F28627B26828127E01F1250F71FF1F136A1FF25B2E41F223B1E026A2F524D28125D2632651BF10726E26626C2B52782853003092171B72A326F2A82C6,
2CE2CF07A27E2632AA1E42ED27523F2A625F27228F27C24E21A2951B927D28F24025B25426F26C26E2A627325CFC72272782CF1E125E2543401E129827F2651302862A72E025A2822431B02712842B635327B2822B92753852CF2922791C33BE,
28A27521726427524F31926B2621D92BA2952C729A2791EF2CD2F525D2B327A2272BC27C2712712702EC269016F3C3313302EC39626426B21727229921C26221128727A27929426917321D28028323F2C22672992D32D721121128327B25911C,
27630815F26927A26726129725A28028828A2BB2702752092D92842BF30A2622A223320F26826D2772D027233D04725A2DE2932C325F2562EA2A72582D327434A26927626D29B2741B719828827C26C3672612EF25F21F1902B233027F11220A,
28B21507726927624C1D52CD2532842C02772902542732511FE1D41CB3432732AD2BC1C428628228029327B1ADEBE3192072192C62A826827217A2601C42811E52652902AA2712802561C427A28026D3932612912AE33F42728225427E23C24E,
2342F71F126F26924A2D923E2611F41F82562CC26227725A11229628629725E2B52EE23727A2652722EA2731B006C2092AF2B03231DE27127C27424F2BC2841D526124D26F24426B1A418E28427423A2B326D3052FE2BB1822C72DB2772133D2,
2D323014126627F2C83162EF2892662B726C2D82652832842BC3B62C931C28224832826E28926A27E26326C1E70B21F432E2B327E2072712831DA28420C27F19326423F2A424426A24E1B327927C2C63F327F2A52712A02E425E26926A18A148,
2842FD1F22632741F02A32D529328023F28F2E926726C2282111D52932B427B2C02771F727627626C2BB27846EE5822F23C26119724A24C2BD2C02AE25526D34E27428E25726627C2401D426928F24430A27D33927F2BD1FE2F62C726D1EA188,
2762390B92612842C928528023429129529220D28D26B24C2A621123A39027625E26C1FB26426E2852E327F07C0942DF2F82CC3D21D526934311E27B22A2802BC27A27F2DB2762761DA19527428B2AA31927125222D35E23327724A2711862A5,
25D1ED08626927120227E2A724E2832502612E828A27823A21E26B25225726E2D12B029425828627029427734BDE61662FF26D34C22F25B18F25323B1FD28216926B28D2B02792691A61E42772842691F02743353132DC2E925825E26E21E365,
2E32E626127827629A29627725F1F02F627021526E27623115333927C2F825E26425720F25628026B28E28C1DDF5529927A24827626225735D2A92952712631AF27A31025C26B26D1B718127028324D2DF26422827E2B92262522E52851C1164,
24D25307A27927722431629426F2A622C27F2D629326A1F729426113123027029E2741D3269278277310278115EAD25231E29E2471542453391E32451FF2762E626827928327027D2341FD27B26E2881BF2632CB2CB24B2791F82532761821E8,
2C52B810C27D2612CA3012B22522122BF25422727C26C2222CD1B730D2EE28C2BC2C511726A27D2622BE2891ED2452D92012B534129B22D2A128227D25927D27F26726F2A026627020519627F2642473372842B924B29D2B927821B27B24D307,
2612D315827727C22221B2C326E29228B2602DF26128221E33B30A2032BA27B32028829C27B2692762B227E2A4E711042831E11E623224622A14629225728216A28629228527227620F23627127D28F3392862F628B2EF21C2922B728314A378,
29628519427A27F2D83082F427F27927326528C2832681E519133929A2D728525D2221F925727227327F2770B9FD73222A32622ED1CC27531B2492591CD26F28A28126D2DA26127A16217028128527B1802653442B82B325D2922AE27C2B7139,
29F2361C226727C2721F623728F2662302572EB2792782A62A822D29736A28A3392E52B326628026330326B144E701AE2E72CB2612B623C2EF1C326A29625F29D26A27F2482462722361A727628B2A12E72602392892BE2E824F23C2851E31C8,
27D29901327F26829433D2CD22C25A22427A3212662651DE2912352CA24627E2A42911A526C27127F27B27806DD9F2243212863A91EB27C3A61B125A1CE2742DD28333829A28B26D27120628127227E2DA26131F2ED26D1F62532D727B1982BE,
24C28512626826027C23226C24F2722EA28B2A42662762832762431793662782A42DA29B27D2802812E62704BD10A27F29021F1E11F029B29A1D629424D27C20625B2962262742850E818927C27B28329325B25C2C223E34D2372C326727D2DE,
2D72CD33727427C28F2612A92421F92322632C82692762353092EF31C2B62762BD25C20427E27A2792D828335DCCB3083982D231B1F326E2B71DE2B023826621025B29225E25B2752B417927E2792AA28B25B3482492F71CB2F324228430D25F,
28A2E30B127226E24C2A92C42672442E626C26D26F2852331903372243832852AA2B81EE27326A26725B26A29DD0F15525B2B03502C526E3641CA2561AC2772AA2682B125F27C2781F10F127B27C2391892612BE2D921429A251295273266136,
34D26C48A2742642D02C431F25E2F50B02671F32632663CB26C27335D1DF26323121A3A426D27E25A2E827A2DD3234B02392A43E427824331930B22440B26A23C25924D21725B2744941F127A27D24D2CC2842223742FD206111444267F1138D,
33D2D534627827D32B2A631E23733811B26129225E27F31E26E3A429F27226524026C28825628626326F2732C82FC3161DB2822ED2D726629931826326A27730126420021C2602772CF22927E26121D3202732692C129722219530227E1B3190,
2F62C122C27926E2C928F29823C33A1C625A1E427126128C1E027A2C328D25926B2831E52632662582D62782A32D52FC2F72AA28127E24D2462A722A25527730C25D22322524B27321F2E82782672382F92732C929B2E61CF1B62D727A22E22A,
30829629E26F26E2CB2722B023B3441F826721026F26A2C91201C926F3392542A82821F725825827A31926729C2A32692842C11B32512622D426727726127121C26323B2ED25B2662432682792601F11FB26027F31721F22B1502B3282334356,
28B2F825E26026B2EA2432CF2492DA21226129627327E2952212A72A92BF24D28C22326F27726D2641FA2762D22A024F25B23626B29F25732A2912472CD27F26025A1E42D724C2742392D727C2672442F127B26F21A24821824D27527D300258,
2A42EF31825E26B2C82A426324F28524B26226025727226826E26D2731ED25F25A24823F26726B2612B326732829428A2022592362592472AF25E1F12A526A25C25426025626026731331526C26826F2CE27525D2BA28F22D2F12BD26328922B,
23F2992AC27A27A2742692842552B72832682812612682A339928D2862342642DE20D2F427425E26927727D2A828B22220827A15E24024F2222D628A26926C2D42581EC24124827D3232C92732722CD2F12671E22631E52363361E427A2A01D8,
28F1CF33026C27B2722DC2D424E1FC27D27621327926A23F23A2972D525025826B30328B26826026A3082752B82832762312633771BF25D2862242AD25027B22224F17829F24D26E2C427126F2792872E126128920C2C625C2F92A227127F29A,
2FB25A27C26526628226529924320119A26228027E2702BC1E92A51EE25925F2011D72DB25827A25928927026B2A62A029031C26E25425D30629B24129C27D25524D27128C2612652C225326B27E24A2AA26C2112D227F2442963032752FF242,
27821D27027B26A2E328E2B023E2301FC27627828526F2FF2B72543111FC2562E13562CA27126825C28F27923428A2ED2322B62EE26226D2FC26C2502A02713182681EA2DA25326A2752EC27926D23D33C2632EB29B2991E22D82BA28A2C02C7,
2E92782842612752A02382C423022C19125E24528527731922D22626F26B2692842422B927727026129027C25A2693102A621C23027B2522A82EC2172A128328C26724732123727436E22E27B27625B2B52732532D225F2672AE32B26F23A2EC,
30C26628426326D21E2652F724420324725927128526E30E25E27A2A32922662172452AD2702742643102652412722EB2632D135329625F23A20E21D2A927B21E26829434D24726736826B26A2702442F927227030731A27B2893042732F52F7,
28E25920E25C2682A724C2B925D25B1F42612142582652E628C2B428D1DE24920C2F52B825B26A2662E126322B2452D727C23E29E28426929F24E1ED28326821626227A2E724227730324227B26E1EB25026620D2712892C023A30F274269260,
2C627926527427323B26F2A82661DE22226321A2612802A92212792A82E326227D1F12A826D26D27A26127C20124234626D2A62EE24F24F24C26D26429727232B26227031E24A26C28B2E426827522326526723524827B2DC2C12E727A2B52BB,
2272882CF27425E28623C26823627D21C2601D125F26B2E32271D42EB2D22632891FF26127227127B20527D2012683152302513422BA24D25E2D625723D26E28E25C21231324027222D2BB27B2722432922633502FB1A92DB26827E26B27C205,
2D723B2B026C27A2A822929623E1F32D62672A925827B26B21E2C225221D25E2681C92C025827326C2AA2751BD25E2C926329121E1F326034920227625426E2222522DD2AD24A2842352DD28427322E2BE2642D02BD1D52C830B21F2722F12B7,
2CF21B33627B2652C725A2A222F21A2402751FE26726A2572B12E62CF24624C29A23D2772602822792732681CC2761C82D72A422723925625D2642432922751F726C32F26B25F27B2F725B28027A22238926C21124D3172EE2582DF27E293206,
2C523F39A26F26F26922A2812682872202752E826B27F24D1412822672772632BC2DA27525F2732582C826C1DF2C12952852AC18220E2542FC2262B727426C30E25F3082BB26A26F2F42FD27327923236C2762D92712C53061E82DD2642991D3,
2A522928C26227A28A25C28B2531E71E225F2452612682D01BF2102C02FD25127B28E24F27327125927826527628B25B29F2F71602B02582B11D62133322732F42623A222225D2752902DB2762762652B825822B2B826631F2582BA27928F29E,
32E2A01EE26F27827E2D72DB24826D2022722A226D2672992402592902C426A2DF33F2BF2602602732FA26528629D2C82171E12A129325A16C23821D2F127F2342522F41E624B2682A024926526B29130526C2492802B730721B2CF27134D29F,
2FA27E17527526A2752F92D826222119B26A1FD25626830C3032942DC21326729D1F32772652752603352713272FC30F2D422B2B428024C32139D27B29A2672152602CF13D25227238B2B227626A2442842701BB2663383002C42B027237332D,
3382B00B427A25C2802612E224C24A0BC26B15526A27B42233026129F25026320A1EF28B2742682612BF27936B3224562662583F628023A1FA3F820038326F3102542A912C26327243328B28026826828B26F20734B26528034C40D274443272,
2A828E1BD27527F2D52382B52632E32AB25224627226D2BA2631F52753AE26D33B22ECE02902782712BB275FB8E5221F1EF2A11C92A72682361EE28222C27025126E26F25A25226C0581DB27B2782590AA2822942441F32FB20A2A62752C6252,
27928D1F326D27D2B031C28B25D31827625523D27527D2832122AB1D931E27429D31CD5D28526828127028540FF0F1802D122A33439228417D23E25F28A2631FD27124427B28528010B24627027C25812226935F24929D2A32102D727224728C,
2D228720E2762702B12F22BF26930B2C42712C626F27626EE9D23E1E42CD28427B266CB72A127028123127613F0C72592812E10572E223923D24D26624A27128026F27A27A2632670252BA26C26A25F0FE2843042B529726C23D28A2702091D2,
28925408026D2792672952872562AE25828A1F626827D2913562A12CF1EB2812E8233D6D26926B2802B426DEDBD680F829124421E3392522B41FB25C27B27A28227026B25226F26A19120226627D2652D026733525327E2BC24D28D27C250233,
2A02532CA2642722162B929E2742CA2CC25127D25226124E2B41EC21428A273293255D3928E27F28330C2693B72E325327428E0B82482681FD20C26222427821927C2812B126728707428527727B2341C826C2C124D2732D825629527D19A2BE,
24E2F91A426726B25928527026B2B424525A26126C27D28441D2942E2268286280291CAD28626A26E29F26D10EF541B62CA30814C32B2412ED2252AD27427324627B25328626028211E25026C26720B18227630E2B728F30D22723E2802361B8,
28E28728126E26F27928E2B325B23E29E27227028D27C25433E2BD0F42A228E28321ADD627B28327C2B4272DB421236F27A2B02832A02362631C323F2482702C827C2B426F27D27022B2542672762620F82812ED2852752352DB30327C0DB21B,
27C2D32872752622392BD2A32792C228926C26426B27928938F20021124C26832524CD41285276283309270D4BD6121F29A25A1BA27D25929726B2942C42661F226D25129825126B12425E28828923B2D82712D32572832952522B027F1BC256,
28328921D2692702A620126726F28426025F28A26D28629336D28E29126C269273241CCA28B27226C2C127F0F012C15F27629316F31625B1FF24A25C23828029E2652B027125B27410427928027F22514E2683462C52A324723E2D327D23F249,
2532391EB26226C24526126926A2792A92672722762722BD0B52B628E29726A2CD2C8C6927E2752852EB27D17BF021BA253271F2627125326E1F126124426A1FF2612472A425C28709823F28426E25D25F26C2D628E1F729828522E2642A1228,
27D2A222227527A28E22A25F25D27825525922A2572862814761C01E32E82852ED283CC427327727329526A0E3FE32B627D2AB3142DB2422B521624D22F2622A227C2532AA2612811CE22427727C25B22326A2E524722A21727D25D28530228A,
26225B1AD26F26A26C26F27C25B26029327027D2972612971E028934027B2852CF263DEF27627326D27F271ED701F14422C255F8E2C42442AF2002A722A27926F27B23B2742732661142842682782421E426930F2972882F528E2D426E191283,
29E29326326D27527129C2B027626426D28724A29126C26C09F27522C27A28028B2BDCBE26A26D27C20827133EEEC2112C622927129F24F22821526622326122F2792742CA2672771332812752722610F626A30A2AE2E81D52B82B227D2D2287,
26F2512152702722361F12AB24E2B328E26621129627D28739F2E920F2582902EE296DA926027C27729F264FD503A2C529824918B23E24B20F16E25321928624625A2D72AA27627416924927C27422E10E2692DC2D014B22F30923F26A22622A,
2C828529826B2762B825A29124B26427526228926927D29118620F15E3012812EA21CE1E25F27827E2B0284DFF18C2142C02F228E30A2303A024329023026624727527F2DE28D27111129026F2792500FA2652C72A52702B02812E226F1D520C,
2982501CF2672662792E92972792602C027125E26B2882A82F024F2912A427E26125CDBC29A2762742BA27509010F2E72F028334929925828528C26F2A727028B2872B228D2822810EF29C27F27723B27627B32229A1D128D2BE2F227E0FB27D,
2412A61D426D27E21F29425225C21B2702552AE26F28025A28C27324F2AD2602A5212CFB26D26927227D272E21F9A25B2542821922522532D019627A23926F24428131D28327B2690D42A527E28022439627E32125B27326E21522A2801E228F,
2D52CE28A27527B26A27927C26B2A82F328B1EB27027527126226230E3292882852C5D5F266270268300273ECBEE41DD24E29913032E2782642162902D826D23E27224A26C2732741B824A26B27527411726C3272201A82AA28B2EC2661CC28F,
25129F33E28627226629129625E23B29426824726926D2B523C2A826329C279331266D2D27728427E2A827F104E6525E29323C20B2B029E22329F26623128C23C2702CE27F28428315020E28428924C0C426C2EC2302E712D24428B27D25D239,
29529227A27B26523535F26F26E26F30429A25A27127130C2C225B2BC2E42612962E8EA525C2722802A3276F9AEA72192A32ED2683272842761E427E2B92762EA2672CA25927226F02A2DA2822842161562583042911C829625027926D21E1E2,
2422761882762692BA1D026D29A29E26325423626B2702702571C62873112752E6269B4827428227322F2820091242212DA211FA430723D23D28F26B2662771CB26927524626F2731A01A726426C26D1D925E2A229D2CB1F82B426927C1D8263,
2B024823F27227524A26827A28024F24D2671E826D2842AC22C27523C2D927E2FA2A3D6328F27126030A27B1DBCF417E2A62B12872FB25A23B2982872A927420B27D2AB20E26A27C0381DF27C25F26714426A3492521F02872FD2BD2731951AF,
1A638927B2682830AF2882A02523691BA27F2C52942812013682ED38324324E3262D026427428027F31E2703D83972272323042F035727E15D2643031C826026E2792E21AF28227522122A28327552D23927332C2E037A3FE2EA35B2611BD1F0,
25E26E2012732691AB2EA23725E39E2C525B1FB28C2702310F62312F624625826515228F28E2702782D82782663572A828E34723D2382761F623D2C022B27520D27431223F29327520E1B427E27633B29628222F2472944000D41FC27825D1E1,
1D22E42A527D26615C2AE1FC2562861F227127629227F2C732C27729C2332732241D527B29A26925E2B32721972D41AF1C11E62E022A22A1372322762112693032702DD2A128527F2CA2942722603EC2B82832F126C2523861A734727C1F924A,
27D32B2FA26E27C17F2892D324137D29225624D27327B21B4892C72AF2A926A2FA0FD23826C26E27023527727D2432C92473032631FA24A2C31A52512352802662572112442902822472B526726F3D235928224F25228B2BD2812B826A1FE30B,
22931B31B2822751CD33720F2482CC23825B28326B27627F1AC22A21125C25F38E2792BE27B28827932E28B3152831D628918624B2962761C72A72F423F2722472593002C127726437E1B727C27A3440C628722925929725227C2FB26C2D4308,
1192D828B27127415323D2382752B02A126525726D27B28A0CC2892E52C32632E10E123127B26F26431C27818527725124A2CA1EC3AB27239F35925431D26B1F027D2AF21326327B1D52CB26D2623802592742712512C529A17B39D2832611B1,
2862821FE2752741C72ED29C2A12411B225C30827027F2484442C32CD22027C3052C922D27227227128627E16422B2652ED2A71A627326611721727F23C26935B2752B323727926C3562D22862693AC3A326623E26E30623F3BD2E727D274275,
2612D21C527F26F1F22222C525C24322B28F24226F2701F63361BD29B22A26B1DE20F25528227E28027D28724F1541CC22D2A129A23D2722031FB28A1BB26622727721125C29A2642D322B27226C2F41D52791CF1F23732B93B627D2693042AC,
2892DA25626C26A1791991E12582462752951FD25B2882EE35721D2AA20426C3CA1B427025F27E2702152720F21D81C92361D626626828A2C82A632522F28129526C22D2472682782CA2762772723D827328529B31B2551DF18826727A22B2C5,
1B72EC2F72762731F41FE22D28B2D92682622B228527A2882C22752C328E28321E1A22E726A26E2662D426F13819C26F2B734635632A2931C925420D20B26820E2792B02C225527327323626628D38826028026E29C1F620A3362B32703CB198,
14028420627D2671EA27320727F29921C2772632A226824728324B1FA32528E2C826A29725B28C27829E2810EF20222E2672D233A2DC27C29F25E2CF1C427F20128421D2732852792AB30F2672863502B326C2242C835E0F52562742612532B0,
1DF3B030027426B16F2172A02543032B328920F28127C26F40033323C1F427A2E92CC24D26F26827C29027E1C72762CF1F420436D19E26D1962102B326C26524126E2BF1DD2722822141FC2842813162D92792672B020412D2872AD26B2802EE,
2E93392EE28027E24A3C724125933B25925D30225C2682261B518E2E826626F2340BD2A028027626729126C26E1F62CE2AD3152CF26E2581F22892C923D26127D2622162EC28B2692822E527326F3671E927732F24B2F61C71722B027E22026E,
1AA28D2652852721132A823826325924E25520527227726E1E333932D32B2763492AB24F2702722752A727C2511C019C26433821F38E28424337026F24327715628327E29E2702782C923327627A3861EA27E24B2272DF24E2F927F2692B1243,
1A837530427326517326D2CF27824C22527E2D1275280295FA418C26A26426733328229827227C26926626C2A81F72A22752572FE2BF2A430921825C27628033426D2E022B23426C23028F27D27134A23F27F2322FA1542262832E3275275258,
2333152B528325E17B30C26427E26D2E825A1CD26C27326C00F30B2762132662861D42C926028326D28427027B2951EF1F32523241B826E15B1E22CD25527733A28114129D22D26334227F27B27C3313082812AF2242252142FC31E26F20B2E4,
1EE2AF24826D26317D18A26F2682E121825E2682612792BF1781F724C2602652BF1B726925C27227023027E3792F025A2E126722528828820831124D24B26819B27122F27826927E2232092722813AF11E2602882BA2AF1E62FE19A26646720D,
2782582B926E27615A2571EE2731F72822582A425227C23F3322953862E226B2A00EF29C26D25B27122B2723E424C27F2542D22A726D24916B1FB25E16D2823112801E028229527C35E30627428436A36926F2322712C12262BF338268203228,
14C3CE37327A2761BB22220A26326D1A82551F727F27E2913CD2CE1723292781E82A41DC26126126D1A528236230A2642492C12932612671EE19627321B28422E27C1C428A26026A2A226B28226A32F37A26F2EE2B521127638F2E527231D2BE,
1253D032027527B10F38E20524E2D32412512B826626B2842142643C52862682761B21E725427F2732CE27533434022E1672941C51EC2552732152601D327B2A62712CA37B24726725B30226527035829626D1F326E28F27B23F2AD26C2452CC,
1452C020027626B0E32341D826923327C25E27827326A27F27627015F30326B3292B718524C2822702892732E936D2D21FC1931F929C25D2472EF2D22E325C1312742623682522692F71FE27827B2FC20226A2B027A2282E50F22ED27E2491CC,
0B82D62F62722770972B91BC28531124826E2902592752912492D530B28F27832A10120B27527926D26028933546425A19D3511F32D82582C11C32781B82742AE27C3943F42612812A72A52832604FA28326525321122034B1C223827D2E520D,
30B2F02FD2672780ED1642AE25F2443042902982702672B31FB3562672C825A22715418927627528021728466B34C1BA0B22F01EC26A26D2AF3182C716C27926B27B2481562762811FD18127C27C42419926A3412F11F310902731D279331363,
2422B035126827816321535427727F12A29128B25F26B29A1F917921F23926F2A631B21E28D2832832D82802D82522B027E3A928E1C82700541C31AE20726721E27A1682A82572681E11FB27C2765071942791922242691E32C727C26222B30D,
26E3231F526A27105B2B926826B1941AC2551B429026F2C21EF30F19E24227F321354E472862742712F32703750F02D03C418C31B30024C14DFE40B61962602732681652D025627319618827726E30636326F3961E51E623218E27A26C275217,
1F129625D26F280F901DE2D425C1A22B528726E28D2711FF1632370CF34D26C1002F437028C27427E28D2703F53711A40633863AA2002651DC1611E91FA25C22226E09C31E25227F1DC2E526C27D2CA32B27E21525C38CF8A28B26C2732331B4,
29F33A3792722720D81A63332582A008A26030A2772742743BC24630B2E22603A831234426127228322827A3442E82F115E34316834F29039B1671A21BA2743712750EC13E2602671712AF28A28042D1FE2823092F12660662CD27326B256314,
3C425C2B226B2831044A63422650473F42603A72892701E72CE24D13A33128617238F2E126727827B25326D22A4183601F431405016E25A2422D41C50DB2741DE27F13B38128027E2632062752843A734D26E2162552C2D962A235826C19B190,
2D624C3B92692760812692842A12B92572682302762782D725419E20233F27725F2E156626227027A29626817D42517D3E630B3A52B824518B26F18C1E62682072810C127029426A15622F27226B3900A128C2C6218233F3E2A72D02690CC1AD,
37D2FB2032772741F920D2B326F0D12E128E2E226227024E1252512941D526532C1CD25D2962802872242891550AC35517E1E34EF2DC24A03322916A0A82782EE27B1922D725F26C1FE18028427C36A0BB27D3122832751A823133926419D252,
2722A929728426812924C2BD27E11D2EC26F29626D2712E833B2412362EB27124E17D3A029427426725127615B2702962E636339B3782722A138A0BF0962740AB2551632E02532682091BA2772763F22F827A2E53252801FF3413A72790BF231,
3084022AE28726E0B218A2FA28828B27E2762CA28327A25B2CC2FE29A2D227F2592C52492722762892382760642822391BB29C187285264FE22711D320927426E25F1521E22842832361E427B2883B62392833102192C83C42C83002602A90CF,
26030C1F427427C0AA3892E626D04E1A12692DF26226E2660D61C114A1E128C34342319F26128227025127A0952AC1F80DB1CB22E1BE261F5A1EF1FF15F2631FF2831ED37C28826E02C1EE2812723B32D228034328E27F1D51BC20A26A348407,
2C22F436E2702831971AC35D2482612CC2592D026128124F1972200D22D62752650D420B26D2812761952751C93EF2F60BA2FFF8A1BE27C18C35918102A2722262680AE38A25A2641F42A326828D40100526B28A2FE2E51F92C428926C137297,
294232FCE27027B0802A32752850F122328128627C2632B82E42A72232DC28A2A524F2F525E28628439E27028D1F91E623E3743051A526E3A009A1B511C27C26925729F3602562691D422427A28B3573B226C1FA24A20407F2D51F527531C200,
24B2BF17526727D1962623122661E238128A26B26B2652970D81EA31D2512621F72441F827127C2753052760F82022851D12EB1241B12773221A313601B26C36227422C23F28B27A13B25028B28B3252DB26231326B20C44B20C2B02832EC0DF,
2F51750FE28627305326C2B52610FA33726825C2842772392F51752723212761AB0DE2A427C28527B1EF27D4A50922F71D427522621125704635D1D61662742EA26C28D2562842751EC1D926E2782FD0612633EA22D2960A31C52B52732B5214,
28F30506826826806A2D33B5265125210258329272280271FFF1612792902623002953672842722712692872B31851B51C833000A24D268E0721813906E26C1F32793541D22652691A51EB26F27328E14627422B2D232A2FF1D131C27120C2F6,
2711543F125F25E0F32452EF26C0A023C26327628027F26A45523D15725225028F2ED0EF28D27227E24227936515001F2DB25406237426E0431690DD10F2791B427C37B1C424827D2011D72842853A223826636921729631D0C02372791172F9,
26C27F14A27426709723C29E2500A623A2562FE26126D2572BF1FC14B26F2672D051128028A27A2863432701372011FF1AA23D37B31326516E07E1A022726E27425536E0FE26827314B2AD26B28C30C17626525E25B31133D2B323A26A12615E,
2EB3F41EA2792730931E033025902513826C1F32692782F420A2A621220926125832719426928626329527116F2872C520A2F82A92802CA13614B1E113D26C23526129E27D24127A1E106027026F33A00C2643BE2E1194336207341267273246,
29939F09627F2670281622C726210930C26C27826826827B1D122F08F2AF27D28023803226C27825E22B2673EE45832028032D18615225728616515202C27E1AB27D2EA27824027409620327F27335D1D02712B232B2273851E226927F2A2271,
37526C1D62852760F523531C28A2251D725526326A2862C924136C00D28429628F0BA0F027A28426E2B926A31526E2CD1CF2CB15F0F323B0991341C005726620C26141F00124027825C1F727528731D33927F33830012133420B2CA2612CC1C1,
3F729A1B525F2781FF20A2EC25818A2B325433E26C27E2613AC27D33B1F928A37711820929626F27420E26E26F1CE3882FD2BF0C736C28008BEE524813326E3DC267369F2926E26402A1D227527549028226C2F43372C61682152F02652F006D,
20631125E27027630C40A18D29243A20D25721626B27A2603AB2811822362512B42D126428427F2792362723A92CD3510401DF2082112661CB0AD2F93792922FA2744213312952892742F626D26B1EA23427C2BC2DF16C09A47D25B27524A2AA,
27A2C433327A2813B426B1D226D46725B25727126626C2C41E630638B27824F26F22626426126927C30B2741D703D1E31612141FC38729225E18D2842E42821DF27337A2A627A28329628427926B30519726C2B728620013D3BE2F92681CD2A3,
27634602726F26725A41424B27C4C227229022E27528125034925624D31B25429A1F51B228228028023D26726C420194FD523B2C919125F31D14F2A127926D2DF26740E2FB2502722A035B2772622360DF26526425119923B41428527C2B8233,
1E927927A27A27F3EB42E22727E5742B628B31B27927B24C0D428519F2B02601DE3281642822752722A626A1FD307255F5B2DE1EC30028114E1C625D2AD26C1DE26D3641E626027829F39928427125B31A27022E2A834DF9F35B2AB27C21A2EF,
0CC35636126927921B4292362614621E226412E28626B29724A30B21225826E2DA25A2AC28927E2852C927411729325BFB31AB2B11C42852D40E52D43D028038027042A2FA25926925A36A2722751E03E127F3B12231490B533927A2832DC27D,
1EF2832FD27126F1B336220C2615102F225529E282277212FAB2A21572C425E1801C929027C28326D1D32612A4326438FEE2541662A32843A121F30A30926612A2892F52CB2452751F54192802781C013927A2842EA2190E240F2382762AD338,
1E72A530327028C25827D1F528B3F22D425B23827A2702D31E32ED33A2752671FF217FBF29D27C2700BC26645C27138CEFF0E518717F29B28D2A42AE18E2631CA26C4BE30F26A2772722B527627F1CB25028230D3611CEF6C22D1BA27226F22A,
19D2E627428527B2AA37314C2753B82162692822812881F10F721B14A22E27B2252FB19428626F273240284F2A4A425CF4520C07F2CD2781E010629846D27C20E2773552352682711D031627126F18A2C02762902573921182342342832911E7,
2712F128026E26F30D33D18727440926526323027828225622B27D3242E32782001F62C529527F2752712832FFFC3303F762AE32F2A52751CE0462FF30D27D28827D3A92BC28027636C25927327B2103022782B22292020F03311FF2851712FE,
2073D330E27A27F2CD45E1992664BD26629927927C27C20126C1FB2882C426022825C34128327B28B28126F2E33332CAF792671242132701D520B2D53182642B926F2A11B925A2722C532726F26C21E25E27C27A29D28B0D42F02DA28B24C27D,
16732E26127426F2A03301132904FC34C29528B28C26A310F962C51092BA26A36424D2CB2732762732F427343422133C17F13D2EA29729A13F1442A63F02731E92672A32B927F26D25D2F52732832322C327221B3540E11A320D25F2842F1208,
1B735933C27F26E36134724B27B3C925B28F2942632842782D91CC2C731E25F3003542AF28A27F2771E1281FEE1EF1E81091621C12D329317E1AC2BC36D27532F26733C25D26B26D24A3842812732A11EA2681F92971C7F225132EE27729E282,
29B3E515A26E27A30438F15127C4932F525930D26E27F2AEE062A51932F72501AF27B28028B270272232289F7818C24EEFA3921C73CE23D4830EF32D47C2671FE2852F822726E26A3A02A927A26E24A2712702E62DC1FE14A30A2EC2841E62A5,
1523E81DD2842892FE35017D26443D21C29C22727527B22225719926D16925923C2C517B28528226B1FE27520308C2DFFE41341EF2A226D1BA22225C32227E28527D2B725F26027F15C32B28527821528126724D2B93D015E3E52AC26B24C20D,
0E83221A82802701752651AE29A4EB2BC26A2B027D27B2A6EC92633C725926D26029530F27B28328A24A2760E90B11DBE3F28219A2F327C20B2103733A226F20A27634129C25626D2A72BA26B26E1661A128130A3272D91C02152E428219A25E,
24B46422A26927736D2FC17F27F46529925A28B28C28627BF9F29A3C225826D20F3E81FB26E26F27017E2842AD43D2F9F342811CC42F2611B413B34936F2722D42761F52C225527332927E28027F2A329527D2B937123C0722EE25F26C38E2E0,
1394AA1CB2882702592E821B2994172BC26837828026A28E2A623E3911CD27524B29D32126A27E2802762761C44E7186EAD1FB2FD2DE2703143C33A04502752352752782E02AE28126127A27726619234226A25228F2030AA38E2C52741DA1C3,
2583892802752601C627019828048023D27021D2682772EF0232B52BB27926F18F1B408825B28726F2412820F51D515FF4A3340622B126C1D326D35B3AE29326726B26840128226326A27F27927024F34526F2F82F51EC3172CD21E267363254,
14637920626826E2972961CA2764DE27226B3AA27426E25F1462303D525025C28D3552E928927028222F28C3BA6C8235F4718223B37A28A17618B32C3372891F42692322AE26726721130C27B2692083842692C32F536806A4BF26A27D35329B,
0CF3C920D27527D3834E71B02933CA25228131127C27726AD442B422030F2602811F536128A26C27E19728B06239E29A07F2C70D32CC2552A11F33503252811C72561DE38025427928232D27127524C1622673032BE1801C640C33226F1C5394,
1E731234F27726C2914A91BF2703792542633552772871E4F472A414022E26A27332B26F29426C26C25F2880D716F37DF391603992672581C711B26533327923426C27A41825727C1CB3A726B2691F03D32833432743571263A023E2763522F2,
06A3B507B27F27D3E63D01A327859529226823126B282270DBF1D921727B27420C32E0EB2882802791E92811BE21F109D2A278CE92B227C2801F32BF3DD26B1822830A548F27E2741EA30F28527E29825B2672372BA2B6F2433C2A92781DB222,
0B41B52A427B2802ED32024126029950C2842AE27B28320619C39634529A2644B7E962B225E2652712812723C630A2B42653061FF35026820B3B643D1D827719E2682432462602812521B42822761A41DE2702682CE31B2B11DE09226525E28B,
1B22511D527426326E3302DE26537435B27B24827927827B23C2E622A21C26131C0F722825D27527D21E27A37D32828D23B29E2A029C25518227B33C23327C40625323729825E26C24B2862692672032D326C29B31A26E2B11861B727A1B1182,
19B23F2EF25D2612F025D2BA24E2C234F26924226D2792A11FD11222027B25428C2E222525F26C27927E26F3383602F92EC3022DF2302652AD1E431A25B27E2B42662A628F2602822F11EE27A2771E12E32662422342683052511FA27C2302F8,
1DA28E23F25E2722CF2F72E72663282CA2672C727326E2722C32212392C225334F15B29626325F26C28527A2F833A1982CA2ED28B2A125A2542C925227E27A1A725F2082F625A27029429127F26D23220F2622B625C2B63A924B16E26A20A34E,
2242D12A226D2732921B628427E27F22825422E27827527B1FA2FD27F2E12742652AE23C25726427B23527E2C13152082342E327A28026D2542802A51C02661BD25421327626D26B29526C2742762C22FF2692062722A534C26A2B327A25E214,
22523B1DD26A2642A92B42B52882C72E625A2C626926E22E2272B82B321D26D24C2182B127826A2702852692412F22AC1EA23D2FC2622701CD2422A026527E3BB25723826B2572702F725826D26925520E27F2ED2723053B626E2752702B01A7,
23F27F22C2692812CA22C2792872B62532932AD27527A25631323B3452FE2652391EC2AE27225A2752F126E22D2A72B52B32671FB20727D14326A2992062682962611C926826B2782372A027A25F2241E126428E29228539C2DB1BB27929E33E,
1E52FD28826926723826129A26527A2A925027E26727D28508A1EB2382B626C2252FF27C27926F27A25026921926F22E2742512B629E2692472D52C92B126F2202572222F62532722A822A2802742692482652392212BE32D24E26027D27931B,
26525E26F27527929130623D26E2102BA26728E26227528A23A2FE2D82CC26823121825F26C25827927628719C27B2612ED28F1CC25C26F2EE26A29224B27613E25F25B2E52512772F129227427224A2BA26127F24828F34F30D20D26434928C,
1EF20E3262772672682B829D26A22E2EC26123A26727F1FB26B32A28D2A326B3471C925E27026F2652B126D16C2A22F72A435A25026626D19528D2C925727428B2602862AB2602722D32CF27626C23430626D25B2972CB2DF26F1C12792271B5,
21A1F524A2782692DC24A26126A24A35F26F29A26D26E25B1D532626425C27036616C2EB26325A2712D326918726125E2F027925B2D62582971C03C82192763D825B20C2BB2632752F41EC27726A2541282602652962E22FC2FE1E72602CC30D,
1AD1E72F52792752D927C2A32551A936525F28526926E2B624B2532A22F726133717729B25526427824727617D1F82632D63252173012731D035A34D22D27F19424A2532EF26C2782DF27727425F2051D126F28A27929D2EB2801CF26C2B02DC,
1D41E829927027F2A62BA28D2771E937125027E2692692702592522B92A226E3481E929B25625F27826727017A2072462893401E92E42772753082AE1F228221824E2C830325726F24029F27E26422121D25B2672D32B62CE2541D427221C222,
22C2672942612632272332B425A28228826527C2642682992F327F2D82832712B81E82CE27026026724427716D1CC2202552562EF2BD26633823E2E227828437226A2682E224626B1DC15527926F27B32826020725F23C23D2391A826F2B61CC,
25A2281F127A2602B625B29C26A29425A26927625F26E24C3771532FF2A626C26C21E27826526A27D2932701931DC27E2911DF2C01D225C22027328226927630D26628B2CB2552712B42BD27F27F2302692732AB23B2B02252422A726D26928A,
1E821724026826A2BF2772BD2552B82B825528F2762802592BD21C28721325727014827626827026B2762732081EC26D32E2662D12AE2562962232D429926B1862572CF2F223F2622A129427E26C22F2792792FD2DC27519F27F28226122937A,
24526429826127528223426125C22732125827226C27529B1A82C124624526C29429229425C26B2782D62762AB2323052C22642EC30925C0D13342942A22721B825D34B2CB25C2782232BB27E26F20A2662642B429B20316924B21327E1D5230,
1E52A324126525D28A2852A626427C28125B25527126F2D21E136E24C2172762A029C29926927126226A2723092561F521D2A720F28824F1571B42AA2902783212612FD2FC25B27226924C26526325934525925C2AB26813A25F27F26E22D142,
1D71D31EB27B26121A2B526B2581BC2B326B28F26E26B2612411D029F29625D28418125E2692682762902692FD24320430230C28224D25D1531AC3192BC2693BF26534328E2512763521AE26A27926228126225428629812527A1DE27C3393BD,
1CD1E124B27E2722AF28728426F2133372612A525427726332413633723526F31526729425B2652702F527A3192AA29B33323630524426B21323C39622F27A1A92612BE1252472772D328A2682701E321C26F26226F31518422F21F2782BC445,
19123429C26927F3102C329425B28F31D25224B2592811ED34030721A1E92642B31E02AD27926E25C23E26D3A02FD2352AA2F12112F027015F32F36822A2690A826329A11F24C28224A27227026729D1A02532B32D834B1672D91852682AE275,
1191FA33826D27529D38932125A1A64CA2672AF2582721EE39D3C722536B26C4DDECA25526925C2792492683F133C2EC37738C2473272711DA36F3871AF27C4402552E515B2442682B623026E2791E02422522562A037F2273670E7267363074,
26A2792D92642741A536431124E2EF2112722932662712DE20CF742A431925C20824E22925527526730027120D28928025C20E1C447B2932C14252232BF27A5A827025425D28E2832921F827D26F23223F2881B02D32353052B231D270149425,
27E2B92C326B2671EA2EC25A26034731B2632412632702B22CA3BC26324B2621F030328925727E2722962802762592953052B21DB3862891A32801EC2E327A00726022D2312442672A725227B25E2B534C2772072932DC2D12D61E727029C46E,
2AF2942EE26427D2652BB28826E24923027129A28026E2C005442B3102AC26420023726E2682862662DC2712321AE3502EF1A90433C526F2504361FC20226C2172722942C224E2712461EB27427127223A2731CA29C24429526428726C1EF24D,
26924826226327425426D25B27C29C24526122128727C2A129836B1F83EA2841C334221F26727627D1A427A1A116E37A32531517C30526C1A132329B24A26E46E27F1EC27327B26E36721427F26B23637E2821CA2341413982D81E027732B124,
2A230C3C527A2752A126C2872832B21F526F26B27527729025309B3332BD26D2862DF33E27228226B2032782672742F62821F31292412663533262AC23327330226C2132B226F2731C325F27A2782A921727625823133B1601F723E27D3393AF,
2CB2882A42642852451D424326228A2BF26F23F26627B287EDB2F52312E327128324220F26228726E2832832D423232529124F1843E323F23D2AD2B728F26E15727A2B325A26028234729328526A25F30B2782522AD1D42B326D30E2762C5368,
2432C026E2702872002892E724F2FC1E325C2DE2662782BB2AF2D915628B2761E036231C29A26D26B2462821B729823A26D2C619332026121742724B28626D22E26D1F52BD2792671CF21427927D27029528027D28128F24729B2A526C2E61C1,
25421A2C926326B2092782DC26825A2932682612872682AB2BF3841ED2AB2682B52CF25828027626B2ED2842F129C18D2E930F1742AA2742542A525224326E31326A32E2ED2752682452CB2782742602A128A2392872F62E32F82D22792D3191,
27823924327E2711FF2B52BF26D2BD28927E25C29627429745807E3E62AB26727E25E2232722752781B22722502A835B2732101433DE26D2EB3B222A25A2763E72732962C425C26C20E16D27627224A1A92662162642D930230220526B1F5322,
2E72AC2B42622812B53362CE27324126126B2BB27F26A23C14931911B2D62892A52BB2C826A26928529827E1FE3E13202D41D408230C25E2E130527424D2781C627929028A26726631B3232892712C92FF2852022E92412282552CB2783033FD,
26320A23026C28526E2FC2B32362AC28226B2582782822983323D12FB31B2742732782BF26D2762731C726A2AF38335A29D22D1AA3AE28413636924128827024426F26C30527B2832801F02832782821F52701BD2A725E2FE3022FA2871C1289,
2982FD32C28627129125528A2721F62DE2602B829627623C3AE2E515827528634015F21F26127026F28D2752F32D32772F81240E23A827F42437725D26D27F3662722822B024F2702CB29A27527B2B13252851B62973001D024022826F22B147,
2BE2381E626E2732362D02A72532E52B828426028E26F20E1BD12F17C27D2711A72CD24E25227B26F28727836628231125638819D27825E17E35B23B22E26C3D526C27826C26C2842C42922682672532CB27426929928B1DA25F2D626721039E,
29C2C53342662812171A125D2462B02422921BC2892712A41C93082122EE2772781DC1E926D28726B1EE26531939624F29C19105D35023F34F2A625128227113E2762BC29D26926421022126726A25C2C926D20027924423827120926825F3B6,
2B42A72642602752AC2CE28424D2512A825631E27F26C2AB1DD3452842F525924432023C25428A2742EE26E25733E1E030E33F19436A2502433632832492762CF2762BD27826126823D28C27A27926D0E427826623F29E28C2B71BA26B26B309,
2C429D1D12662772152072B825A2A927F27128127F27B2A23472B522D26627117C31A26D27027126924928324E2ED13E22C2441A72A924524E2F42B82452942E425C30924F2612821DE2AE26626726E2F627B21331D2102222192E42692491C8,
2522D32C726C26228837B27527428F1C92612EF2652782712111202912AE26B2962E12FF25D26D2742B62772FE27627033E23517935523B33339C27C2CD2842DC2542792F925D28127A21B26A27429421627120D1EB34613B26D22D26032336B,
2CE2972162642662092AE2A92652F825326A2E129226E2772D328E29928125E2CD2B92C726427227528428621413723834227224F2D123B2AD3352742582781BC27032027024626527423627227C2A22392832332D31F928A20126327323A32A,
24A26522F26D26F26024924022A2542262552BE26727B2511925132CE29D26425F22726C25D28A26120527B2E22B83201D31E817B35F2532874241C321726C21B26C2A025D25526F27921E26527F28D38127B25B2C723B2952922FD27F32219B,
22429C29926B27821D2B431826E2A91DD27121F26227B2A72C933A30A25927729F34B30025827727729027A2851852D02C62B32323512932F239724B2572614612712DA21425E2752431F826726425C1F027323A26F2833362CF27027A2500FE,
26B28D27F26E25F25A2F82C825823D2A225828226B2732B3224F2B1A02F427630B1FE26B27426F26E2722651D41572F028C2381BE30326623937F26721026752726D28D1B025326D27328527825D2292572701AD2EB1DB2E83262B1275276410,
22D2A21C32612731D02622B825A2281F72711B327B26B2C93E543A2113862801E12E423727327627C25C28226A26726B2A42801F33C323523A36822E27F26E02925F2B926C2472642CF1DA27827B2802CD2681442BA2AE2A72D72F3277308507,
2B02730E82712682CE24F2962642CC2B527626A2692711A12B42A62FC1FA2731E622C2B229227228225727531B80018025D2A33EE31D23F3BC2932AB26A2602AC2802572592732792A20F827326E2A420A2811EE2FA2ED19829F22C26F208250,
28329830926427D27C26624D24F21C2682623552732872531762A72B929227A2A722A2EC28927126629826A346F4C31D22420C34528C24627524225B2A026D25727624729628327A2B525E27928C2822D926E34826323D2A92A32DC27F2892BC,
2422642CE27327A27F2BD2BF25D2EB2CA25D24A26C27023612321D2A12BC26A2A32D625529228627C29227226C12C3132C12A82153082542812742522B927329F27C2812572792771AD1A627728126B19A27122D25725028A2681F92662B8281,
3172B11EC27126E2922D72A027B28B2602752DD25F26B21D2902732102732701F92CC24A27D26D27D28B26F1CF09919827F2F63702E726E25825A2B12A327A2952742712B926A2822BC1DF26F27726A1832662172AC2A31FA22B2E127219D248,
27D2A229D2632742941E82392531FC24525C2CE2582822492F92AA28528626D2531DE2D025B26728528027F17CD0823C2A823B2672C52733042A928927026C29626A2672B227D27932C1D228727E2BD23D2752BC2FD30726929E2E22732A1246,
21E27D33126627B26D21B2892512A72CF26E23026D26F24D20B20A2F32862852692F934028D27A273250273302E4431129921227324528720929B24326D2742BD26F26725C2892741AB20726F27E2651582812A225E1E12052A72292622E32D5,
2752E13602762782FB26629C24425A26527335B28426D1F223B2B02482BD28B28C2652A128C27227A26E26A384E1E25920B22235D2C82953412FB29E24F27821328323828A2642842F326727A27929D14726A2872DC33620F2C528426B299261,
2C61F629827A2682301D123326A2B227626823927A26826A2D92AC20E2642711C222C2EE2652842762DB26D092EFC1C52F93002EE27C2742AD17E29D2E128127927F28B2AF26E27E2A51812862802A506228828C2322E225B1F324328627E2C9,
2312392312822772802822DC26228029C2642B826C27C23F2DF23928D2182782B629E2F325D27F27228B2741E1C0A22F2DA1E02993312692822EF2512812772A62732952A62932802AE1DE2752792652BC26A24B2C332A3B63492B326E2B920D,
2CA30035027827E2721F52AC25C25629126927428A27F25B1422DE2D729E26B27C2E926225D28027B2972722D9E6229723926528F21C26E2622AB2C32A626428F26826B2A728D26322420C27526729323A27927A2B21DE14E2AF2C12792C329F,
2B724125227527728A29C20025828426026E2AF28627723D46727D20129427E2372532B026C2712732F226C250F2C1FD29A2A928231725630C2722912C426A20F2682682712872812D02352722722840E926A2302732E024620E20526B22C262,
2592182C72612752612BE2F925C2882B72642A028626E2291A62892C526326B2372B02BD26927027B29027F2D0F3B29827B2B423D2BB26A26527825727D2862BA2802902C72552722991FD27026A27215A2752A02B824C2A02912C52692852EE,
2342BD29E2732612C01A92522A123727A26425D28D27027F3952322A32CB269245258317268272270245281269F481A92C827F33E2EB26733C2212AC27E27C2C32682BC24A2532722C32012712712AD2A727528028B2652232D326A27332F26A,
2F42342D925F27B27824427529A2B226626C27A25E27522B2762672152852631F91EF2ED2822762782A128A0B4D4E1D928726333028427024F2552582B52842B127828C2C825727A20A18126C2812980E427B24D2682BF21826F2562781DC2A1,
2812DB2ED28026425F2A62822B027C2A42802D92722722303492BB2491FB2801E532830A2552672852CF28A187E2E2952EE2262AB25026F2AD28A2DE2BD27026C26624F27D25F26A33923727327D25E07C2692812D737020728A2062802E6256,
2AF22C29E26B2722AF17A2C127727728929C25028127A23428926D1C22902842C825C27D27A27A26C25F27B32CD8826C2682922C62B32662C722B2802A626623E2762E828524728025E1CD27E25E28B12D25A2532A12351FC28532026E2862B3,
25C2993372732862CF2E926E28129A2A42992D928427726D2EC2C526025B27826C2B42DA27C2762762E527F2310E521F2BD1C523729F2541D529925526627A2802762722B927C27823621426D2782AE10A26022426F2C72D022424C28028F254,
27423222026126D25428D24927C24025C25C29627527122626E21F24F35E28221026527228128226D1D026D17A0831F32C13032AB2B72472DF2C12BA29027C30225D26E22D26C27C2CD1E827D2652851A72642DC2652652012F824B2632A8281,
2B02B630E26D2732702032A32782BD2902672CB27026C2312E22921951D427126829828529926E27932E26E36CCD92AB2882AB2992B527433D1E529E2DC27721A25927728027726927620F27C26C2822D627A26F2BF2B42EE29625F27F2C52B9,
2462E72D028B26C2792062302672102502731E226427A2563302BF17924E27428323E2A82902822782B1275255EED1DD29A19826E26328323626325B25A2692BD2742B52922552822690F528727A2810972752922812BE2E825121526627A26C,
29E2732C627F2812C32892A024E2842FA2732CC28926A26630A22E2C01F92652D52E52CC27B27026D22426D2FD10718228630232D30E25E1C32A627822426F2912752892982662772882EC26926624424D27826632421F1CD27132326C2E1221,
26F28142A27D2732912412A728C29623026D2A02842712333772FF1D63962781C622834027F28A27029A26837A9012C62CB2ED13C1F025442C2572C12A227B2B827A28F22827727030314526E27B2CC07F25E2742AF26D24A2BC24327739C2F6,
2A929613B2682712742762CA2642F42E428E2FD27D26B2522E928A2BD2A22741F72A8D5E26327F26830327AF4A11026A24224D2B12C12652F920424B25E26A2A227825F2A429C27B04E19626E26B2501A526436328D23927A2302462811D8288,
28C2A124B26C26D2F12A22B324C33026A29A26C27127922941826614F2A627923D2CEF6428C27226F28B26EFE318C1D82BF2EE2872F32432442A326826128225726F27A23827D2761D625527326F2A30CA2712D329230B2641FB29E27720B243,
2CE31123526D26A2D02A92AF25D2D225025527726727D27B28E2772072E528B23B22FEF92972812732BD26D0A21A72E22222F62112DD26A2D91F82AF2642692992552102AB25027506F1DB26728024D23C26630827C2091B62302B2275177279,
2BE28A30226626F2511F826E2512A82CA27E29A26D27F28C2DF28528B27A28E33530DF5D28626326C2AE26EDC615F24028B1782592DA26D28D2AD25D28626A24025723624925326B13D22B27126E2831CF2662B72A226020327222527D1F11C3,
2BA2A312627727126827C2A426E2B12D326529427D26D2342792052852ED26C18F2B7D1926C25F27B299282ED80EB2BB2682EA27A2D228628224126024827630E2831E52B22642671F41DF27827424024427932725C2A61E129529C27D1F5263,
27D2702DE26B27123725928825F2E927226C28B29727F2A83462602A82C826B238346DD729726F2602C32830DD39A28E2732ED1C12D62681C021D27227327F2042672642992972800ED1CF28127D24811926D30628926C2481E723C2862B22A5,
2A52AA15A2682702D327A2A323C28728525C2AC2842642480DA2851C6342262278294F2328C28227725126911821C1E92872C42CB27E24B25220227121426926827722A27D28D27514A1DC26D26A27430326E2E72692BE26E2A12E22761CD253,
2C928F20426D27B2452252E424E2612852862CD25D27E24D13B2602EC25F2831D7321D3D28B26E2702592710FB1C531E21B2D72342FA26928323528528327929B26424B2B626126E1B424427527B25F1B028532E2DC28A19A2C22862792B9226,
2942722E42752642912032642492AF27D29021028827824136924A17C2CA28121C229D4726F2782812BD2691030802872D92BB22629427D29128A2332672722602612282AE24C2721F61CA28326E25415B25F2F42232AF2C72A623C2721DB248,
2C724E16527F26F25B2552B927023A2D62702712752652861B027D27F2AD2602132ACE1C26726127E2642693CF2112572492B723E31B25C2C91BA27723628424226E27D2D926426C11820D28226A28A1F127C2932B62A522E29122A265225245,
27426F1F826327C25B20D23723B24020527E26C28A27226A2AE24821D269277264286D0826128628331626921E0D51BB22230818725026726220D25425227722226527225C2792742101E127A2792501B826B31A2592452352972A7272228281,
29E23B11927D26D2252782E324C28C30226D24428127225B1922A225A21428A22F234D6F28427927528C279FF71D02B82AA2862C52F726A39627F26626F27426826921D31C26127412C21B26927A24C1E62612D82D121B22528523727E19423F,
29A2BB20F2672782592112552532312672552A928F27525226521A20127728724236DC0427D27026A2C62761A923E25429320713A26323D1C925225C2652622D92722842AD26126A17620626D2732652BB25B2F22A829E21D2A726D27C21622C,
27F2841F526B2772551B82BA2732852732A12B427027228E39229830A2D426F29F20DE8E26026927B30726C36424F23823929D32729823C2CF1D326926827923928327C31327226A16E23826B2732520582633242792E21B021427A281226254,
2D626C30226927B23B1FE29F26A22828C2A127B26326A28D0DA2672763362712BA2E5DC725B26B26D29C2770363C21DB2DB26316A1BA24927827F28A25B2782492682D22CC27F26D19820227927823F21627C26725A2782B32BD27B27C24F272,
24325225D26526C23923A2B724429C27E26229B25C27A23E28227223325D26525124FE2326127A2742BC2690DA2BB24C2D32491B32EF2672441DF22225726D2752662C12C727D26A13C23A26F26B24D11626F3402A22AF2552632BF27D1A5224,
30226B22727D2732A921525124D2402602592AA26C26C28C27B1CB1DA3272792402B5DCB26627226D2A52781EA43426C2C73452F82312842902712852282742642732B326826E2691601CA28128226D1CC2772742692A839128121626B298297,
2A129E19028128523328C2CC2B626E2B426A24925F26E2382362A823827F27C2FE296D7126326C2632F926B0993322CA2391D90CD29922F2B923D2692752831F327931B22827C26D1F926C27128424F2592663302602F12972702B727D1A529E,
2CD2CE3322852812532252702A921D29A28621A25F27524C25E25115325726D21A29ADAF2942772692C726EFC411A24E2D02E92F029B25D2C426728A27B2792422552E12B229F27217A17127C28526810126C2D325C2A43D528A21726C25128F,
28D28123D2752762692472C22892AA2E729928526A27C2A42762A61EE2A72752D5299F9727026C26A30126B00E1CE27E28C20D1BF2562742B228523A22E26A26026131622526727312A1E528228024C2CA27B31328326A1EC20428E2822E0222,
2A62792652782712A722B28824923D2E225622F26727F25931C21D1822F7277228288EE527A274265273282F512A21B72D429D15131F25D2DA2252C42AC26424627E2AB24525727221A1BA27528825C13F26B2652632BE34F28B22B2821EA224,
29C2B928127026A2382412AD25724E27F27D27D28828823F18B21D19A2FD2562572D109926526827F300274EFBEE123B2FA28F2D828427728A20623C28C2712742772CB19E27A2760081D226D27629123026936026C2672EC2D029C2822482A5,
28628A28827327828827426E28526D28228527A27E27F26827928426F27D28928127327B28427A28827328228128027C27E26B28B28028328927026A27927728028A27428728026E27427626C28426C28028A27628027327D26F26C26F27D27C,
27727227127827A28327D27A26A27127E26A27A27228727127528727328728A27427D27C27F26B27728828228827627628827428027626D27D28527428627C27C28626E27128527F26E27727727428028826F28528126E28028127F277279270,
27226E27828227326E26F28727428227D27927527E27627F27B28126C27828827A26F28626B28328428427228727B27F27526F27B27126E28128728028928928328928627927F28A26928126B27626E28126F28C28127F27E26E28327526B275,
27C27127227928227E26F28127E28826E26C28927D28326C28A28328627F28A27327926E28128028627027728627728927E26E27227227326C27628A27628927926E28427E27B28828628727028127726C27227126B27F27527727126D271271,
27428927E26B28727B27E27B28728127D27B27F28027527B27526D27227727C28927A28327B27927427F27027A26F28927227D27027228728428728527827D27B28327226E28027127328727C27B27428026D27727028B27A28026B27B28227E,
27826B26F27E27F28628627A26D28427728727F26E27427526F26B26E27E28727426E28727B27528627426F26A27727326C28527328226C27027D27428027F27726B26E28927427626E26928427327A27328928827928727627F28527127A275,
27127D28528628727227B27B28326A28127628227B27927327C27227026F28628927C27927027127C27727327127827428827927027727C26B28727028027026E27C27027428927727727228528427326F28127A26927128327828127C288286,
27927727628327228026F27A27D27D27D28128828527E27427827626C27328826B27A28A27F27A28828B27327127826928328728726E27D27626D28527827B27927828627F27727926B27926B27B26C27D27528727527726B28127B26E28826B,
26A27328628027D27127D28427226B27626C27427526C27226B26D28027F27C27E28926D27528027326828726F27028727E28328127D27627B28028626D27B27927928327727E27F28326927F27B28027626C27528027327128A28227C27A277,
27828127A28628B27726F26A27B28727126927327C28326C27C27628427028928227727D28828927728027126E27526C27B27C26D27427B27F27E28027226F26C26D28728527427427526C27E26C27F26D27628728427328B26A28927B28428B,
28126D27F26B27427126A27D27826E28027827E28926E27826D28827226B27027127027526A26C27827027327628326E28A27027D28328328227527828027027526C26F26D27C28628527428426B28228127228127F27628626D28728026A278,
27327327427228227F27028427626E27427D26F27127628727427228227D27028527028827028327828828128826D26926926B26F28726E27126C26D28428728427B28427327326C26A28726E28926A26F26B28128427528826B275278281276,
27828828626D27C27A27F27426D28126C26B27227D26D26F26B27728627627326A27C27827A26E27226F28526A28028627E26B27D27826B28127028328A26F28727826B26D27427228127427128726D26B28928826D27927B28026A28728226D,
27427327027B27127A27E28428828827E27428926B27328227927E28527328927F27828928227327327F28026D27226727E28527826F27C27226F27428227927B27828527626A26D28626E28028828728027028928526F27D275270281270281,
28828B27E27C28327B27D27928827728326E27026F28227F27126D27727028726E27628227B27128827327827926D27327526B27E26E27528528126F28828227627626E27F27C28027C28127F27A27F27526D28927A286271279286282273281,
27F28128028727527B28127D26F27227727D28A28427527F28728628C27826D27A27C28727D27726E27327E28828527F28828826B28926E27927827E26B27527128B26E27328126A27D28728427527327F28127927427427327F27628227827D,
28626F26D27827B27828728528028626A27D26D27827C27E28128126D27328827128227326E28728827427326C26B27A28526D27927828026F26E27628727628926926E26B27528227627226D27127927D28027D28427426C269282280272274,
26F27826C27227626F26E27028328928627326C27228828427E27E26828628927727027528027428927627226B28627927A27627628027827128427F28128227426E28027728427128728627A27928627E28826C27F28B26A28327E28628426D,
27828827A27328628227B27228027F26B27C28528526A27026C27528927127826E28828228327927F27827426A27C28627727C27026E28826E27927226827D27E28327E27E27126F27527E27C27228827E27E28527027428826B27927326D285,
27A26D26F28A27327228A28726B27327326F26C28227927527427A26A28427628628C27927727028628627126B27728728027828527926A28727C28A27126B27727027526D27326A28426E28628727227927B28927727826E26E270279280271,
28728A27727B27528527427927728826B28728526C26E27927C27827E27526C27B28627028227126E28C27A28628026C27926C27426F28227B27626D28727327028326E28227C26D28527E27526C28227827E28828A26B28428927C282271270,
28A27E26F26B28B28A27726D27627827827827C27B28727427E26E27627E27D27226F26F28226A28827B27F28227227628328127D27B26E27528026E27E27B26A28026C28727F27627226E27E28626A27828426E27427E28A27726C26A28326B,
2B53AB2F026C28245837B28825846113826C25D27E27A29C2872511DD31C25D2362EA2C326226927028B2712A025725C1D63261C729226E24D12A2F42DA2712A325E1C127C25027810518227526B2FD1122723BB3131A22F109635B2761C1245,
2342F228027E26E37A3732EA25536E1BC26D29129B26E20A25B2F71D82A226B29E2D62EE25427A2611B72732BE2BC2542D826F1FE2C726615823D30430925B1D72611D226C2642731F531428B27E33E20927C2FA29F2B02C220928E27F2922C9,
2B02B228426B26434D1FD27A25934A15125727427926A2A82A12991FD1EE2722F42DB31426627627E26827B2D82C131E2BD1EA2951E025B2541DD2B535025E29F27D1AE28D25E2743431F52862643412CB2772B92A729025F2E33102821DB23E,
2502682242722623002C428E25B3032DD26523728827E2332801DE2C71F92731D62592B527628226D1F42762A627F1F42BC1AA24521E2562E92F731534C2733112741E830C25326F1D62122832712FA1FE27819B25E2482D616A24426D24E209,
23F2722A82812742C22592F825C2B22B225428128526829802225128D2D427623E26F2A426226E26227B26B2A724B2112982D025C21025021E35430A2CD27D1E825A20028825D27A21127E26A27D30F31826F30D2642AC2DC2DE2BA2832632A9,
2472CE22B26D2752F624D28725929C2532642AF26426826A3902E221F2DE26F27428F2D52742722701C126F2672513CA2322772DC1F225F1ED1D62F234426525E27022C2B026B26D2CD1E826A26E2D229426C24E2951952982C425A27A29A2A1,
2822432E12742692DF2A82812582662B026222B2612772081213112221E626F1EF1202C526E28026423927C24E2B92872FB28121026225B2E62E627831B25F24427A2342B52702772372A826F26830139027B2D12EB24D2802CB2BA272288281,
2F12B12D227627E3352522D72322052512572B429426C29EED02432112872792412172DF26928325E2242811FF2CE29C2CC2772C72FE2532832852EE30C27830825A2723112622632FA2192752702FA23627E2C52322892E130A3432712DC227,
2DF28D2402752642E429624025421E2222601D528527521021B29B1D12AF28B27B16929926E26D2721D22811FD26E2042BB27429C1C52592D01C929E2F22622B025D2D22F926F26E2362EB2742692FF2962712EA27F32C2A52F323E2882952E8,
23829F22326727B30B2EC28924824A1D82582DA27A26729A2B62142292E327D22B1D52F826A27325E27A26A2012573052A23582752712643072202B12DE26D25626B2323222502792842442852693142E32712C726C2AB24D30D2AC26A217215,
2AD23321027926C3142FB27924024B1EF26422C28D28924A1231CF27926F28423D2022A12762842612812822822B921F2EE2C12D02482673292A72EF31327220A25C26B2DF25A27F24E23D28827D3292EF2672D125230430821B2EB27E1C72C7,
2942761CB27427331A1E725E25225C25D2561C825C28220F10F2BC31B28F28922B2AE29F25927A27827128026424F2BC2C429430320D2572301F62F43172762902602963012672641B62522852792E82F326822425E30B2AA2132DF26C1BD1BC,
29F27221427027A2CC20C28E24F2131AE2582762702782CF14129130C25E2862152F427425E2732682CD27F25823129532E2C726926224F2BD2632DA2D42702842592812FA2792811FA1E327127D2F326426D2A82392782781C928726A2B31BA,
2FD28E28927027F31420E3022651FB29C27131727D27124B3282C52542832822312FD2FD25527F26527427D26E2911D42AB24323127D24D22C24A2B52EE28021A25C28831827127C2AA1F827828E29D2482612AE2EB26825D3342A626C252267,
28A22922F26E2723202BD28C24D2582EC2701ED27F27127224929E1E829727F22A2A53392592752781F12662B32942FE2B32561D227D23D1FF3092CD2C527423125429334825126B17421D2702872A42D125F1B624D15123C24B26526E2D61EF,
2652952BE27626335A22025325B2151DD26E2B82662762823782232F128A27D1ED1902E027427526A16C26F29D28E2E32A529A22A2D123F1C123B2AC2D527227326A2472E22622762B31EB2832852662862662E128E2F62782E626527F2BD29C,
27B26E28626B2792EE25B26C24A1EF1E725A1E626F2781EF29A2881C52492862521CC2CF25E26C27E1FC27932924921121524E2C32B526227B23A3052E62822722623892B42512692CB2B227D27E31325F26F2BE25F3102A12C12ED2752532DA,
26226E25827C26A3062192582532D022A25523725D27E22624626628118426D2102E729B25C27A28625F26C36A2592D922B26F2B022823F32229E2E535C27925E26138833A25227E2A02AF27226D35724C26D2692BC26723F2922382682302B5,
2542E52A027727133E22B27725524B22425720526C26E2282A91F22061D82752241A62C226326E2681E727C32125A28E3263322721C82473161F033F35E27A2DE2653AE22E25E28029733728126231734C2552782C02D62BA20529926626E29C,
2B927821227A2803701D82FB25621E1F12592FA26826925B31A23721632528929621B2CF27127226324927E2A926E2623222B02021D727732D19131D2BF27C24A2723ED0EA26826418B1F427827133023E24C3132DF3033073073022762B824A,
32229015B27A27133326D29F2661D41CE26D1FE26327B2412AF1F51312A328528227222526227D25827726D27A2691813F728F31221727E2E519A2B92A82651CF25F36A05824A2761CE21126E26135E2A725A35A28E2EA2763B72D42761D22CE,
2F42CF11B27825E3632302AD24D1F30D026A1BB2532681BE19727916B2912881CE22529B27527C26B26C27B25625E25C3DD3862D92F926326221B2D031D2671FA25C2A9FE924A27314D15227E2703DB28E25A3CD2B63122CE3E533426F270125,
1BA3E720426927F36337818C26753B22326823B26726C25FFEF35530B25B27927E2DA30E28B27A2682A828511C64333246B33630D23625E3FB1F52591FF2823082604D639024827D2B039426C27E37C1CA2712CA1FC2620D26D01AB28D2F2208,
1D92782CA2862852681592272802191E426827F29726F24A1AA15715F1C32932F21E131A29226F2702AD27E2A728B2B82412AE1D234226815E13829E2E226726E26A38D39A25927B2C024C27227824D32B27F1EF22F3402FB2C221427213724E,
24A2A62CE26C26720932D2582753E53B026932C29228634F41D3863CA3BB2A72092DA2B025D28326F23C2762A14590F81CA2662021D825A3031CC2101B726433527735E30B26727A22629227F2671CB22828026D31D20C22E44232E26A279225,
2523581A426628227031C24B25F32116F25C2F528F27A21B2832153B31C028E2A72C71C128A28227A2E327216D49227E19020E33D28526D0CA1862B82A32642AD28C45934C26127320F2CB26F2692CF1362762AE1642B71622B02502692F2332,
2202F52072812742043A32132602BE25729324029727726504624B24935B2952CB29518B27B27126C1C126C32C3FE1962412392F72632863253AD26B23C2791ED27C3A035628527F2152D027D28A28415C26924F22F1D025F37F2902841DA1DB,
2DB36E1E726327934621626E24C42F27728430127D2871D12DB15726727528A24C2731C927428426D27C26DFDF44D3D437335C0222D428031A1F22BB27C27F3E627C3672C928E27733826E27527327B1992711D228426FF9A2C21FE27720231E,
15B37C18F26427D2023651E42572DD2C629B1A92712702C127826A30014729E1FD26A2B527828025E30C2861C131925E2211FC2851F326C21F26C2611E72691902703BE36E2A12660ED29F2702701E126A2692922E11BF1B93032AF28634C266,
2553BD16327C26F25E2F02BD25B4C02DD2803E926C26523E0692162EC2822923272E646C26C27925F27F27C1BA55D1E025328532D2D92502F73722CF2B52722BB27E3C224827A2851832C226C27D22B32427B1F625D2F914128429126D29D2A4,
35122A3AE27D26A31E2FC1B62442CB1DA25524026927628C34A2340A825728E2C42ED06827727A2813012791C65D31AB1F12BA2B72B72510DF17427D26F27427428332839928026C43C2BC27A27823F2AD2791F226A3281F03112222671531D7,
1B741920427F2803041EC27C25146424626E1E62802772AB4162EF3712212671EC2F342A28E2752732B326FFC04261F32AA2D032B2AC26E2D429428B22728A2CB25336D2AB27F2761D325F26B2832E72E227D32C1ED2762DC37E21426C34B20A,
0E82C329327026C2D437D2002692E230B25E30128128828B36D25A33432826229F2B02FE26227B26D28127B0F83BA3B927C1CB0E227427718D3062662A028327625038E32925A26D0A33422862851D810226319C3050DE17C30134627B29829E,
2693582C727A26F2322972B727D4562AA26B2D527226A28B3382D527F24726D3002A12512622752742F527B1433652C319634830831726C3B819A29826F26A19B2562CB2F626E27E3A52702792812691CE2722E72321D8EF82911FC2680E729B,
1D338C24D26F2741EF2F222527235227427524D28627125A2C31EA29B23A27128521A17A255272284212287FC33A21C618B19A2432592572AB22E22426026B45526332A33D26E2832ED35F27326F28C2832752952B53D00892BB25F26F2C71F8,
19829A16A26D26F2D035A23028E3D927325D35E2612702093322E82CA1E22562732213982682812712CF27819B43231E1672E93162D326D24022A2A71FE27B1242582D732727A26617228826E27A21929127B2181D82062F02FA1D72761D6232,
29B2E90E426D27120925E2352963B129426A1A127427029931D2562B026727828B27C37C25727726D27328418D5241B30552D825225C25A21B32E2BC29F2662A82732E73882802861F62C426B26B1E32642763312C11DAFB62952BF265284297,
13F31634527C27927026820C2813DF25526337D26D26A2CD28E28A2D92762602901F612D25926C27528F27B30F2321FEF1519130422926D2BA24822F2812892D126F28B39827B27B2FA1FB2662682921502661F822B2D617229B1F22750D4220,
24324C19226526E2663771C628A3782B825224827027121B28C2B52B92A525B2A721412826927226128526A08523928D0001F609A2E126114C19C2D127028419726629831D27B2751E934527826C24D2332562A82271FD1F524329226534B24B,
1803231682822832292BA20E28A37821F28C26126D26E25F28221834830B25626220F49C27627827A1B62890F54532DF08B25E2792C728324619621226026733E25F27741926D2622EC19926D2731D83A925A3112732CA13D2A32642672BE29B,
21B2C025B2882762343101FE28437F2F126A26226D2673281FD2B43102DB25627836305328026B2743132723922E31FFEE53182A920B28A25235429B21D25F1762692723E526A2632072F62752792301BD26A1E327215514D32C28726E2561B4,
1172AC22026E28428E26F1AE28235F30F27A2B826B2782391711F81DE2FA2702161F73D526C28027B29D2712822B22E605E1C917420F28706725A24329C2652BC26228940927D27622A26427F27622524426F1E324E2121DB2B023B28C24F2AC,
1C92AF2BE28626E1FB28924128234A21A28E23727F26C2E534123B3181D22712CC22001C27226B26324D27C1D92B40FE0342060DB26728C3B718528C1E227224826E2572532842562392A32842742832332742532823241202D523026E26524D,
1CD3B81332712732F13230D02884612BE28515C27E26B22601028E2C741426A27E1F71DC28528026C25426F1C7221216D37184FD12B42861D41DB2C62E727C26126E24D31026826C2762FE26727C1DF2AF2642A91FB252F3B3102062691DD1D6,
3A73CC2BD25F26D2A529D2AA2633C14112531DA26627028B11F343217298267F634C42D426926B26927B27519C26316219821529326826632B3331EB34E27A3AA2741D92382712752B031C26E27138E2552582AF31A2A92DE117D8026B2EC0AB,
30030126927526B31326A2D524C36D35726620C25C27825A24E10F2EA2C128A2CE22E29E2522872682D427723B22C2E22872891A120227823E0F928927E26626026021C26D27E28A30C2922812733492572712E12C62622760F021E2642903B1,
2E22842142712782C42C226625532D31326629C2652822B91C92D018C2D528818B2F828727A26B27A2A927125625A2C42CF2A12EA1E927626225425B2DA2771C52682192A626027B25F2C126F2683172E028021023319D1961C81662681A1357,
2C127E2E82672673072AA25E27C2E230E26A1B42622712C42912EE3391CC26C1802FD29625B27B26629826424427525F23F24D2CF1F326A29A35E2742E826E2672592652AF27427929A2BF2752812AA2C826E2A729D29D1F028804E281240260,
3092B521226F2772F02382A827130B33226B2B62562752403052851D324B2672262CC29E2A32702732BC26A2B727625122C1AF2F426E26A2C622C28A2B025C29525F2002BA28126725C28326F27B2C128126627A2752611CE22C15C27F2DC204,
3062F323227A2642B92912FD2462D62A726B25F2692682B428C2782642E727F2FC2A227C2A828027D1D927E3002602AD21C2801F229B2602412B02A22E42662322561FC29427727D24627527928230825C26126A2BA2BD20A2442B327F3592C6,
2B025625D27427A25C32B28F25E1ED22325927827E2682D622A2182F81EF26F2692492A32AA27C2622A227F34E26F1FB2E92F22C229C2632BB2D42CA2E927022E2681CB21226427823D29D27C27E2733182702941FF2112552B32822781E3338,
2552A41D926227D22930F2D52541E029D25327727B26C20129F2FE2AF1C526B2982AF26925B26F26C28527D3612A334726F25F2C726823C27227727428D28225727B1CD25426D26E27F2BB26C2772CC2B22732711D32532413DE24A267247222,
2B92ED30126F2782492742812571E527E26C1E327127727525D2B72AF2C52601AD2ED2CE27127126D26926C36F27D2912CA2332AC2EA24B32427620D2B42872A72811B72CF27827B1A12CF27B26835E31C25E2FE3302891F830E1572792871F3,
2CD2B127927326E2C021028125A22033A26F2EA29228428A1E519E1D32402701E02AD2A526F27926822B27934128129C2BF24725921A24123222720127C27839326F24C2D526727431429D2842703062AF25225E30622523631D15627F31028A,
2E02912BD27826726E2762BE26225734A2682142802852B716425524F2962752902662E927426726824C27C2F92C426829C2F823221424523121824622727527025228A30426C26E27224E26D2772F429F27625F2AE21F26928C1DA26624A29F,
3292A52D927726D26D1EF23125827532426A1DC27926524C1E72E42BF2E725914532A2502A12742802D32752D72BE37A2712292432152562BA29320D2CC2691F32682582EE27626A29C32F26829032820026B212296361248211155286276292,
2A42A82FC2672612CC2822982452692C426321426026729C1412BF19228827118635722528426C27B22927C2692C120628922D32825324420B2F52672462762F325A2A82F225F2742DA22127627830629026D2A227E21C2761FF0F62842F018B,
2DD2D12EC27626B2AE24A2952592013662642B32742682951A81742862D326F1722B92842742732662A526727F29125F1A63981EC19724825025D24C29627A25B26A3023842732802BE2AA2772882C924126A2463041BE2842431942832552DE,
2D924D1BE2732672B221029726620B25927129827E2782741ED32134326D2773292BA28E25D26927E31C27F24B2AA2B925D23D2122A42503222332992CE28020E2732AB32E26F2772A32AA28228728F28726423E21F2E32AB22A2E426B2C12DD,
2592262E427727B26727328F27720728026B2452912743412C32AF29D1C626F2F31B42A12632872701F427B2192A218D29A29B2532652552F025A29421D2801E225B2A63192842822EE24927A28D26334327A27B2241CF2DD2861E026E2F2239,
2C72691BD2692792472782952632202CB2681D02892652622FF2401A52852631782BB2BD25426F2622D927122B28A2CE2FD2CB35326225D2242DE2592EC2632BE26932B25E28326921927B27A2892A725A25D29A2852543162DE1F826C2661DA,
2A225723527F27E2CC2742702822032D225D29F26828027223C2202AB2AC26114E28D2CA25826F26A1E62831F52CF2A925E2972222FF25225822429828A27029E2552C225628026D1E92C126326E28132927C2F72BB2FE2EC29B29427A210300,
32E3142372702732A32762F82892412D92712272722692AB29B1E43712532721B52C12AA25227E2691F127A18828522B29A25020221D2882841F32592F926721E25330D27B27226E2B135527C26B3372D527327A30421D32F2B30BB2862BB346,
2F62A62EE26C2642C22BF29027E1FF2F826927125728425522F2C524722326820E33623125C27326630B27E1FA2582B52AE33C2842782642D923E2602D82731D32693421CE26226A2952B72702803002C027029125F26133827113227120D293,
2E329E21225F26F25A21328728B23C2EB26A29027126D26C2B83FA2861FE2621C228A22326327826C29027127525D1F52BA24E1BD1F62711C22622622B72672A926435615628027D1FD28727C2693521E228123D2EC30732428520527C1FD10B,
39030F32026727426A2062BB29023E4812771B325527C2C61D919F26E35124FFB546B2742692742672642872A121B28C2D81E42762E22632D929F1CB2DA26C3DB27B33305229127C2D22A42712673E01DB2862EF2E7201353355DB42712BB303,
00000000000000000000000000000000000000000000000000000000000000000000000000000000000000000000000043F3F23BA3E43F34464D44784353D93D34C43FF64644C3BD4373B43543873233FA41341F3D93D44004382CA4743343C2,
00000000000000000000000000000000000000000000000000000000000000000000000000000000000000000000000058934A3602DC5B13EA5923C139044736C5413B739240257C3AC4434173CE42637534B3604353D237C52F28868248B339,
00000000000000000000000000000000000000000000000000000000000000000000000000000000000000000000000040F3F73DA48842A3F94073F840D43A3BA4854453F448D3D84074243B447045F41739F3CD40939B42945F4243DD4073E5,
0000000000000000000000000000000000000000000000000000000000000000000000000000000000000000000000003603FB39937E4993B04574653F95582A51F347E398442F7462330D4203B736C3E837E42D3BF3F23D04BA22C3D548B3A2,
0000000000000000000000000000000000000000000000000000000000000000000000000000000000000000000000005A832636737B4473F200340941C4383591C73F840336436D4024282D73F23333B83A634045A3F23FB42B14F4341F43EB,
0000000000000000000000000000000000000000000000000000000000000000000000000000000000000000000000007BD3263514F16BF54E4F67173EA7FF3F47FF3F96383CB69C25B7FF3962BB385A7041E3FD30B33932951F3543AA4065C8,
0000000000000000000000000000000000000000000000000000000000000000000000000000000000000000000000003DB3963433F245547340C53D48C43C4071C84004B637449843A40F3BB4053CA3D535B43946F3F2379518B8C43745C48D,
00000000000000000000000000000000000000000000000000000000000000000000000000000000000000000000000028D3C039539C4BC5143C14A04D243E3D51CD3BB4E637E40C37D4C443446033D3D43693294354953E53485BE4C249D509,
00000000000000000000000000000000000000000000000000000000000000000000000000000000000000000000000037E3473BD3F644043E3D03ED43B40B3AA42828525139A3DB45241636442034F3FA2C133047143941948116FF42451397,
00000000000000000000000000000000000000000000000000000000000000000000000000000000000000000000000040B4294623D44994003A24424143DC40E4313DD3993F24073AE3AD3AC4574743CB41D4683AB3A93D33E93FE3EC4863D2,
000000000000000000000000000000000000000000000000000000000000000000000000000000000000000000000000FD83FB34629B22F44A35F6C733042E3A826F4423C83B37FF3663843CE3FB3803C93F33D83F018F3B547625558542B226,
0000000000000000000000000000000000000000000000000000000000000000000000000000000000000000000000004373773BBF5A41142346D36340F45A5D55CE42A3D639C3A34124203675B03E043940F38144A2CD35A42242E46647F414,
0000000000000000000000000000000000000000000000000000000000000000000000000000000000000000000000003D742544138139C40E41A44B3CE3AC4333FB3FF3AE41C3E63D145B3BD39148E3BA39A40B4213B53D43FA41A47C4503AA,
0000000000000000000000000000000000000000000000000000000000000000000000000000000000000000000000004583D33A14883E13FD3CE4303E53EE40140F3E53E54794403F347147C4164334343C23D14104433FD4283EE4033FA463,
00000000000000000000000000000000000000000000000000000000000000000000000000000000000000000000000029930640743740E3704BF4353AD3883804325943413AA3363DC3DB35B3523B047B38B36F3FB40B3EC4E16084C13A345B,
00000000000000000000000000000000000000000000000000000000000000000000000000000000000000000000000007731E3862E03C91B721142433928647C2FB3E63E633E2873C848D3A151B3C52BF34C3E7FD242939B2903F936D3945AC,
00000000000000000000000000000000000000000000000000000000000000000000000000000000000000000000000040945347846C42C3F642C4623BE3F746438C4524113E93A04663B83A243647941945941E49F4083A840247745D43943F,
0000000000000000000000000000000000000000000000000000000000000000000000000000000000000000000000003EA3BC4073ED3DC3AD3B23CD4B43E13AF4304903D33B33EA3E74B94013A13D143641C39A43E3F846C4773E83DC3C73C4,
0000000000000000000000000000000000000000000000000000000000000000000000000000000000000000000000003AD3603F938A40130CE4748F45B3E32DD43A33A3E837642E40B43A3A838F38651445A3BC3964193A9416DFD37C14A485,
0000000000000000000000000000000000000000000000000000000000000000000000000000000000000000000000005193413BD37A4302A7FDF3C243E40035645736F37A4423983C44014264483CB46A3913F73AE44D3BA41047D3AF1B03CA,
00000000000000000000000000000000000000000000000000000000000000000000000000000000000000000000000040F3B13923C44433AD37A43244D4283C14424064473C14813EA3DC3A646548F3F145A4304724063D43474364044283CF,
00000000000000000000000000000000000000000000000000000000000000000000000000000000000000000000000045A3573FA3E43E843751842C4393A33DCD8442167A3EE3973F53C141339E3F042C34B4213D341240B44030648331B3B1,
0000000000000000000000000000000000000000000000000000000000000000000000000000000000000000000000004833A641F4473EF3C939D40143D40C3C13D741443347741D4953E544942F4823F43C940A3F23CB44F3DF4704193FF43A,
00000000000000000000000000000000000000000000000000000000000000000000000000000000000000000000000037E3B23843CF4C940248330344239B1C620544845D3C719C4014A42F74463D34172EE3A935B5183A43D43C7431431532,
00000000000000000000000000000000000000000000000000000000000000000000000000000000000000000000000029345C32F5473E23A34B737E42D4665960B144228F3334EF3D54404020E03D54403DF3C736507334E3BF4673AD4083C4,
00000000000000000000000000000000000000000000000000000000000000000000000000000000000000000000000011037F38D45F37242856118D3EB30D44F22E41354B42A3903CC42A3CC3F13D54253573C219A3A34294F24FD50F14F53D,
00000000000000000000000000000000000000000000000000000000000000000000000000000000000000000000000047D44937A4BF48444E45E2E54C94BC31B70F1EB5103B43BF5553A83233C441C38043B4323143043DF5D24A92C54A0443,
00000000000000000000000000000000000000000000000000000000000000000000000000000000000000000000000045440944439943D4204273674114AC3E83CD3FF4313CA3DB4E14323B54354313F73CA4273F730E391449434407351388,
0000000000000000000000000000000000000000000000000000000000000000000000000000000000000000000000002953F741048043242E3F42153AF2334E80FD47C4A642B4FD1F03F73E13E137544737539C3853BF3F84DD1D74D4391160,
0000000000000000000000000000000000000000000000000000000000000000000000000000000000000000000000006154273DE3FF6104A6208DC72A746849B4FD47828E3B93753C843736838F3AF3F82F83695DD3C63FA64936E5EE4F9227,
0000000000000000000000000000000000000000000000000000000000000000000000000000000000000000000000004133DB35F3653E236A4745A840B4CC2F84034A13F137E28545D3913AA4A642E4213D536F3D447D3F050E38A3B9467370,
0000000000000000000000000000000000000000000000000000000000000000000000000000000000000000000000007FF3F13414E73D742B4F24E440A53646829637048846E4CB36C4923DD47936936736C3A91E54023E04B32D25404C3538,
0000000000000000000000000000000000000000000000000000000000000000000000000000000000000000000000008003EB436D973723C339FFA910211CD1A3AF47231A37A2EB4733463FDD2348C29F3493A64E62923C94FC32C3F121C446,
0000000000000000000000000000000000000000000000000000000000000000000000000000000000000000000000005AE4153FD29424BC952E74B4F6FC9B2572DE5330E53F0FA448E1A9455F1943D6D53EB3684ED4803D82E47FF335800083,
000000000000000000000000000000000000000000000000000000000000000000000000000000000000000000000000E0E3EA3E38004AA63A4D01A539E5D44E836F4607FF3303B88007FF3CC4D33F180046740B7488004133B54353E53ED62B,
0000000000000000000000000000000000000000000000000000000000000000000000000000000000000000000000003E642643F40247D3D34573B247C3D746B3F746146440A42B3F13CD3F145C46F45C3DD3B145C3DD46647F3F6473462470,
0000000000000000000000000000000000000000000000000000000000000000000000000000000000000000000000003D234E3B45124134AC3B528E47D3294DAFED42243A3644494B74663894072E441E2E930548F3F737837845A4B34AB3D0,
0000000000000000000000000000000000000000000000000000000000000000000000000000000000000000000000003A43E03B94504A636E4333B93FC43B3DD41E3A34264193EB4024133F038C43843A4613FB3EB3C43F941B3AC41A46D48C,
0000000000000000000000000000000000000000000000000000000000000000000000000000000000000000000000003EB3E13D83A746542443A41840E4674383C73F83CB4594304304603E643D3CD3CF3E43E644B4094833EE3CC42F3B4460,
0000000000000000000000000000000000000000000000000000000000000000000000000000000000000000000000004483BF4164B23B94434BE4564874D13E04604213B540F3A63A53F44643934843FE3EE47C42C36B46038D4123963FF42C,
00000000000000000000000000000000000000000000000000000000000000000000000000000000000000000000000080037137C3444E98C81660DE4287FF00D32A5248003B83C62E8516397D704034FD466349471CE94222521A51CF2014B2,
0000000000000000000000000000000000000000000000000000000000000000000000000000000000000000000000002B03FE3E826745C3CA3541733B35533EA30E43E3393712C25DB2FD3CD34E3E141040835942B3153BD4261383AD4A4397,
00000000000000000000000000000000000000000000000000000000000000000000000000000000000000000000000042B30B3533874AB3FB4254384025C546017D44736D37F3603452D834234540D3E73713C835A3F233C45D224375484412,
0000000000000000000000000000000000000000000000000000000000000000000000000000000000000000000000003EE40D39F4504894373A945C38B38246345643141D4413E83D440A3D246143539B3EB3A13ED3C24783F945B3D44963CF,
0000000000000000000000000000000000000000000000000000000000000000000000000000000000000000000000004553D038B41141B4854823ED49541541F2F231F4722EC4E038446633F47935C3F23D832342F3FB3843775712CA3F8306,
00000000000000000000000000000000000000000000000000000000000000000000000000000000000000000000000043E2B63403B74B835C51A43540E4D221513D4174213565D54104AD3575302EF3C83853A53DE4213754152AA49B45448B,
00000000000000000000000000000000000000000000000000000000000000000000000000000000000000000000000048A3E33B440640042D48944B43E4483F20A83AC6412F23CE3FC3DF39E3AF30740837D39B3F93C93E34542F143D3943F5,
0000000000000000000000000000000000000000000000000000000000000000000000000000000000000000000000004C43CE3ECDF416D2E637764F33B4F44E16ACE7A8003B15DA08751238D4023782EA45336F4DC3DF3613576048000B033E,
0000000000000000000000000000000000000000000000000000000000000000000000000000000000000000000000003C53A63624023703814873863F94263452764F23A53B14103DC3F13104363B33EC39838543B3DB36F50A4B04433BE513,
0000000000000000000000000000000000000000000000000000000000000000000000000000000000000000000000003DC3B541041C3D94083E14103BE46F3E14023FF3EF42344E4774323D044D3DE3E041140F46539C4743CE3B03F03F33F5,
0000000000000000000000000000000000000000000000000000000000000000000000000000000000000000000000003D443A3EB3E93FE3E83AA3E24763903BC3A74443C94613A348040D3A941D45C4233F23F23E535D3B04C73B743139241B,
0000000000000000000000000000000000000000000000000000000000000000000000000000000000000000000000000F332E2A4215352348ACA35F3E01A442433831718938601E12E30C3EE8002E89FD3842E932E4523244520AF33636F3A0,
0000000000000000000000000000000000000000000000000000000000000000000000000000000000000000000000004573B644B4474454B844642344538A3CE3973803FE44A3A33C340F4723B54753F24134643EF44E3D838C45F3EF41B3A2,
00000000000000000000000000000000000000000000000000000000000000000000000000000000000000000000000040442B3583D04C94003A03C83EE55A2D439445A34A3931A161D2EE39D3033373EE2DF3A03D93F535C48D13133648740C,
0000000000000000000000000000000000000000000000000000000000000000000000000000000000000000000000003B03793893A34583F7E913FC3D63E93340B14443CF34131D44740641338641E4ED39C38A47F4023BD3F01D83BA2503E8,
0000000000000000000000000000000000000000000000000000000000000000000000000000000000000000000000003D03AF4013AE3CE47843747C3BE3314473EF3B13C33AA44E3B14B03E942946E4254043EC3C03D03EF48C46C3FA470402,
0000000000000000000000000000000000000000000000000000000000000000000000000000000000000000000000003583773D34EE2E44B45003A23A622F41F2C73203B337B4013185013D34103A241D3BB3574084B03E930F35F39653134E,
0000000000000000000000000000000000000000000000000000000000000000000000000000000000000000000000004933043E243F4114503504CE45E4B34252313284342F64A23A644435142135E44C33E3F83E43863BE4574764AA3AC49E,
0000000000000000000000000000000000000000000000000000000000000000000000000000000000000000000000004003CC38B5B92E433D4612FD4524821450D141325B3CC32340A3D039C1A13A54B23AA34A49559C3D738642D4BC43E38E,
0000000000000000000000000000000000000000000000000000000000000000000000000000000000000000000000004284603EB40341D3A04074333B239A3DD39147537242F4083F43FE3A13FE43F4683B63C53884253C642A44F3AD42A402,
0000000000000000000000000000000000000000000000000000000000000000000000000000000000000000000000003F03D144942945949B41747937640B48D3B33CB4304663F942B38C3EB4073E844A3D947941542C3C43BF4613B03E73FF,
000000000000000000000000000000000000000000000000000000000000000000000000000000000000000000000000F5435E3B331056648350249B30242A3F52FE39E3043B25683963CC3CE2753A34323B23F049339E39052626862B436295,
0000000000000000000000000000000000000000000000000000000000000000000000000000000000000000000000003EE3613FB3F72101054B808243B3615BA0B12E217E351FCF3B03923E64AC40144B4023ED2D14EA3E74B542A2FB2ED12A,
00000000000000000000000000000000000000000000000000000000000000000000000000000000000000000000000045233C3A86A04094674AA4AE3B84465A146D39244342722D4A73D139A6973213DF3BC3EB4F43A739E4F23B13C93C72C8,
00000000000000000000000000000000000000000000000000000000000000000000000000000000000000000000000000000000000000000000000000000000000000000000000000000000000000000078871470B6FE70576871C7097866FD,
00000000000000000000000000000000000000000000000000000000000000000000000000000000000000000000000000000000000000000000000000000000000000000000000000000000000000000077D79A78378F7837AA7677CE7757B1,
00000000000000000000000000000000000000000000000000000000000000000000000000000000000000000000000000000000000000000000000000000000000000000000000000000000000000000076F76877C77C7507CB79875377477A,
00000000000000000000000000000000000000000000000000000000000000000000000000000000000000000000000000000000000000000000000000000000000000000000000000000000000000000072D75370672763475173D56771674A,
00000000000000000000000000000000000000000000000000000000000000000000000000000000000000000000000000000000000000000000000000000000000000000000000000000000000000000079774372F74575D7387387577A2740,
0000000000000000000000000000000000000000000000000000000000000000000000000000000000000000000000000000000000000000000000000000000000000000000000000000000000000000007B07AD76774C72C74C7847AA747766,
00000000000000000000000000000000000000000000000000000000000000000000000000000000000000000000000000000000000000000000000000000000000000000000000000000000000000000074B79775475A77A73E76377174F74B,
0000000000000000000000000000000000000000000000000000000000000000000000000000000000000000000000000000000000000000000000000000000000000000000000000000000000000000007A87A57B67A376977E78378F7A978D,
0000000000000000000000000000000000000000000000000000000000000000000000000000000000000000000000000000000000000000000000000000000000000000000000000000000000000000007077236D670F73C6FE75F72673C73C,
00000000000000000000000000000000000000000000000000000000000000000000000000000000000000000000000000000000000000000000000000000000000000000000000000000000000000000077E73B77276375671B76876173C78C,
0000000000000000000000000000000000000000000000000000000000000000000000000000000000000000000000000000000000000000000000000000000000000000000000000000000000000000007707767F27EC7FF79B7D97AC78F773,
00000000000000000000000000000000000000000000000000000000000000000000000000000000000000000000000000000000000000000000000000000000000000000000000000000000000000000074E70C71B6F76CA72374974B73B79B,
0000000000000000000000000000000000000000000000000000000000000000000000000000000000000000000000000000000000000000000000000000000000000000000000000000000000000000007847AF76E76A78375C76878477675B,
00000000000000000000000000000000000000000000000000000000000000000000000000000000000000000000000000000000000000000000000000000000000000000000000000000000000000000073B76C6FF70272F6AE74B723705748,
0000000000000000000000000000000000000000000000000000000000000000000000000000000000000000000000000000000000000000000000000000000000000000000000000000000000000000007B877B7B37B76927B875F6AD73B7B2,
00000000000000000000000000000000000000000000000000000000000000000000000000000000000000000000000000000000000000000000000000000000000000000000000000000000000000000078776177276A7CA7467647CF79075F,
00000000000000000000000000000000000000000000000000000000000000000000000000000000000000000000000000000000000000000000000000000000000000000000000000000000000000000074179F77C77076278676E74573A775,
0000000000000000000000000000000000000000000000000000000000000000000000000000000000000000000000000000000000000000000000000000000000000000000000000000000000000000007336F372E75473E72677174C71E7B6,
00000000000000000000000000000000000000000000000000000000000000000000000000000000000000000000000000000000000000000000000000000000000000000000000000000000000000000075074572F73B7257547B674674F73B,
0000000000000000000000000000000000000000000000000000000000000000000000000000000000000000000000000000000000000000000000000000000000000000000000000000000000000000007CD6966CA6C06C973E6D26DF7D1654,
0000000000000000000000000000000000000000000000000000000000000000000000000000000000000000000000000000000000000000000000000000000000000000000000000000000000000000004286E77072C15A15486BB44079326C,
00000000000000000000000000000000000000000000000000000000000000000000000000000000000000000000000000000000000000000000000000000000000000000000000000000000000000000074C7B074674B7A875774A7A2761737,
0000000000000000000000000000000000000000000000000000000000000000000000000000000000000000000000000000000000000000000000000000000000000000000000000000000000000000007A87967A37957FF78A7837FF7A878C,
00000000000000000000000000000000000000000000000000000000000000000000000000000000000000000000000000000000000000000000000000000000000000000000000000000000000000000072B7727D57CC7786BA74574E71D784,
00000000000000000000000000000000000000000000000000000000000000000000000000000000000000000000000000000000000000000000000000000000000000000000000000000000000000000076678C7A679D7D17A87B07E3770797,
00000000000000000000000000000000000000000000000000000000000000000000000000000000000000000000000000000000000000000000000000000000000000000000000000000000000000000077C7C678978F76B7CB7D87B47747D3,
0000000000000000000000000000000000000000000000000000000000000000000000000000000000000000000000000000000000000000000000000000000000000000000000000000000000000000006B37A277176B7866FC76D7716E8799,
0000000000000000000000000000000000000000000000000000000000000000000000000000000000000000000000000000000000000000000000000000000000000000000000000000000000000000007427857A17907C377F77D79A73C776,
00000000000000000000000000000000000000000000000000000000000000000000000000000000000000000000000000000000000000000000000000000000000000000000000000000000000000000071E7B575275778872577178A72574B,
00000000000000000000000000000000000000000000000000000000000000000000000000000000000000000000000000000000000000000000000000000000000000000000000000000000000000000077476A78077F7A071E7937717D5755,
00000000000000000000000000000000000000000000000000000000000000000000000000000000000000000000000000000000000000000000000000000000000000000000000000000000000000000070073076277176573772D73170B742,
000000000000000000000000000000000000000000000000000000000000000000000000000000000000000000000000000000000000000000000000000000000000000000000000000000000000000000C8F7B875E76073CD9D6EC78D8007B4,
