memory_initialization_radix=16;
memory_initialization_vector= 
3926265DFFE1274F26EB3501237430EC26C538E20F87263B143B2606278E07F0273729A826F225FE24FD27A3224B19B12712277E267E30992743368E339CDEB720042AC01900310026891CBD3940201B37A326A120552639256F1ECB2650281523F543D0281C27931D843B0827772D472F8B21E627880B0F344E27A15DA02E7D,
312E2B6617FA2644276B2A0B2D4E29F625622E5C1DDA26452663271027591D411A9F2E28263E2C0226B7231820B22777260D25F626842B452676316A30461799221E268721662F0F27972ECA394C25A72AB526922F87258A283F2675267A26D82A0B3501267127C421B51DC82863220228FF273021421BBA2DE226D23B1A1CD0,
2C5424FA19BD272E2663280A214D27AF25752D142356263B245B26F626861FFE28C525422EB4248F265923B52A0D2E0826CC265926DE1FE327DE2EDB2C191DB9294E2A0C306F252026272A6B2BD8263B27202697303E25AC1D3328CC24AB27D33072377226F9281D27211AE126771EC12B5F2B2B1E072E091E8B27A338841F91,
2A1B28232494262C266431042D202CC125C92A891DAD257A1DB1254527C627B12195273F233A24AF25C72664243E2D8E268E277526442772284E26F02D072B7A269522D535A5179A274B1F8323E828522C42262B27DD26A41F97274924EB27FC344D2C81275B2761293E21C927F226C129D4227F228D1FAF31BC27E62CE23103,
2A83303E29C026DB26E72D3A2DCB2C4925E22CC91C5E26B828A326C3271A26AB10F0293328F322922621240B29A82E452657273427B924612838227A2837226F286B303433011D41282E2FE520C72B392768272920C725C32415264C259927BC2591239926822774291323FE27A324932B8C217B218225642808277119F32BED,
3109311D1E6027A026FE299F28682726248027E828A826522BBE25C62608260427A527B7296229842793251327092D4325E62677270A2C2E27D625DA25F8308F21D9263836F02B2D26A91FC527A0235C276A26832A0F26F11ADA2B1A255A26C52A782204262626B626FD1E08261D259125A62818200C2DC1298B27EF275D25DD,
297526802D9526EC275727B8314C2DCC251026442E5726F427D2255C273A2C321F692A9025852B6126E0318A2DAC26F3266A281425DC263426AC22DF224D14A31FB928A3379426BC27C930F9267E26512430284F25E325F3208D28FC2665273B219422B4267227392B181A2527602D4A2A0A270D1F362C912D6727E125761FA5,
291D1FF02B9225D3264024B928DD298625A7226228CD27382CB226882725272914DF210623E9281027E52AC62446241726322867279F318127AA244E23C32140260C2DB22AEF21BE27FE2D70293423B7241E26BA27F325FF1F502895244C26B2271C2C3E2740280126B01F23259C22E6236B1E2E21CC2772246527F61CC32CDA,
29F228832EB026C3268A23AB227D285A25F523E326E7264827FD251C26EF29C21D57269D2FE8268B26C622D9206623822600273026D52A2C2738211B21A60E52275F22FF27262A06280E2B7E2468245628CC26A1219A2573284F2F7925A0281D24782936276827B6243B1BE8257F24BD2B70239A26A92AF927842854222A29DB,
2DF52A7D3ADA26C026992902288E2442259D1B381D672591200225FF28121B8F1BB62AEA2A1223532691251B2703230E265E26DB268F2815268C249E2199244A252327C623F9261927C02DB229C424C32A1826DF267F26C029082AD2250B26A32EB82E78263F279425862D0B25BC258E2CD8253327742F3725B927AD292427D5,
2ACC2AFB29FA264C262B2B0221C42D40268A228F1FA3256A1C77253B27D018B4235C24BE26C624072831259525A9242A2715285926E62EA1275F2405252414F026A5287E24172B72251E287D2EBF21F12A41264F2CE6250320782F68258C26682BED348F279926D32237241F25C92B6320921C9025072C6B321E267026B02298,
2AEE21DA251D260527BD24B52D35295D27B325991F8526E12104253F28221A8326D52C87320520C627C1267E288B27FF26AC277E267226B727B0256525E40D202A6C2AD524F32A0C270720FE305223CD295F2817280C251F25FA2EF026D727842D3D312C27EF2703203D2AFB26552BA92B3D281D29B62C1A2B2727652F0A2AC1,
295A219524D026CF2650274929602C3B244E28371A7E26F31C202566277F21DA2A402DB831472E8527EC244A2B81297C2620264F2708272926BA26D32C091FE622912BD225B529C126581A703353222830BC2713263D26382E5B31E726D828022E7135442887269A23802E9925C02816284520732CFE267D3223270C347827FE,
2B001DCE264A25EA277A2A9122D12DDF255F2A48216F26DC2586277B26962846323E1FFB2A7223DB27C91F9826522B822612275D2636248027DE299828EC1ABF2300263131AC1DEB26EA256E22DA285728EE27C628A926D3241A2C6A259327882562312A27AB270D23B32E38263320AD28AE2D8C2BE222BB26E526B937DB240B,
26B825DF17CD274A27C0293A26BA282525FA21F82B2425C12C6E25B526B622D2268C260C277F2B0626FB2C2A2A2C308B26752838269928D727892BAC29E1283924A4262B2C0922022859220B254126ED236726CF2DFC26C42BD62B8924D9269926AE26952752272529061CC426C42509295828972BBC1F902B4127F72B4A2AE1,
2841246F246027522692271925412A34261420302B6E25612E3F286B27122459292122B82BEC2549271322F62A102CA125B427862718252627EC2A272A8E3E97227F26533C471C7027512C5F260E273C287F269F2615261B26F52813268A27AC34932549272926D126821AD7270A289D286F27E52C9323462840277226C831DA,
2D9D2BE328FB271A26C527552BC228D626731F732CA025C92904263426C42D9C1B6A28EC1CA4261E27A52D2C2654259825F6258227012761273429102DF311092D7C28A92A841DFF27942781285327402365269026D826382FCA2B7725D0268E29DC256C286526B72A4C16F6264E24BE2AA027592D3E2730268F271425B6261B,
2A6429C42489266F26D0256E29072A17241D2819237D25D3205D26262798284B20202C2327A4379227722DD3274C2489258C26D625FB2E3C27DE26FB2AF028E4217E284C34B02FC126E1275D219D24FB23AA27132067268635F52A1723D226FB23702A832687271A24C1234327BF223529D023CE2F01233B2A11288219A327A1,
320F24E12D072735260526BB294D2841269A1F7423F826EA1E92268427B924F01E1624382E7B23A2271E2D34246121B625572769259D2A89272C260829E62B402C51243132DA2B7027C62883252D21262C1325F328142593330226CB241C267725B72B4626D4281F1F902C8A27152AB2291022C52C6626642834284720C42145,
2FAE29322C23268526FB2C3C2CA72E00245526931FFE26152C1A2654270C22882B3C290327C52154270123D924F128422726283227192830270E27DA28B321E525692FA42B4D272D285E2A30237926A32C8E26342D9625B631781E87259D2675297E2CA6275226CE25AA25FE24C426C42C0A258F2CF325E52B5E280D2088274F,
2CB2214839DD27692833276D243B27ED256F21B71DD4295A2156267C27221DFA2BE32CDF26C929B526821DD424352CEC267B271125D72B8027B927BF228E015B2918288E256427C428622BE6365C283D31C426A723D127512AF21ABE258A28223198315B2744271929893766259629DE266425412B5D2D862D0127A3150525A0,
2FEE2B005303263126DD280A2135296824EB264D0F7025FD163F2634267A03DD308D22813A5B249426AD23732CCB1E5428E625F12600314F26812063231BCA9529FD26061BCD263827061EDB3AD0206435BE270C2B8425A3282111A4261E25E234B947C6271126E2295E522C26A51CBC2CE926972A722F2A37A82769FD8027E8,
E6AF13672A8D26F026DF1CC1234B224E2573342B1FDE258E1B1125CF263030EE0B9417402409264326791F3D43562E562ABF266E263C3FC3284309CC189A1F072E96D0B623F92DFF25A536D021CA54C41F58271E1CEB25502B19193C263126DC2D773313282926E026AB2DB3263429D623BF1EA2227F27D12FCE27F136AB27D0,
1423324A2C942659283726212E092C35260734EC27FB261B28F129C42745232434992AE734B824CD283524BC30412D34274E2765277833F027310B4E16CC2C9F22AF0F7D28323225255328BD1E702B892334276C1A2F256A20212E36258527D72696311426EB263025892BD027C62C8322F330972A5F2205317F269C24D12BAE,
017A20481C3C27AD278E1600319230D427DB39212837253D1F0127EF27542930133C397427D41B38274B22E7269C1F1A2676267F265A299227A412E426351AC5279AF2EB2E7625DD26372DB4338337941E8527AB2A7125502B24293E24BB27CA33323A9D26EE263722001B6A26072BA22B7C257B38E30D562C6D27C929881ADB,
00D6257D284926F12674256030A723D4260F2F49279C26A6336D292927922DFF30E42EBB2F16295525E92CFF2F69270E2679275C268E37F127591336331420A11E2D0D85246A16DA277B34B1194834641963279C323B267724D22CA4268927AC2C6F295E27E3262D1F812010269625EF270E245E3E1F21B926DF265D3506262A,
149927F92BEE272E27A62C001E3232C027232938291525C426D82765267B2AE8324A1F681FCB273525601E33332B290B278B2705276331E427281B9B2ACE2ECF2C05F60B34502FD1260526832BED3066231C27D11E1926A8264D269D265F284B2AE92FCA285E2737228820BB277725C528991FFF41372F73292F277321123321,
075F3133235426DE28562846426B2ABF2616254E2D83262E2671257928112755276926381B5D226326C419C52B6B2FE52905277625A12E4E2831265133BC28EA23312C881FD72A05255E294E2A232A2222AB274E264225D425F5240F268126C8301D2CB0277A28052D48165E25D726EF237216904348247935672741315D22DA,
15E4239B32F8276726D7235F1CD0273E25B927AA2585273E2C8C2905282E3037189D319128E02F43263331A31FA0279826F82746275930F2276A2ED933551FD9218D26012F1D38B923E4271A261321F4214B276B2A8526CC1A872A47272A281224D12DC227E528E528FC2ED926601E1F2AF723AD3FDC26132623274E1E7B1F7C,
21FD2B5F175D277028072D01283E251D24EA1E1D263525EE2B7D29182693290C22C22B4C25082E73270825052B301FD725E02747270C2D46276238093BEF2B9E2638053320D61C8F23CD29622ACC31321A95279731E327B41C3529BE25DC27463133243C274B28452316294B27E7230D29D920DB4356351621E5280934C31E2B,
17022798311C26ED26DF1EF923AD257B24CA294F2D5B257F1C6F273F26EB24FB17C91CE022A72E9E2849171E2B2329CF2595276B27332623270F39EA3D94288B24ED1EBD32D125EE250F263E282C37A52C2527C3214927BB25D8242626F3273E28D5278D286626E025B63B8E280E214A205B1E6A424A2CC523A4280926C72EDC,
0EB11E283156273826731CF0264D2A8E2318269018A326E810F9272E286129091FE92B7F1DF628C2269E268921E51B3F2619274626722AC8269136EB3C7920752B3517DC2B7A230C268E37741D572AF7209626A719CE26FF1CC72C2C274E273424062DD527B3275924492F7527F230E11ABB31643BC934602951282220752DAE,
127A25F525B326C0285627D525912277253D1D0625F427C4210327FC26CB285732DF23183143242726C81E922C9426CC25DC25D027F62DDD2772355A3D001BF029020C5F2A622D57279F3A7E286137C41B2A270D257C25BF2A3029CF2606289E2B672F0E276626A12AB6255D2579298F2516243E3421257E25B928222E63276E,
1C17268832F126AC26D928A73A9A2210254427DC1F0F2929201B276F27552A01458021F72D7734A125CA1CB5296B272925CF266A265D3011275A34C13DC730832771184F28921F6E240C245816B237A9244626B72B4026BA20E830A226E6271B315B31DB27F126DF28AF357F251E22F21D1323642CDF282F343D271821D32CEE,
13AD251B2113267426ED1ED72A232807250B1C6F1F1025CA21E727FF27232477208023C221012E3B26D127DB2FBB2183266D273F271D2A0F26F4389D37F8263A2E8F0C762EB5294824F72CF22C223E562556262C24FD279224E235DE25B827A52D352D1D2742287522C129E9272F2C8021492B46262C1ED32B3627772CC7299F,
039E23CF202E261827011C4C257B2754247130902AAC266F2F232751261F2E382D85249B34051BA3261029E22DDD223727DB261E26AA281928BE39872EEA297B254A0FC326DA2CFA251C2F062FFD39481E5626062651265A32042B2424A3285F1E0A259A278127B5248E234027DC28E02D5920A81BE91C462719280A2A4A1D98,
1F5B24972DE027C2279323DC3248291B255E1F7322A326AD18AB285327F62C5C24092049282A2A1F24D1121B25EA2BFC26F42661268223DB274C3D1B3171233E244B1D3D3254252323D31E2026FF238721A626421F92264925F6339A268E2771322C2DF4274A27B925A72AC928372F3025A82D3D1534245220DB278923E923E3,
11F42C0A2CD4265B26CF24371F3A2A6323B027B12F4026652CA22932271225972A2026611BF1213A273128421EA128D1259B27382759238C280A3ECA2B452CE1219B0CAB2E7228F5263624A128622F1E234A282530BE26A12AF82BED272E282121162D242827274A20F926A226B820072AC81C680BF81B98278A28612E6F226E,
0C3D292E31EB2824264F272C1BFD30EE262922E3360E28892AAA26F2277030A92364318E27FC2D4227FD31B82C3527F526392672267E2F7028953CEE212017502A80F3E32DFE2A14260A2E212BC52BE820F3281D2EA824F52E1827EA2921289133B32AA9282E268028951D6C2666288D2B9E1F3906CD2D11294A278326491EAA,
1DD61D38161426EC2676266D2698280626882595293329F726C8259D27D32D5B2B9F1FEB342C1FA4287216E32EF12DC226E827F8260E2C1B27D52D8624032DDF36DB08AF29532BD926451E8F1F5735AA2317282F172E26A42CE7232B289E281721942C91282E28F1239D28C225FD200827D2286C0796301C2F85275629F13091,
15D724D02EC12765276022A72A712843285B24C22F9928D821D326F5280D242F12013586274122A927290C2C2A452EB126E0262F26102DE528B528FC1A2525382C1DF8B72E66267C259F2842268538AA246E2778284625F52D33215725C726DD32402F24271E27D923C42DE328432770282B281A04A02C83277327CC299B2BB6,
FFC0231D354A27552747260125A8266225A31E7A2B7D267D2767266826FF29E61B542CF238D0286825D7266624DB1E2F266926D3273B34E427391C9C08512A0128A803582B832B7D252F304C27992EE0219E2608207927382D311C4226D427062FF426692766265F25E81AF427612F7B1D1C2BC50D5B2EC4338926C5342D2837,
0A662B351E8F278826A8234F31EC2D9125DD242F0D5C27312A87271C283628A72B78215838C1291D27BB133B37212FA4282827BC274D24602829141A09E62DE5264113B721F43286258B25082D92385C240E28412EF626B1293D279D26F8269723E8312526A3264B267A27FB276F254324BC2374138721CC301A27F414CB204A,
EC57154C23B927A026DB1808307524B524B724E416802966179C2593274523653DB91B2734CA26D426A717E94209239E26A5265326973A0927F6FE480393174C34E5D6863BAF29B924D8359C2F8A5269205E283D227A25D93012132128B327CD28FA39052883278123721E7B267225831E1C25F3246431092C7826C81C112F74,
303D2AA71751270626B824CE404B2E11272926B62BA82814296C266F26FE1CAD1A41341E25F1355326BB2E18274E1F0527B0274A27772A8827DB1F57BA1A20472C15204829B624F92583367F13292B2E2090271220C527BA230D2878277D27EE147114E2264C285728CC3040266C326125E52AE32B0924E0284926DD24862235,
200126FA24A7265226022631236B2125281228E62AAB259C2A05292C2644255A2C8D224E25C22681262D231E322E2EBB2823263726FE2D59287B23E3F1552EC730B530402D5A229926441CB323D72A732C1526712D62265927B72C4F25F027F129B1277827B2272427F736182781230429372CD1286227492B61273C187B16AD,
24B92D3B1D5C274126FA25A431C72B0A2723254B25D02723321427A027C223593570167B407F336927892DFA2AAE22F3286C27B8268E281F27E201F712570F721FF41F1A36AC1FF825B32E471F2A23C01E0A26AF2F5924DB281925D9263B26551BF6108026EC267026C32B5A27882860301130A0217B1B7E2A3726F92A892C68,
2CF22CF607AC27EE26402AA51E452ED9275923FE2A7125FF272428FE27C424E521A3295D1B9227D62900240425BF254926FB26CF26E52A66274025CBFC70227527902CF71E1325E7254434121E1F298727F3265D130228702A7C2E0525A9282624331B0D271928512B6F353D27BD28232B98275B38612CF9292C27991C3F3BEF,
28A727542177264B27592502319A26C0262C1DA02BAC295A2C7429B1279D1EFF2CD52F6025D62B3427A522732BD127D12720272127102EC6269E0165F3C8331533032EC73967265126C021812730299C21C82630211A287227A3279E294E2699173B21DC280A283323FB2C282676299A2D422D732120211D283E27B8259411C1,
2766309215F826A027A82679261D298125A92807288C28A92BB5270D275520952D9D28492BF330A4262B2A2D233E2101268D26D6277D2D0F272D33D4047925B02DE629352C3F25FD25682EAA2A7725852D40274834AB269E276526DC29C127471B7B198C288C27CB26CA3682261C2F02260121F6190F2B2D330727FD112420AA,
28B2215D07732699276924D01D5D2CD5253928492C0E27732909254B273C251F1FEB1D4C1CB7343E273A2AE02BC61C4A28712823280A293227BD1AD2EBE331A1207D21A12C6A2A8F2690272717AB26071C44281F1E59265E290C2AAC271D280825701C4C27AA280326D4393B262029132AEC33FD427F282E254927ED23CF24EB,
23452F751F2126F7269324AB2D9E23F026171F431F8A25662CC82628277925AE112629712863298125F02B562EE6237C27A3265527312EA427331B0A06CE20952AFB2B0D32381DEC271927C2274325002BC2284A1D5A261224D326FC245126C01A4918E32850274323B12B3626DF30542FEC2BB918242C762DB6277721403D2F,
2D362305141F266427F72C8531722EF4289626682B7C26CA2D8226572837284A2BC73B672C9C31C328322487328926EB28A126AE27E8264226C71E720B241F5132F12B3B27EE2073271D283D1DAD284A20C627F51936265124012A42245026A324E71B4127A027CE2C6E3F3527FA2A5B27212A0A2E4325ED269E26B018A71488,
284B2FD21F252634274D1F0C2A362D612932280F23F628FD2E94267F26CE228F21131D5C29332B4A27B72C0D277C1F762770276C26C42BBC278846F3E58A22F223C72612197924AF24C72BE22C072AEE256026D934EC274428E32575266B27D0240D1D4E269928FB244D30AA27D5339B27F42BD71FEA2F672C7E26D51EAA1890,
276A239A0B9F261B28522C96285E280B234829162952293020D628D226BE24C72A66211623AB3912276225EF26CD1FBF264726EA28602E3927FA07C609432DF52F8A2CD23D2C1D5F269F343411E527BF22AF28102BD127AC27F82DBB276D27661DA51957274C28B52AA631A2271F252E22DB35EA2333278124AD271518662A61,
25D21EE0086E26932714202A27E92A8024F1283B251126172E8328A9278A23A721E626B2252D257526F02D142B112943258C2871270F294F278134BFDE6B16672FF326DF34D222F225BE18FF253D23BC1FD52826169E26B828DB2B032794269E1A631E4327792843269C1F0D2744335331402DCF2EA1258F25F226E921EE3660,
2E412E6D26152791276429A32967277725F21F0C2F69270D215326EA27692313153E339527D22F8C25EC264B257620FF2571280D26BF28EA28CE1DD7F550299B27B0248C276F2631257E35E12A9F2961271F263D1AF127A8310D25C526BF26DF1B7218182706283C24E12DF52643228F27EF2B98226725262E5A28541C13164F,
24DF254007A127942781224C3163294E26F52A6B22C527FC2D64294026AE1F802951261F13162305271029E3274E1D4126A227862779310F27841158EADD252331E429EF247C154A245633991E41245D1FF227712E70268A2793283E270227D723461FD227B226E628861BF926342CB62CBA24B327951F8425402765182C1E82,
2C612B8E10C727DC26202CAB301E2B242525212B2C02254C228027C926CB222E2CDC1B8030DA2EE628CF2BC72C52117326A827D826322BE3289B1EDA24552DA0201E2B60341829B522D42A12282727D525A027DA27F3267826FB2A122663270A2054196B27F326482480337828452B9D24B229D62B99278A21BE27BB24D73080,
26192D371581277927CF222F21C12C3426E8292F28BD26062DF82622282F21E333B830A920322BA927B43203288D29CC27B9269627652B2F27E62A52E7171041283A1E1E1E65232F247122AC146B292C2573282916AA286E292D28572725276620F92370271927D32901339E286D2F7128B42F0121C9292D2B7E283614A8378A,
296C285B194427A427F72D8830862F4327F627942741265A28CB283F268B1E59191633A229B02D7E285525D4222B1F9325772729273D27FD277B0B9BFD7332232A3F26232EDB1CC8275C31BA249D25961CD226F328AF281526D42DA6261C27AE162F170B2813285B27B41810265C34472B852B4125DB292C2AE727C82B771396,
29F6236D1C2F267F27D027321F66237328F62667230525782EBA279F27852A6C2A8922D6297D36A528AA339D2E5F2B37266C2808263B303D26C0144AE70B1AEC2E742CB726172B6E23CA2F001C3726AF296825FE29DF26A827FF24842464272A23691A7E276928B92A162E802609239628982BF22E8324F523C828591E351C84,
27E0299D013427FE268C295033DF2CD322CA25AF224427AB321C267126581DEC291F235A2CAD247027F02A5129151A5F26C2271427F627C1278906DBD9FC22493214286A3A9D1EBA27C63A671B2025AE1CF0274B2DD8283E338D29AC28C026DD27212064281C272927E42DB0262231F92ED326DA1F64253A2D7F27BC198B2BE6,
24CD28601267268E260E27CC232326CF24F9272B2EA828B72A492667276D2837276E243E1793366D27912A4D2DAD29BC27DC280B281F2E6F270C4BDE10A127F7290921FE1E111F0B29BD29AD1D68294A24DC27CF206E25BF2963226B275128600E87189527C627B9283E293D25BC25C52C2B23E334DE23812C3A267B27D52DEE,
2D732CE03374274F27D028F426162A95242B1F9E232826392C8D269D2768235B30942EFB31C42B6227632BE125CC204727E827A927962D87283F35D6CCB9308D39842D2B31BB1F4026E32B7B1DEB2B0A238B266F210D25BB292325F025B8275B2B46179427EC27932AAD28B925B9348424972F721CB42F3D2425284930D225FD,
28A62E3F0B1D273026E824CD2A9C2C452677244E2E6B26CE26D227012862233D1903337822423838285B2AA52B8E1EEA273E26AD267525B326A229DCD0ED155225B62B1235112C5626EC36511CA425651ACA27752AA826852B21260027C7278D1F210F1A27B427CC239D189B261E2BE62D99214A29A52516295327352668136F,
34DE26CA48AB274326432D082C4331F325E32F600B0D267F1F3D2636266D3CC226D1273735D81DFE2634231D21A33A4926D827F125A42E8727AD2DE2323D4B0A239B2A423E4A27892440319E30B9224640C126AB23CD259424D9218125BF274949471F1927AB27D824D92CC8284D2225374C2FE0206A111844462679F11638DC,
33D82D5F346D278E27DE32C12A6631E8237C338711B92619292A25ED27FD31EA26E23A4D29FA272C2654240A26C52887256C286F263B26F627332C892FC331641DBC28252EDD2D7A26692998318B263B26A5278030132650201021CC260E277E2CF8229C27E7261821D8320F273D26A12C12297422241951303227E61B351903,
2F682C1422C327A026E82C9828F9298A23D033AA1C6C25A21E422712261728C41E0B27AD2C3228DB259C26B928411E5626412671258D2D6827882A332D542FCA2F742AA5282027EE24D424692A8022AA255C277D30C925D5223C225D24B7273A21F92E852783267323862FA127392CA129B52E6C1CFB1B702D7B27AB22E422AE,
308E296929E426F826E32CB627282B0D23BD34451F892681211126F526A82C9A12011C9226FA339A25502A9028231F752585258627AA3196267829C42A3B2699284A2C1C1B3D251426302D4E267B2779261D272221CA263423BD2ED825BF2665243326862795260C1F121FB9260F27F8317A21FF22BE15062B3D283133433565,
28B82F8D25E3260F26BA2EA624372CF724972DB0212E261E2968273527E42955221B2A772AA02BF224D528C8223B26FC277526DE26491FA227632D222A1024FF25B8236B26B52A02257532A4291424732CDD27F5260E25A81E492D8124C6274423992D7827C3267224442F1627BF26F421A82489218324D8275C27D7300A2588,
2A482EFB319125EA26B62C852A4B263E24FC286024C0262A2605257F2723269026F126E127401ED825F825B0248323FF267926B926202B39267E328B294B28AA202F25972370259A24792AFA25ED1F1F2A5926A725CC254F26092566260B26743141316226C7269126F32CEB276025D82BAF290022D62F1C2BE1263C289922B7,
2401299A2AC427B027AB274A2696284B255A2B78283326862817261B268E2A38399328D92864234326522DE420D92F49274725E62696278127D32A8828B5222E209027AE15E8240F250122242D6728A2269226C22D4625831ED02417248B27D5323A2C97273E27282CE02F13267E1E2C26331E5E236933651E4627AA2A041D8F,
28FC1CFE330A26CC27C1272E2DC62D4B24F11FC527D32768213A279A26A8240123A9297D2D542510258626B3303B28B22688260926AD308827562B8B283627672313263437761BFA25E2286822512AE2250C27B7222B24FE179029F824D226E82C4D271B26FE279628752E1D261E289320CE2C6D25CB2F9C2A2C271C27FD29B2,
2FBB25AE27CF265D266B2825265B29922436201C19AA2627280527E427032BC61E982A581EE7259C2602201B1D802DB5258427A92597289D271226B92A6F2A02290731CC26E4254C25D2306629C1242029D127DC255924D8271728CF2621265B2C23253926BD27E724A82AA426C721182D2527FD244B2967303A275D30012426,
278221DA270F27B626A32E3C28E82B0823E5230D1FCD27662791285D26FD2FFA2B7B254831201FC7256F2E17356C2CA92715268925CC28FD279A235128B12EDE23242B6D2EEE262826D72FD226CA25022A112719318426871EB12DA9253F26A8275D2ECF279D26D923DF33C6263B2EBF29B729951E232D832BB128A72C082C7D,
2E9C27882852261C275F2A0D23912C49230522C6192125EE245228592782319322E1226826F526BB26992844242E2B9827752709261A290527C225AA269A310E2A6A21C6230527B725232A842ECC21802A1C284128D02680247432142372275136EF22E727B4276B25B92B612738253D2D2225FC267A2AEE32BE270123A62EC4,
30CD26622845263C26D821EA26542F7224462038247925A1271E285A26EE30E725E827A92A39292E2670217424562ADF2704274D264C3106265E241B27272EB6263B2D20353C296625F523AD20EE21D82A9B27B621E92690294234E22478267C369226B926A3270A24492F9E27232705308131B127B8289A304827402F5C2F7E,
28ED25A020EB25CB268B2A7F24D12B9425E125B51F4A261E214D2586265B2E6728CE2B4C28D51DE3249E20CC2F5D2B8825B726AB266C2E1E263522B724582D7727C223E629E8284626A129F524ED1ED92837268B216E262D27AF2E7A242C277B303E243227C126E51EC0250F266C20D3271F28962C0E23AC30FE274426982603,
2C70279B265E274D273D23BC26FC2A8326681DE92222263621AC2617280B2A9B221A279C2A912E37262927DD1F1B2A8526DE26DF27A3262027C2201B242D346E26DC2A6D2EE924F824F824CE26DD2644297B272232B32625270B31EE24AD26CF28B92E4C26882758223726582674235B248F27BF2DC92C172E7B27AB2B5C2BBC,
227628842D02274525E6286F23C42687236C27D621CC26021D1A25F926B32E39227D1D4F2EBF2D29263228921FFE2621272F271F27BA205427E220182692315A23082513342A2BAD24D525EB2D72257223D926E428F025D1212431362402272D22E02BBD27BC27262439292D263E35092FBE1A9B2DB9268A27E726BC27C42057,
2D8023BE2B0426C227B22A86229E296723E61F3F2D65267E2A9D258827B526B621E52C2D252221D225EB26831C922C0A2587273326C82AA5275F1BD325E32C93263F291621E51F3D2610349C202F2770254D26ED222225252DD82AD624A42852235D2DDE2844273222ED2BE626422D0B2BDD1D5D2C9230C121FA27242F192B7C,
2CF721B7337127B926522C7625A22A2A22F521AA2410275B1FE4267B26A9257A2B142E6C2CFB246924CE29B023DF2772260328262796273A26881CCE27701C852D7A2A4322732398256425DA264C243D292327531F8026D032FB26B525F527BD2F7925B2280C27B1222F389F26C4211824DD31792EEE25872DFF27E729352065,
2C5C23F539B126F626F8269822AA281E268B287A2203275B2E8826B627F824D614192825267B277A263D2BC52DA5275C26012741258D2C8626CB1DF32C1A296028562ACB183120EE25482FC822642B82274A26C430E725F3308F2BC126AB26F52F512FDF2740279E233036CC27652D9F27132C60306C1E892DDE264329A01D38,
2A5A22A028CD262C27AE28AA25C728B825401E731E3125F92455262026852D031BFD210B2C112FDF251527BF28E724F32741271425952789265C276B28BF25BD29FB2F7D16042B1125902B1A1D632136332D27342F4F26223A2A223125DC275529062DBC2768276426552B87258222B72B8C266431FD258C2BB1279F28F829EA,
32E52A0C1EEB26F8278A27E42D792DC1248A26D2202627262A3226D82672299A240E259529112C4D26AB2DF734022BFD260C2605273B2FA72653286D29DE2C9021781E142A13293725AD16C8239021DF2F1A27F7235025262F441E6524B926882A12249C265826B62922306126CE249A28022B76307D21B42CFE271734E229FA,
2FA427E61753275E26B027532F932D8A2632221C19BC26A51FDE2563268630CA303F29472DCF2137268129D71F362772265A276026093359271932752FC930FF2D4E22B92B46281124C5321839DC27B529AC267F215226042CFE13DB2531272C38BD2B22276F26AE2445284C270B1BB7266E338630122C4B2B122727373B32D3,
33892B070B4627AF25C92809261A2E2B24C824B10BC126BB155326A627B74226330C261D29F82505263620AA1EF928C02747268E261B2BFE279736B63226456A2662258D3F66280A23AE1FA93F87200D384226FA310C25502A9412CB263F2727433728B62802268A268E28C026FC207C34BD265D280934C540D82745443C2724,
2A8F28E31BDE275627FB2D54238B2B5A263B2E3A2AB32523246C272E26D92BA9263F1F5F27543AE526DD33BF22E7CE08290E2782271A2BB92756FB82E52B21F41EF52A171C972A78268523711EE6283022CE270E251326E426FC25A8253026C2058D1DB127B6278925980AAE282D294424431F382FC120AB2A6527562C71252F,
27A028DA1F3426DE27D52B0731CB28B225D93191276E255723D6275827D42833212E2ABD1D9531E3274929DA31CDD5CF285A26842819270328574100F0FA18092D1B22A83348392E285117D423E825FE28AC26411FD8271A244B27B42856280E10B52466271127C7258B1222269B35FE249229DB2A3321052D792730247828C8,
2D2E287E20EB276B27072B1D2F2D2BFA269F30B42C49271D2C7226FF276E26E3E9D223EA1E4B2CDB284527B9266ECB702A182704281A2318276D13FC0C75259B28132E1405732E31239A23D924DE266524B12720280426FB27B027A826402674025E2BB126D126A725FE0FEE284D30472B57297E26CF23DF28A7270620991D26,
289D254C080826D4279E267C295E287C25682AE5258E28A51F6C268B27D7291E356C2A142CF71EBA281D2E872337D6DB269626C128092B4B26D4EDB4D68D0F852912244B21EF33A025232B4A1FB725C927BB27AF2829270726C1252B26F726AB191F202D267027DA265D2D042682335C253F27E42BCD24DA28D727CE250A2339,
2A0825382CA22643272F21652B9729E627432CA52CCF251C27D72526261324EF2B4D1EC7214E28A6273829422557D39028E927F9283C30CE26963B762E3C253B274428E50B81248426881FD520CF262E224C278F219A27C328202B13267F2872074F2856277427C0234D1C9126CD2C1624DF27382D862567296227D519AE2BED,
24EA2F941A46267B26B4259B285A270E26BB2B44245B25AD262126C427E1285141DC294F2E2D2689286F28082912CAD2286626A526E629F426D510EDF5401B6D2CAD309214C332B924202ED422602AE02748273A247127C125352863260D282D11E1250526D1267220B21828276530E82B7728F530DA227F23E52806236F1B8E,
28F22881281726EA26F6279628E72B3A25BE23E529E2272E270E28D627CB254C33E32BDE0F4F2A2528EB284021A7DD6D27B2283527CD2B51272ADB3F212C370027A92B04283F2A0F236D26331C3E23FE248827062C8927CB2B4526FD27E0270C22B825502672276B262B0F8D28142EDF285E275D235A2DB3303327D10DB821B5,
27CE2D3A287727542622239F2BD52A3D27932C2E289426C3264526BA27A128A238FB200F211B24D0268F325E24C9D41428532764283A30982706D4ADD61621FD29AD25A71BA727DA259E297C26BB29462C46266C1F2526D8251D2987251E26BD124925F1288C289823BB2D9127182D372575283A2953252F2B1028011BCD2567,
2834289721E0269227052A652020267326FD2847260325FA28A626DC2864293436DC28F0292126C62693273D241DCCAC28BB272D26C92C2027FF0F0012CD16002764293916F5316825C11FFE24AB25C72385280C29E4265A2B0A272225BC275210462799281027F8225914E1268C34692C532A35247523E32D3327DD23F224A0,
253D239C1EB8262B26CD24612617269C26AB27982A972678272A276E27222BD30B592B6A28EF297626A42CD82C83C69927E7275E285E2EB827DC17B8F0211BA825342719F264271C253426EA1F142618244D26AE1FFF262124812A4C25CA2877098B23F5284626EA25DE25F626C72D6428EC1F7A2986285822ED26502A192288,
27DE2A31222A275927A428EA22AB25FA25D6278E255B259B22B1257728712812476D1C071E392E88285B2ED3283CCC4C273427812740295726A70E3AFE3A2B7127D92ABB31442DB3242E2B5E216524DF230126282A2827C425372AA3262128141CE7224C277927CB25B7223D26AF2E61247722A7217227D425D42856302428A3,
262B25B71AD526FB26A926D126F927C525B326052937270727E0297C261229751E0D289C341127B528562CFE2636DEF22763273B26D727F22713ED7C01F1144C22D02555F8E62C4C24492AFE200A2A7D22AC279526FB27BE23C12750273A266811482850268F2791242C1E4E269F30F7297428842F5D28E32D4926F119152834,
29E62933264126D7275C271329D02B102766265126DC287A24A9292126CD26C409F6275922CA27AE281028B62BDECBE126A926D827C4208E271233E7EECB21122C65229327172A0024F82286215926672238261822FD279B27422CAA2676277D13312822275D272426180F6926A230A62AE92E871D5B2B902B2E27D22D232878,
26F2251F216127062722236F1F1F2AB524F12B3928F02666211F296927D4287939F82E9320F2258729042EF2296EDA91261027D1277F29FD2650FD5103A42C58298F249F18B623F124B920F716EC253E219D286B246725A82D7F2AAD2771274A1693249A27CE274222ED10E726942DC72D1014BF22F6309B23F926A7226A22AF,
2C8B2860298C26B7276D2B8D25A4291B24B726422758262C289D269C27D42918186E20F615ED301B28132EAB21C3E1EB2601279127E32B112843DFFC18C421472C082F2328E530A623103A0C243A290923052665247E275728012DE728D527161118290B26FC279625060FAD26542C782A5E27052B0C281C2E2C26F81D5E20C4,
298D250D1CF72672266E279E2E9B297E279F26092C04271525E726B428912A902F042501291A2A4827E4261B25C3DBBF29AB2764274A2BAB2761091011002E7A2F08283D349C299E2591286128C626FD2A7D270228BF28752B2328D5282F281F0EF729C327FA277923B9276527BC322629AE1D1828DD2BE72F2B27F10FB527DB,
241C2A661D4426DB27E521F9294A252825CC21B5270B25612AF12702281025A328CF273C24FB2AD7260C2A542124CFAF26E126A0273027DE2728E210F9AC25BA254E282C192D252E253D2D0F196627A523A126FC2448281831D3283A27B426A00D492A6127F12807224D396B27E8321D25B8273226E9215922AA28041E3128F7,
2D5A2CEF28A5275527B526AD279927CB26C12A8F2F3A28BA1EB7270C275627122623262830F0329B288A285B2C61D5EE266527112684300F2737ECB0EE451DDD24EC299D130632F0278426482167290F2D8326DA23E7272F24AF26D0274027471B8A24A426BD27542744117826D13280220D1A902AAA28BE2ECF266E1CCE28FE,
251729F733E4286D27292665291A296F25E323B72947268B247F269F26D72B5323CE2A92263C29C3279A331B266DD2D72777284927EE2A8D27F8104CE64F25E5293B23D120B52B0E29F1223B29F62662231F28CD23CB27062CEE27FE28462834150F20E6284528A024C80C4F26CA2EC823072E8012D6245028C227DD25DD239D,
295A293027AD27B82653235C35FA26FD26EA26FC304E29A425B12717272130C42C2D25B82BC22E452619296B2E86EA5C25C9272828032A402763F9A6EA7A219D2A372ED6268C327B284E276C1E5127E82B9D27702EAD26792CAD259E272326FA02AC2DAA28272844216D1569258C305129191C852968250E279F26DB21E41E26,
242D27621889277026942BAD1D0D26DA29A629E82641254A236526B3270D271125731C662881311F275B2E69269DB47F274D2826273F22FD282D0094124822212DAB2117FA4A307523DD23E128FF26BE2663277B1CB926A0275E246926FD27321A061A75264726C526D21DA125E42A2C29D32CB61F852B4A269B27C41D8F2637,
2B08248C23F52726276124AA269127A3280324FA24D726781E8226D8284B2AC522CB275923C22D9327E92FA62A41D62F28FC2715260330AB27C01DBFCF4717E72A6E2B2028782FBB25A223B6298228792A98274620BE27DE2AB620E526AF27CA038B1DF527CB25FB267E144126B1349725311F0528822FD52BD8273619581AFC,
1A66389F27B5268428380AF128902A0B252D36A11BAD27FC2C5E2946281B201236872ED63840243724EA32632D06264E27452807280131F027123D8E3975227F232330512F05357527E715D6264B303B1C8B260C26E6279F2E241AFD2831275E221522A82836275652DC239E273932CD2E1037B03FEE2EA835B426131BE11F02,
25EA26E62011273C26971AC02EB0237425EE39E42C6125BC1FB628C2270623160F6723152F68246A258B2653152728FB28F2270C27862D882785266A35792A8528E2347323D4238D27671F6523E12C0322B5275520DB2750312624012935275C20EB1B4827E8276333C02963282222F42475294A400C0D4F1FC9279025DC1E1A,
1D282E442A5427E1266E15CC2AED1FC3257028691F2B2712276B292327FD2C7E32CC277529D0233E273422451D5F27C229B1269A25E42B37272419772D4B1AFD1C1A1E6A2E0622A822A9137C232D27672112269B303B27052DDA2A20285827FE2CA62950272826103ECE2B8C283D2F2026C9252F38671A75347D27C41F9824A5,
27DB32C12FAF26EC27CF17F9289E2D3F241637E22923256C24D3273227BF21B3489A2C7E2AF92A9526A62FB20FD1238226D126F227112361277827D624332C94247B303626331FAE24A22C3E1A5E251A2359280C266825822121245129082823247C2B5B267C26FF3D2C359D28302501253028C02BD328122B8F26A21FE830BE,
229631B431B5282C27531CE0337620FC24882CC5239025B7283826B4276627F81AC322A4211C25D125F238E527952BF127B6288527A232ED28B5316128401D6528A1186D24B52970276C1C772A7A2F4D23F42722247A259330062C1C277B264637F21B7727C627B134450C61287C229D25982981252827C82FC026C72D4B3091,
11A02D8F28BF27162745153A23DE238327592B112A1F2655257426DF27B728AA0CC828942E5C2C41263C2E1B0E10231527B626F2265031CF27901852277B251924A22CAE1ECC3AB8273139FA359F254D31E126B61F0F27E02AF82132263827B91D532CBD26DC262E380925962748272025122C5829A517BF39DC283826201B15,
286D28291FEF2756274C1C772EDE29CF2A2124191B2925C5308B270627F8249044482C332CD5220C27CD30562C9622D3272A272E271C287127EA164522B726592ED52A7F1A6327382672117E217727F523CD269E35BD275E2B3D237D279226C7356A2D24286726983AD33A35266523F026EC306F23F63BD62E7727D427422753,
26142D301C5A27F326F41F2722312C5B25C5243322B828F7242926F8270A1F6533661BD529B622A926BC1DE920F62553282D27E9280F27DE287224F915491CC322DE2A2129A223DA2727203C1FB928A81BB7267122812777211C25C329A7264E2D3D22B6272826CD2F441D5B27981D011F2237332B943B6C27DA269E30482ACB,
28922DAB256E26CD26A8179F19951E1A2587246F275F295C1FD425C128832EF1358121DD2AAF204F26CD3CA81B44271025F327EF270D215527260F291D891C97236B1D6E266C268C28A62C8D2A6A325A22F52817295226C722D52477268C278B2CA7276F277927223D86273E285429B231BA25591DFA1885267F27A322B82C60,
1B762EC32F7D276F27321F421FE722E028B32DA1268326312B28285527B028892C28275D2C4128F1283721E31A282E7726AA26E8266E2D5026F2138E19C726F42B773470357232A629361C95254520D320BC268920F127962B102C2825532737273B236C267028E238862610281026F029C81F6520A733692B3C270C3CB5198B,
1411284D206527D726791EA22734207527FF29A121C9277526342A31268D2481284024BA1FA8325B28E82C8726A3297625B328D0278429E3281F0EF7202F22F0267A2D2A33B12DCA27C329F825E22CF41C4C27F3201B284B21D32736285D279E2AB430F8267A286B350B2B4226C722452C8435E30F5A256D274D261325332B0C,
1DF73B0C300E275126B7170021812A042548303C2B3E289520FC281527C326F34009333E23C81F4527A52EA12CCF24D426FD268427D0290427E91C76276D2CFA1F42204D36DE19E526DC196721072B4026C32657241B26E32BF71DDC27302829214E1FD02846281E316D2DA1279926732B0F204A12D228802AD926C0280A2EE7,
2EA1339E2EF0280627EE24AD3C742416259A33BB259325D8302525C7268A226C1B5318E52E84266B26F923490BD52A082808276B267E291826C826F11F672CE42AD231532CFA26E425841F2E289E2C9B23D4261627D32628216A2ED228B92698282F2E5A274126F736811E98277E32F924BD2F691C72172B2B1027EE220326EE,
1AAF28DC26542857272C11332A8423862634259524ED2557205F2731277F26E51E37339832D632B42771349E2AB524FB270B272327572A7D27CC25201C1019CE264E338B220138EB2848243A371126F8243E277F1570284027E229EE270327882C992339276427B238691EA327E924BE227A2DF624F02F9A280126932B132433,
1A833761305127412655173826DD2CFA278F24CD225827E72D212757280E2954FA4E18C226A72644267B3339282A2987272C27C5269D266926C72A891F802A30275A257D2FF12BF72A4D309D218325D027642802334426D52E1122B5235126C2231128FE27D8271434B223F827F823292FAC1541226228382E3927602758258F,
233D315E2B57283225F217B530D2264A27EC26D22E8425AB1CE026C5273E26C200FE30B5276E213C2670286A1D512C942605284026DD284C270A27BF295F1F001F3B252B324F1B8726EF15B91E2C2CD8255A277A33AC281C141D29DE22D2263E342D27F827B927C93319308F281B2AFA22452253214B2FC931F026FD20C02E48,
1EE52AF4249126D6263517D318B126F9268D2E22218E25E62688261227A02BF317881F7324C4260D26542BF71B7926A025C32727270B230327E8379A2F0B25A32E1726732252288F288C2089311C24D624B4268A19BA271F22F32782269D27EB223E209B272528133AFC11ED260F28872BA82AF61E6F2FE519A42667467D20D5,
278D258F2BA026E4276D15A325761EE5273B1F75282925872A45252227C923F63323295938642E2B26B92A050EFC29C526DF25B8271F22BA272B3E4524C827FD254C2D2F2A7726D9249516BB1FBF25F016DE28233122280E1E062822295F27C935EC306E274D285136A536A12701232C27192C1F22682BF5338426912036228F,
14D03CF0373427A227681BB3222A20B1264026D71A90255D1F7327FA27E9291E3CD92CED172E329827841E852A421DCA2617262026DC1A59282D362E30AE264824A12C142942261326761EE4196D273621B6284C22E227C21C4828AE260A26B22A2F26B5282926B132FB37A426F62EEF2B5B211B276F38F72E5B273031DD2BE5,
125D3D0E3208275C27B9110038E4205724EE2D3F2414251E2B86267026BE28482150264A3C54286A2688276D1B271E7C254E27FD27382CEE275A3348340E22E7167929431C571ECC255527392157260D1D3827B22A6F27162CB037C32477267F25B8302E265727023590296C26D21F4026EE28F827BC23F72ADC26C724552CC9,
14532C082006276526B40E3E23451D872692233627C625E62791274026AB27F62772270315F6303F26BA32992B7F185624C228222707289427412E9336DD2D2E1FC519391F9829CA25DE24782EFE2D232E4225CD131F274F262C368D2523269D2F741FEB278227BB2FCF202E26A42B0727B2228C2E600F242EE127E524971CCE,
0B862D672F71272A277E097F2B9C1BC5285A3114248B26EB2908259E2758292024972D5D30B328F5278432A9101520B2275F279E26DA2610289F3357464B25A719D735141F3C2D91258F2C1A1C3927851B90274C2AE827CC394F3F44261D281E2A7A2A612836260F4FAF2839265F253D2119220A34B61C30238727D62E5320DB,
30B52F042FDC267327890EE0164F2AEB26012449304F29102987270A26792B3D1FB4356F26742C8325A5227C1548189D2769275E28092181284766C034C61BAA0B272F051EC826A626E22AFD318F2C7416D1279426B627B924851564276528211FD6181D27C327CD4252199A26AE341E2F191F371095027831DA27933314363B,
24222B04351326872785163E2158354A277527FE12AE291A28B825FF26C129B21F9C17A021F9239B27002A7031BE21E428D2283B28392D8D280C2D8525252B0527ED3AA128EE1C81270905401C371AF02078267321E327AA168D2A8F257326841E181FC027CC27625076194727961927224A26971E3F2C7727CB262A22C030D7,
26ED323B1F5626A7271705B32B99268526BB194A1AC7255E1B46290D26F72C2C1EF330FF19E9242327F732143544E47A2862274B271C2F34270937550F022D0B3C4618C231B3300424D014DBFE4C0B701970260927392690165F2D0725622734196A1888277A26EF30683635270039681E581E61232D18E327AD26C6275C2175,
1F1E296525D426FE2806F9011DE42D4925C61A252B5E288026EA28D827191FFF163223740CF434D626C410042F4B370B28C9274327E728DD27083F5837201A4E063B38643AB2200B265F1DC516121E991FAE25C6222D26E409C831E3252A27FB1DC82E6026CB27DB2CA532BE27EB216125D138D0F8AF28BE26CB2740233F1B46,
29F333AF379B272D27280D8B1A6A3336258B2A0808A1260D30AD2775274527463BC4246B30C22E2E260E3A84312F34462615272B2838228E27B234522E862F1415F03442168734F4290639B8167F1A261BAD274D371927550ECF13EA260C267E171B2AF728A3280342E01FEE282B309E2F22266D06612CDD273E26B4256D3150,
3C4625CB2B3126BC2835104F4A6F3427265704743F4526103A7F289327041E812CF124E113A633162862173038FD2E192681278B27BB253826DC22A6418636031F4D3145050916EE25A5242E2D4A1C540DB8274C1DE727F713C03822280327EB263520672758284D3A7E34DB26E2216225582C27D9632A29359226C319BE190A,
2D6624C53B9726952771081B26A0284B2A1B2BA0258026852304276F27922D78254419E420303400277425F32E13566F2624271127B1296C268817DF426017D63E6B30BC3A632B8C245818B326FD18C11E702685207528200C1C270F294D26A3156F22F8273026C039030A1D28C52C6B218F2332F3DF2A732D0726950CC81AD4,
37E12FB62041277927511F9520E02B3726FE0D202E1628E62E29262C270C24EE125F251629471D5F265932C41CDE25D22964280828762244289B155B0ACE355D17E61E3D4EF62DCF24A40335229816A40A86278C2EE627BD192D2D7925F726C21FEF1810284A27CC36AF0BB627D831242839275E1A8E2318339D264719D32530,
272E2A93297528482687129824D02BDA27EF11DA2ED02701296626E1271E2E9133B6241323662EBD272124EC17DC3A062944274D267E2518276615B9270E296F2E6C364039B5378C27262A1838A70BFB096C27480AB4255E16412E07253B268320991BA3277527713F332F8327AF2E62325C28101FFE34183A8027970BF72317,
308C40272AE6287426EA0B2C18A62FAC288228B927E3276B2CA8283F27A925B52CC52FEE29AE2D25280225952C5424972727276C289A23862770064C282F239B1BB929C4187328572643FE29271D1D362099274D26EE260215231E2F284E2840236D1E4A27B728903B72239D2840311221992C843C522C83300B260F2AA20CFE,
260B30CB1F4F274727CE0AAA389E2E6C26DC04E51A1626982DFE262226E9266C0D641C1214A51E1628C6343C423519FD261E282A2708251527A609572AD11F8A0DC01CB622EF1BEE2615F5A01EF51FF615FB2635200128381ED237C5288B26E202C51EEB281B27243B382D29280A343428EE27FA1D531BC320A326A934834073,
2C302F4436EA27062837197D1AC935D8248A26142CCE25972D0D2617281525011972220E0D2A2D68276026590D4520C126DB28142763196027521C963EF72F630BAA2FF3F8A41BE627CE18D035A0181202A4272E227026870AEB38A425AC26511F432A41268B28D84019005426BF28A72FEA2E5C1F9E2C4D289B26CB137B2979,
294A2330FCE4270927C208072A38275F28560F162240281A286827CD26402B822E482A7A22352DC628A82A5D24FE2F6225E72866285139E9270F28D51F9D1E6F23EC374E30531A5A26E33A0C09AC1B5411C827C6269A257E29FB3607256526971D43224327B028B435743B2726D21FA324AC205107F72D611F56275731D0200F,
24BD2BFF1752267927D31962262C312826641E26381C28AA26B326C1265629730D901EAF31D9251926311F7324521F83272127CB2761305227640F8D202528601D202EB512461B13277232291A3D136A01B926C53624275222C523FC28BA27AA13B2250728C228B432592DB32623313926B620CB44B920CF2B0D28362EC40DFC,
2F5817580FE9286A2741053826CA2B59261C0FA43374269025CA284A277823A02F5B175527293213276D1ABA0DE12A4A27D1286127BB1EF327DE4A6009212F811D4327602264211E257B046C35DE1D62166627512EB126CC28DD256E284F275E1EC81D9726EC27902FDE061726393EA422D7296A0A341C562B5D273C2B5A2148,
28FA3060068B2688268E06A62D3A3B56265C12582106258A329727282803271DFFF9161F279A2906262A300A2956367F284927282718269528802B3E18551B601C88331100A424D42688E0722188139206EF26C31F3E2795354E1D25265D269B1A611EC126FB273E28EA146A274622BB2D2E32AB2FF91D1831D0271B20CE2F6A,
2719154D3F1925F525F10F3E24572EFF26CF0A0223C8263A276D280C280026B0455423E01575252A250328F62EDB0EF928DF272827E9243127943658150501FF2DC2254C062F375226E90437169D0DDF10FE27921B4C27CC37BD1C4D248B27D8201E1D76284728563A322383266F3698217F296531D80C0C237B279F11802F9A,
26CA27FA14A527462675097423CF29ED25020A6D23AD25712FE4261B26D925792BFC1FC414BF26F3267E2D0D5119280928A527A92862343F2705137E201B20011AA723D637B5313E265E16E407E91A01227F26E5274B255F36F20FEF268E273614BD2ADD26BF28C430D1176F265B25E625BD311E33E12B3723B126B1126615ED,
2EB43F481EA7279F273609301E0D33072596025C138626CB1F4126A027822F4B20AE2A6A21292096261D25893275194A269A28662632295D271B16FA287D2C5320AF2F872A97280F2CA4136114BA1E2113D926D1235F261F29F227D8241427A41E1C0605270D26F433B200C626493BE82E181947336320733416267627382465,
299239F8096027F32678028E162E2C762625109330CC26C627892692268527B21D1C22F708F12AFD27DC28102387032226C3279125ED22B226793EF34591320E280B32D81869152F257E28701654152702C727F11AB527DC2EA62791240B27450969204127F9273535DF1D0827152B2832C1227438601E22269F28012A29271C,
375326D01D6A285C27650F59235B31CB28AC22591D7F2558263626AA28682C9E242136C400DB2846296328FD0BAE0F0827AD284326F02B9B26AD315D26EC2CDB1CF52CBE15F60F3323B40994134E1C11057B266420C4261941FB001D240E278C25CB1F7A275C287231D9339D27F8338D300D121E335220B82CAB26132CCF1C1B,
3F7A29A71B59260127851FFE20B02ED2258F18AD2B38254C33EB26CE27E326213AD327D533BD1F9828A53781118B209D296726F6274D20E326E726FF1CE438922FDB2BFB0C7136C8280408B4EE5E248C133D26E23DCD268236A0F29026EC264702A61D29275B2755490E282526C82F4733772C6C1689215D2F12265A2F0A06D7,
206B311725ED270B276430D040B218DD292743B220DC257A216426B727AE26093ABC281C182D2364251C2B482D132643284D28012793236427293A9C2CDC352004051DF520872117266B1CB70AD72F9A3796292E2FA4274642193322295828A2274B2F6E26D326BF1EAC234327C42BD12DFA16CC09AC47D925B7276024A32AAA,
27AA2C45333527A228173B4826C01D2B26D4468125BE2578271D266C26C52C4A1E6A306F38B5278224F926FC226A264C2615269F27C730B527491D7A03D21E3E161C21471FCC3880292B25EB18D128512E5128221DFE273237A42A6527B22836296E284E27A026BF3057197E26CD2B80286A200613D63BEF2F99268F1CDA2A3A,
27623468027226FC267625A8415324B227C34C2B2727290422EB275F28152504349D256E24DB31C2254A29B01F551B2628272810281123DE268126D14209194AFD5223BA2C9F191A25F931E014FB2A1F27A226DA2DFC267840EB2FBE250C27272A0D35C02774262B236D0DF426612646251D199A23B2414B285427C82B8F233C,
1E94279527A327B127F43EB642F2227927EF574E2B6C28B431B327A227B924CD0D47285819F62B0E26101DEE328616432829275F272B2A6A26A61FD730792556F5BC2DF01EC93004282114EC1C6B25D72ADB26C71DEA26DD36481E6A2603278929FD39A02850271825B731B1270622EB2A8634DBF9F035C02ABB27C221A92EF7,
0CC13571361D269427A221B742A123622616462C1E26264212EF286C26B3297A24A430BC212A259126F22DAE25A62ACE289527ED28622C9E274B117F293B25B4FB3C1ABB2B1A1C4E285D2D500E552D4E3D04280F3813271142AA2FA52596269825AA36AC272727621E0F3E1927FB3B14223814930B50339527B028352DCD27DC,
1F0028362FD6271727011B36363120CB261551062F29255229F1282927792125FABF2A30157E2C4325E2180E1C94291027C4284026DB1D3E261B2A43326A4386FEEA254D16642A3F28423A1921F630B0309F266812AC28932F622CBA245C27541F6141992803278C1C0A139527AB28492EA721930E2D4103238527632AD73388,
1E732A54303B270E28CB258927DC1F5728B53F312D4E25B4238E27A327092D321E3C2ED633A5275526811FFA2172FBF829E027D1270B0BC6266345CD272038D0EFF30E60187217F929BB28D82A512AEC18E6263A1CAE26D14BE630F926A8277427322B55276427FD1CB92508282830DE361B1CEBF6C722D71BA5272A270122AF,
19DA2E692750286127C12AA2373914C127573B8F216E2698282A281B288E1F170F7321BA14AF22EA27BA225F2FBD194D286B26FB27342408284BF2A54A4825C2F45E20C507F12CDB27881E0A1064298C46E227CB20E9277B3555235A268627161D07316E271A26FE18A22C0F276B290F257E3925118E234B2349283B29211E75,
271D2F22280C26EC26F730E133E2187C275040A126572636230D27852827256A22BD27D8324A2E352791200E1F612C56295727FC2758271728362FFAFC3F303CF7642AED32F52A5B27591CEE04672FFA30D327D4289127D33A9D2BD2280E276236C52594273927BE2105302727862B2A2298202B0F05331B1FF8285C17182FEC,
207A3D3430ED27AD27FC2CDD45EC199426694BDB266C2995279F27C227C8201626CF1FBE288D2C422604229125CB3418283527C128B6281C26F22E39333E2CAAF793267C12422139270F1D5B20B32D56319026492B9926F52A181B9225A3272F2C53327B26F926CC21E425E227C227A429D828BB0D482F102DB228B924CB27DB,
167732E42620274727012A1133081137290E4FCF34C8295F28B328C926A3310CF9622C6210A02BA226AE365024DA2CB92738277127422F4D2739434A221D33CF17FA13E02EA3297929A513F214482A6C3F0C27341E9626802A362B9B27F826E125DF2F5927402839232A2C33272C21B2354A0E111A3C20D925FC284B2F222087,
1B7435A033C527FD26EA361F347624C027BF3C9625BE28FC29462637284227922D981CC22C7B31E325FC3010354C2AF428A827F5277B1E152815FEE61EFA1E85109B16261C1F2D3E293D17ED1ACA2BCC36DA275D32FB267A33CD25DC26B526D624A2384F281E27342A1B1EAF268E1F9229791C75F22251442EE3277A29E7282D,
29B53E5415AC26E527A930523901152127C5493C2F5B25A030E126F128002AE7E0682A5E19372F7525021B0127B6280D28B32711272623282893F78118C124F1EFA6392F1C723CE623E1483C0EFF32DD47D326811FED285E2F8E227526ED26A83A0E2A9627AC26E724AD271A270B2E642DC41FE414A130B22EC728481E6D2A57,
152F3E8A1DD3284728952FEB350317D3264A43DF21CC29CA2277275927C022222575199326DD169B259523C32C5F17BA2854282A26B21FEA2761203F08CF2DFBFE47134A1EFA2A2A26D21BA8222F25C8322927EB285F27DD2B7E25F9260F27F415C832BA285A278C21542814268124D92B943D0E15ED3E552AC426BB24D120D4,
0E8A322A1A872805270A175F265D1AE429AE4EBC2BC726A32B0C27DB27BB2A70EC9226383C7D259B26DF2610295530FC27BD283C28A224AE27650E9C0B171DBDE3FC282919A32F3627D020BA210937333A33270120A72769341429CB256F26E02A7C2BA226BA26ED166D1A18281A30AD327A2DA01C0F21562E46282B19A625F0,
24BE464A22A8269F278036DD2FC417FF27F9465A299725AD28B428C4286227B2F9F829A73C2B258B26D320F73E8B1FBF26EC26FF270A17ED284B2AD943D42F92F346281E1CC642FF26151B4413BC349836FB27282D42276B1F582C3025542734329827E4280428002A40295927D42BA2371D23CE072A2EEC25FE26C838F02E0F,
13924AB01CBC288D271225A12E9121BC2992417C2BCF2689378D281026B028EE2A7023F039181CDF275324B229E0322226AF27EE2808276327671C424E811867EAD01FB52FD72DE6270C31463C3E3A12450D27612361275227882E042AED2821262227A7277426691923342B26AA252528F220340AB038E82C6127511DA31C3E,
258C389D2805276126081C65270A19912812481323D8270F21DE2689277C2EF702392B602BB8279F26FF18F51B4D088C25B7288226FF241E28250F571D5B15FCF4A3334D06252B1526C81D3F26D835B43AF32939267426BA268440192827263926AE2801279C270724FB345C26F72F8F2F5E1ECD31752CDA21F1267936362542,
1465379F206D268F26E32981296A1CAB276C4DE9272326C13AA6275226EE25F8146F23023D5F251125D028D4355D2E9F2896270E282C22FF28C33BA36C8E2360F47C183023C037A928A5176518B732CE3378289F1F4A2697232E2AE726732679211A30CF27B4269D208B384426A12C3F2F53368C06A84C0126A727DD353E29BB,
0CF73C9B20D4276027E038334E751B0629353CA425262818311427D1277426B0D4462B4D220930FE260A28151F59361728AA26D227EC198128C1062E39E329AB07F92C750D312CCD25602A1F1F3D3508326128151C81256E1DEE380C254827A1282C32D52714275E24C51629267C30352BEE180E1C6C40C8332726F91C563951,
1E81312434FF277F26C529204A9C1BFD2710379A254326393554278028741E41F4772A4C140722E926A2273E32C226FF294726C926CF25F528910D7816FD37DCF392160F399B2672258A1C7E11BB265C333A279E234C26CB27A3418A257627C91CC03A7426B826991F073D432837343F274E3577126C3A0C23EC276D352A2F2E,
06A53B5B07BF27FF27D43E643D131A3C2785595729322690231926B2282A2711DBF91D96217427B6274E20CD32EA0EBA2884280727931EA028151BEB21FF1094D2A1278CCE9B2B2A27D028031F372C003DDA26BE182528330A5A48F927EC27481EA530FE285E27E5298625B3267E23802BAC2B71F24333CA2A9327911DBD2230,
0B4A1B542A4C27B528112ED3321124202607299950D128442AE727B7283D206A19CE396A345D29A8264E4B7FE96D2B2425E6265E27222820272A3C6930AB2B4A266130701FFA350E268B20BD3B7343D91D8A277A19E7268F243C246D2602281C25241B41282227701A511DE7270A26912CEE31C12B171DEB092C266025E328B3,
1B2425141D5A2743264026E833092DE8265C374535B527B724862797278227B623C72E6622AF21C7261B31D00F77228525D5275727DB21E427A837DA328828E123B229EC2A0C29CC255C182827BA33D1233227C3406E253E2379298325E326C724BE286526972680203B2D3A26C429B231A426E72B1F18611B7927A81B161829,
19B523FE2EFF25DA261B2F1125D82BAE24EE2C3134FE269B242A26DF279D2A1E1FD9112C220A27BD254228CE2E262252260226CA27A127E726FD338F36072FA02ECD30302DFA231026532ADE1E4C31A925B427EC2B4F26662A6C28FE260D28292F151EF027A727751E1D2E40266F242923492683305E251F1FA327CB230D2F84,
1DAA28E423F925EA27292CFD2F7A2E72266832832CAB26752C81273D26EF272E2C362216239C2C24253C350115B9296C263D25F926CC285427A72F8733B1198F2CAC2ED428B72A1725AF25452C97252F27F227AF1A7725F6208C2F6825A2270B2952291427FA26E1232820F926292B6825C62B673AA024B616E526A320A734EC,
22442D192A2226DE274129261B62284527F127F82286254C22E2278E275627C21FA82FDA28012E15274A265E2AED23CF2576264927BC235A27E42C1D315D2091234D2E3627AF280526E1254C280F2A5F1C0A266D1BD62551213F276626DD26BC295626D0274C276A2C2D3000269D206D272A2A5934CF26B02B3527A825E92151,
226123B31DDE26AD264F2A9B2B432B5728862C802E6525AD2C64269B26EB22F022762B842B4021D526DC24CC21892B1E278F26AE270228592696241F2F312ACA1EAD23DB2FC7262527091CD224252A06265227E73BB92573238726BE257B270C2F7C258A26E12695255220F127F72ED3272530583B6D26EE275727112B071A81,
23FF27FD22CD269C28122CA522CB2793287C2B6E253E293A2AD8275627A2256C313C23B2345F2FE52661239D1EC52AEE273025AC275E2F1926F022E12A7A2B5A2B3626811FBB207827D8143D26B1299E20632690296F26151C95268626BE2788237E2A0827AD25F3224A1E18264E28F1292B286039D12DBE1BBF279F29E433E6,
1E592FDF28842699267A238E261829A6265327A22AA1250F27ED267627DE285308AA1EB6238F2B6C26C822562FF427C8279C26FB27AE250E26A0219926F622EF274A25132B6329EF2695247D2D572C922B1D26F52209257B22242F722533272C2A8F22A928102747269E24862652239522122BEC32E124F0260E27E1279631B9,
265E25ED26F927562797291C306E23D326E521092BA4267D28EB2628275828AE23A32FF02D882CCB268C2319218B25FD26CC258D27962768288119C927C126172ED928F51CCA25CC27022EED26AB292C24C1277013ED25FA25B32E56251D27762F12292B2748272324AF2BA726192801248C28F634F430D520DB2643349328C6,
1F0120EC32692777267E268D2B8929DD26A722ED2ECA261D23B0267427FE1FB526BC32AF28DD2A3E26B534731C9C25E5270926FC265C2B1A26D616C82A322F782A4935AE2507266326D3195828D82C942576274628BD260828652ABB260E27282D3E2CF6276A26D02347307226DD25C029752CB62DF326FB1C18279322781B59,
21A41F5524A4278426A02DD024AC261826A824AC35F726F629A226DF26E525B31D54326A264925CA2710366D16C12EB4263825AE27212D342699187B262125E42F02279225BE2D6F2582297E1C073C88219D276E3D8925BE20CB2BB6263D27532F4E1EC5277826A32549128E2609265629692E2E2FCB2FF11E7B260C2CC530DF,
1ADC1E7D2F5D2794275E2D9327CB2A33255F1A96365625FB2852269926F12B6B24B9253E2A2A2F81261D337D177F29B525612649278D2476276217DC1F8E26372D683262217A3020273B1D0235AB34DF22DA27F5194124A7253A2EFF26C527902DF32773275025F620551D2026FE28A8279829DA2EB728021CF226C42B042DCF,
1D481E872996270B27F72A6B2BB028E0277B1E95371A250527E3269826A1270B259225302BA12A3026EB34841E9729BA256F260027862675270817A42081246F289934081E972E492775275730852AE61F2F2828218524E72C8C3038257F26FE240F29FA27EE2648222021D925B5267C2D342B652CE825421D4D272E21D02224,
22C926722948261B2638227A23332B4525AC28312890266127C9264E2690299D2F4027F92D842835271B2B8F1E882CE32706260E2680244F277A16D51CC32206255B25672EFA2BDB2662338B23ED2E2D27862849372D26AC26882E28246C26B51DC91558279626FF27BA3284260A2075260123CE23D8239F1A8426F52B6F1CC4,
25A7228E1F1927A7260F2B7125B729CC26A9294425A7269C276725FB26EA24CB377E153F2FFE2A6526CC26D121EB2791265E26A427D22936270519401DCF27E429181DF52C0B1D2E25CD220B273E28252695276530E0266928BF2CB5255627152B4B2BE027F627FE230726A1273E2ABC23BD2B08225D242B2A7D26DD269B28AC,
1E88217F2410268626AD2BF3277A2BD825542B832B87255628F92769280C259B2BDE21C5287F213A257E270314852771268B270E26BB276B273920851ECB26D232E7266C2D212AEC256C2966223F2D46299226B5186F25752CFF2F2A23FA262D2A14294927F126C22301279B279C2FE02DCC275A19F827FF282A2614229437AA,
24582648298426142757282C2343261C25CC227E32212589272826CE275629B21A902C1C2463245526CF294E292A294F25D126B427902D7127692ABA232D305D2C2C26502EC930A125CC0D18334929482A2C272A1B8925E134BD2CB725C8278822342BBF27E726FC20A3266B264B2B4429B72038169D24B7213327E61D5B230A,
1E602A33241F265C25D928AE285E2A66264D27C5281B25B92555271726F82D2A1E1336E524CB217B27672A0429C8299C269D2719262626A22726309F256E1F5921D62A7B2100289124FA15791B4F2AA2290E278F3214261F2FD52FC625B72725269B24C9265F263325963462259425C52AB4268313A725F927F326EA22DA1422,
1D7E1D3B1EBD27B4261521A12B5826BF25831BCB2B3626BF28F726F226B7262224171D0D29F9297225DC284F181325F0269C268F276D290926A02FD6243D2050302730CD282524D925D315391AC9319D2BCB26933BFA2652343E28F125152763352C1AE226A42794262328182630254B28682989125727B11DE227C733933BE2,
1CD61E1924B827F027252AFA2875284D26FD213A337626192A58255127782638324713703373235626FB3162267B294A25BA2655270C2F5827AA31952AAA29B3333E236E3057244426BC213423C3397222F827AA1A9D261E2BE61252247F27752D3D28A42685270C1E3A21CC26FA263026FA3158185122F921FE278A2BC4445E,
1915234829D0269827FB310D2C40295025B628F231E2253124BF259E28121ED43403308021B01E95264F2B381E0F2AD3279726E525CA23E326DF3A0D2FD923602AAF2F19211A2F03270616013300368822AA26990A89263229B011FD24C7282324B127242704267629DC1A0525412B362D8434BA167D2DA11859268D2AE52757,
11971FA4338326D5275D29D43896321C25B11A704CA5267F2AFB258E27281EE639D93C7D225636B626C94DDAECA2255C269325D02793249926863F1433C92ECC377938C7247F328127121DAC3700387A1AF227CB440925612E5615BA244926902B6A230A26EE27991E0A2427252A256D2A0B37F5227936750E72267D36390745,
26AA27A02D9C2645274E1A56364B312224E52EFF211D272C2937266827202DED20C5F74D2A42319625CE208A24E222A1255E275426733007271F20DC289F280A25C620F01C4947B729362C204263223B2BF427AF5A8B270E255125D928E3283829251F8327D626F4232723FC288C1B072D34235A30582B3031DB270C14A0425D,
27EE2BA22C3326B226771EA42EC725A5260D347F31B8263924122639270D2B262CA23BCA263F24B926231F093037289E257927E827322971280E2770259C295930532B2D1DB7386E28A01A3728071ECB2E4027AA0070260F22D62314244426732A72252927B825EF2B6034CD27822080293A2DCB2D162D691E81270429C846E5,
2AF9294B2EF2264E27D626612BBC288926E62498230F272129AB281126E72C06055042BF310D2ACC264C2006237726F0268A2871266F2DC3271723251AEA35042EF31A9B043A3C5E26FB250543701FCD202F26C3217C272629492C2D24E72721246F1EB627452714273123A827331CA629CB2446295A2646287C26C81EFC24D3,
26922486262F26392746254F26D425BD27C629C724582615221C287427C82A21298A36B31F823EAA28511C41343121F9267E276C27E01A4927AF1A2116EC37AB325F315517CA305826C81A15323F29B324B026ED46F127F91EC3273C27B626E83679214D27F926B5236337E528241CA5234C141439862D8E1E09277F32B9124F,
2A2A30C83C5927A627562A1326C4287828322B241F5F26F926BA276027762906253309BB333C2BD426D528722DFE33E52728282C26C12035278E267627502F65282C1F411292241C26703538326A2AD223412739302B26C321332B2726F5273A1C3425F827AF27892A9821742766258A231833B916081F7F23E427D733963AF6,
2CB3288D2A472649285524591D452440262328AC2C0026FC23F3266227B3287BEDB32F5323162E4227172836242C20FD2628287926E32836283F2D422326325A291D24FA184D3E3F23FB23E12AD42B7728F226E6157527B12B3A25A926042827347F293F285926A925F630BD278225282AD51D472B3726D830E927712C5B368B,
24332C0F26E727102874200928952E7924F82FC51E3925CE2DF1267127832BBA2AF32DA1156728B727721E11362C31C529B026D526B8246C28261B7C298223A826D82C67193E3206261B217C428124B8287126D222EA26DF1F592BE127A226791CF42142279D27D9270C295F281027DA281228F3247529C12A5F26D22E721C14,
254A21A72C97263D26C120A1278A2DCD268525A32942268A261F2875268A2ABF2BFD38511ED62AC1268B2B5D2CF6258F2807276726B32ED9284A2F1D29C618DA2EA130FF17512AA8275125482A592525243D26E5313D26A532F12EDA27532691245E2CB4278C274726112A1F28B1239B28732F6B2E402F902D2A279E2D3C191B,
278D2396243927E7271F1FF22B572BFE26D62BD728A127F125CB296A2748297F459107EF3E692ABE267E27EB25F1223E2731275427821B28272D250D2A9135B4273C210214323DE826D52EB43B3022A825B027683E75273A29632C4D25C526C720E516D62765272A24A41A962662217026432DA0302F3025205F26BF1F553225,
2E812AC92B43262628162B5B336E2CE5273C241F261226BC2BBF27F926B123C41491319611B62D7228A12A572BBD2C8E26A8269C285C298B27ED1FEC3E18320C2D511D47082230C525EE2E1F305F274624E127901C63279C290828A7267F266F31B4323F2899271A2C9D30002857202B2EA224202291255A2CBE2787303C3FE0,
263B20AD230D26D1286026E82FC52B3C23642AC8282826C2259027852828298533233D152FB531BA2742273E27872BF226D5276827351C8126AB2AF4383A35AC29DE22DA1AAA3AF02851136A36A02414289227052449270126C4305427B4283428061F10283C278C282F1F5D27091BD52A7B25E52FE4302C2FAA287B1C172892,
298D2FD532C6286C2716291F255528A527261F6E2DED26082B872966276E23C53AE72E5915862760286A340B15F721FA261C270B26F728E1275B2F3F2D3427792F8812490E273A8327F74251377925D726E127FF366E272C28232B0E24FF27062CC029A7275827B32B173261285E1B66297630101D0F240A228826FF22BF1475,
2BEA23831E6626E72741236A2D052A7825362E5F2B8E2851261128E726FB20EE1BD812F717D027D427171A722CDA24E8252B27BA26FA2876278836702827311D256F388519DB278725E517F035B423BB22E326CA3D5426CF279126D226C6284A2C4D2931268F267E25382CBD27492695299F28BB1DA125FF2D682678211039E3,
29CD2C5B33432669281D217C1A1525D524702B04242D29311BC6289D27132A481C99308C21312EE72773278B1DC11EA026D8287926B51EE2265C3193397024F329C5191605D4350623F235002A6C251D2824271D13EE27622BC229DA269826512110221B267D26AB25CD2CA226DA200627992445239027182093268425F53B6E,
2B462A7D26502607275D2AC82CE6285024D625212A8D256D31E627FA26C32ABE1DD6345C284E2F5C259B244B320323C8254728A427432EF126EE257B33E91E0B30EE33FA194B36AE250624363641283F249B276F2D0127702BD327852614268823D328CB27AE279B26D50E44278E266223F429F128CB2B821BA926BD26C13098,
2C4229DD1D2126632780216020782B8925A92A9E27F9271E281327F627BB2A2B34762B5422DC2671271B17C831A326D9270427152694249D284024E72ED213EC22D124481A802A99245424EE2F4A2B8B2458294F2E5225C530A02500261E282F1DE52AE7266D268026E92F6D27B6213B31D8210B222821932E42269C24991C82,
25262D3F2C7726CE2625288537B6275B274728F31C9D26202EFC26562791271B211E120B291D2AED26B7296D2E1A2FFA25D226E027512B6B27802FEA276C271033EB235917A0355323B4333E39CE27C62CDD28472DC3254D27962F9B25DA281D27AA21BD26A52743294C2170271B20D31EBE346413BC26DC22DA2605323736BC,
2CEB297521622650266F209B2AEC2AA126612F86253726A22E15292726EB27792D3D28EE299F281E25F12CD72B962C75264C2725275D284928632142137D238E3429272C24F92D1E23BB2ADF3354274E258327831BD027053206270A246C265F274C236F272B27CE2A31239C283E23342D3C1F9228AE2017263E273F23AF32AE,
24A8265322FC26D72700260424A1240F22A7254A226D25612BF0267E27BC2512192351362CF129DC264525F9227A26C325E128A42618205E27BC2E2E2B9132031D351E8D17B135F4253D287242501C38217D26D221B326D12A0D25D9255326FB27A121E22659280128DB381F27BC25BF2C7B23B72955292E2FDE27FC323019BE,
224329CF299926BD278D21DC2B47318826E52A981DDB272121F9262427BF2A792C9633A730A42592277329F934B9300C258A27722778290727B0285D18612D052C672B36232C3520293D2F24397524BE257C261A461427142DA5214525E3275C24361F88267F265025CE1F07273323AE26F5284033672CF5270F27AD250B0FE8,
26BB28DB27FB26EA25FE25A42F8D2C89258823DC2A2A258F282B26BC27332B3F224DF2BA1A092F46276830BD1FE326BB274F26F226E6272726581D4715722F0628CB23821BF1303B2671239E37FE267721042674527A26DB28E11B02253226D2273F2859278B25DC2292257D27091AD92EBE1DB72E8D326B2B1D275927684112,
22D72A261C3C261A27331D1126282B8325A422921F7C27171B3527B926B82C933E5843B1211B386A280B1E172E4423782737277127C625D1282326B0267C26B62A4528111F393C3F235C23AD368C22ED27F226F0029925F62B9E26C32475264B2CFD1DA2278927BE28052CDE268514452BA42AE22A822D7E2F36277C30865082,
2B0E27370E90271826892CEE24F5296826472CD02B57276C26A7269E27191A192B4B2A672FCA1FA9273D1E6322CB2B27292727312822257D275E31B78000180925D42A403EEB31D424013BC329412AB526B1260C2ACB280425772599273427972A2D0F89273A26F22A5220A8281F1EE22FAF2ED9198429F622CF26FC2090250F,
2840298D30A0264827DB27CE266324DF24F621CD2686262E3558273C2879253B17702A822B9A293127B12A7422A82EC9289E2714266A298F26AE3463F4C531DD225020C7346328C42469275C242625B52A0E26DB2577276324742969283C27B12B5425F2279F28C728262D9F26EF3492263923DE2A9A2A3A2DC927F528952BC8,
2428264D2CF1273727AA27F72BD62BF325D22EBC2CA225DD24AE26C327112369123821DC2A172BCE26B12A372D67255E292C287127CF292E272926C512C7313C2C132A8521543082254E2817274725282B94273D29FC27C9281A25722797277D1AD71A6C2772281326BB19A7271822DF257B250E28AB268C1F9926682B8C281D,
31812B141ECB271226EA29282D7E2A0927B328C1260F27552DD625FE26C221D52909273221112738270E1F932CD124A427D726D727E028B826FE1CF90994198627F72F6437122E7826EC258325A22B192A3627B12957274827162B9526B128242BD01DF226FC277826A7183C266621812AD22A3F1FA922B92E21272619DE248B,
27E02A2D29D32641274929501E82239F253B1FCC246125C52CEE25822825249D2F942AA4285F286626DA253A1DE42D0B25B9267E2860280F27F217C1D08723C32A8F23BC26812C55274030482A9F2899271126C8296426A3267A2B2827D6279732CF1D2C287227F02BE023D327552BC62FD33077269629F02E2D273A2A1C246E,
21EE27D53322266D27BC26DE21BF289D251E2A812CF826EA230926E0270224DF20C020B02F3E2866285726942F9A341128DB27AD274125032734302AE4443119299A212E273324612878209929BD243326D927422BDE2702267225C4289C27451AB1207C26F427E32660158128182A2C25EB1E1C20572A732296262F2E332D61,
27592E133606276627852FB9266729CB244925A8265C273835B9284A26DC1F2F23B22B04248C2BD928B328C926622A1628D1272727A726ED26AD3848E1E5259820B8222B35E12C8C295B341A2FB329E524FD278621402835238C28B0264E284F2F33267727A9279629DD147626A728742DCD336A20F62C5E284726B8299F2617,
2C721F66299127B22687230C1D13234026A22B2C2765268E239527B1268826A62D962AC620EC2649271B1C3022C92EE32656284B276F2DB826DE092EEFCB1C602F93300E2EE227CD27452ADC17E429D52E1A281E279E27FD28B82B0126E727EE2A6118162868280B2A550626288F28C723292E2425B51F412439286E27E82CA2,
231A239A231428262772280D282C2DCD2622280C29C626432B8E26D227C823F82DF623A028D8218B27832B7229E62F3325D327F3272C28B9274D1E14C0A422FD2DAA1E0829953319269A28292EFB251A281527752A642736295F2A6C293B28032AEE1DE4276127A2265C2BCD26A824B92C3832A83B7334942B3426EE2B9820D2,
2CA43003350D278927F027221F602ACF25CD257129152697274328AE27F225B9142F2DEF2D7429EF26BC27CF2E97262425DC280C27B7297727312DA2E61E29762396265628FC21C226E9262E2AB72C352A62264C2901268726B52A7728DF263E224520C927582677294123A2279D27A62B291DEF14E72AF92C1227A12C3E29F6,
2B76242125292759277328A529C3200725892851260B26E32AFA2863277223DC467427DB201F295127EE237B253C2B0926CA271E273B2F2526CC2510F2CA1FE129A82A9328313173256A30CD272729132C4326A320F32686268F2722287528142D0A23562727272A28480E9726B1230427382E03246320E2205326B222CA262E,
259521832C7B2615275326182BE82F9925C728852B7626452A11286A26EA229D1A6428942C53263726B623722B0A2BDE2696271127C0290C27FC2D09F3B9298F27B22B4823E12BC226A8265A2791257527D728702BA5280E290D2C73255A272C29931FD8270A26A3272915A2275A2A0C2B8E24C72A0B29172C5B269228542EE2,
23422BE129ED273926162C071A9425262A12237F27AF264E25D928E0270F2801395F23272A3F2CB326972453258C317D268327302706245828132695F4801A9B2C8E27FC33F22EB8267E33CC221C2AC627F127CF2C3E26862BD024AE253327252C3D2018271C27132AE12A7A2752281028BE265F223B2D3E26AC273C32FD26A8,
2F4E23472D9A25FB27B92788244A275429A72B2D266E26CD27A525E2275B22B3276726782159285F263E1F9D1EF32EDC282D277027882A1728A70B43D4E31D9C2882263F330A284627052500255625912B5328462B1F279128C72C83258227A720A5181D26D0281929890E4527B424DD26872BFB219026F72565278D1DC92A17,
28132DBD2EDB2809264D25F62A6D282A2B0F27CA2A4D280A2DA1272B2726230D34952BBE24971FC028091E5F328A30AB255D267E28582CF828AE1876E2E129552EEF22672ABE250A26F52ADC28A32DE72BD3270426CF266324FE27D425F226A333942379273427D525E207C3269E28162D7C370F207C28AB206928032E622567,
2AF422CB29EC26B927272AF317A32C222780277F28A129CC2512281F27A7234E289726D21C2D290528512C8F25C227DC27AA27AE26D025FD27B332C4D88726C8268F29282C702B3A266E2C7622BC28092A6D266623E827652E822860247D280A25EE1CD227EC25E928BB12D425AF253F2A13235B1FC92857320A26F028712B3D,
25D1299D337B273D28652CF22E9D26E9281E29AF2A4D29942D9E284B277D26DE2EC22C57260F25B4278C26C82B492DAC27D02765276F2E6127F323210E5921F52BD21C55237E2A0225501D5729982559266727AE280D276D27232BA027C3278F236A214426D227912AEF10AA260B224527022C812D0E224F24C3280B28F8254C,
2749232C2209261D26D8254C28D7249427CA240425C425C329682757271D226A26E621FA24F635F1282E210B2658272A2818282226D61D0526E117A108331F402C1D303D2AB62B7524732DF62C122BAB290927CE302B25D926E622D326D027CA2CD81E9127E02655285C1A7A264A2DC72653265820152F8924B3263D2A90281A,
2B0B2B6630E626D72735270220402A3727902BDD290B26782CB7270B26D123132E22293019521D4A271C2689298F2858299F26E7279832EE26E836C8CD912AB728872AB929942B5E274433E01E5429ED2DC8277821A7259A277B28102774269D276220FC27CC26C328282D6527AB26F42BFB2B442EEC296725FE27FD2C582B99,
24672E762D0928B226CB279B2063230A267F2109250827411E29264327A8256F330D2BFE179B24EE2747283F23F02A8C290F282527882B21275E2554EED41DDC29AB198526E4263B2836236A263B25BF25A326922BE2274A2B5D2922255D2827269E0F54287A27B1281B09722759292B28212BF22E872520215C266327B026CE,
29EC273E2C6C280128142C4128932A0E24EB284E2FA8273E2CD0289426B0266E30A522F02C031FA026562D562E602CD227B7270826DB224B26E22FDA107F1825286E302432DC30F025E61C362A632787224926F5292127572892298B2664278028842EC82698266C244F24D7278C266E324C21FE1CDA271C324126CD2E20221A,
26FC281842A927DE273E291C241D2A8128CC2970230B26DA2A102850271A233A37822FF81D67396D27841C662286340427FF28B0270729AE268737AA90172C662CBC2ED513C31F0F255042CE257E2C212A2227B32B9127AA28F822822781270B3035145E26EE27BB2CC907F225EB27452AFD26DE24AA2BC72439277C39D02F6F,
2A95296613BF26862720274827632CA626462F522E4C28EA2FDD27D926C1252F2E9C28AE2BDE2A2B27461F792A8FD5E8264127FC2688303F27ABF4A2110E26A4242D24DB2B152C1C26522F9F204B24B525EA26AB2A23278325F62A4329C327BD04EA196F26E926B4250A1A55264F363B28DB239D27A7230B246328191D8A2890,
28D12A2124B626CF26DE2F1A2A2B2B3624C7331026A229AE26C827192792229B4184266814F82A6F279723E02CEFF64128C7272826FB28BB26E9FE3218CC1D8B2C022EF128732F36243B244F2A352686261B2823257C26FF27B1238827E1276B1D66255E273D26F32A3D0CAD27192D41292A30BE264E1FB929F2277320B9243E,
2CE53118235A26D326A92D0F2A9F2AF425D62D32250B255A277B268127D427BB28E9277A20812E5828B323B222FFEF8F2979281827402BDA26DD0A2B1A7D2E24222F2F6E21182DDB26A22D961F8A2AF4264D26982993255A21022ABF250B275506F01DB52676280424D723CC266C308A27C420951B6D23052B2727561775279A,
2BF128A5302C266626F4251A1F8626E2251F2A882CA727EE29A626DB280028CD2DFA285628B927A728E9335830DEF5D5286F263C26C42AEC26ECDC6015FF240528C11791259E2DA826DC28D32AD225D5286F26B2240C25812366249E253826C013DF22BB271326EC283F1CFF266E2B7F2A31260920402722225C27DD1F1C1C32,
2BB22A36126627792715269027C92A4B26E72B172D352655295127DC26E023482794205928532EDA26CE18F92B7AD19826D225F927B929992831ED8D0EBD2BBC26902EA427AC2D272863282F2416260E2488276A30E328381E5D2B23264826791F451DF6278D2743240424502792327925D12A6F1E17296029CB27DA1F552638,
27DE27032DEC26BF271C2381259E289025FC2E9D272426C228BA297227F52A903466260A2A8F2C8E26B6238E3464DD74298026FA26092C33283B0DDE39AA28E5273B2ED51C1F2D6B26851C0E21D52731273327F9204326812651299F2974280C0ED31CF5281727DA248A119626DF3063289926CD24871E7823CF28632B312A5A,
2A5F2AB215A7268A270F2D4227AA2A3923C52881285625CE2ACF2848264424830DA728571C613427262D2791294DF23128CE282E27792519269F118E21CD1EA0287C2C4C2CC027EB24C12523202F2718214826992683278122AB27DC28E0275D14B01DCC26E126A92743303726E92E79269C2BEF26EA2A1F2E2E27721CD62540,
2C9A28FC204D26D627C0245C225D2E4424E4261F285828712CD525D527E924D713B526032ED025FE28341D73321ED3DC28B626E7270325A0271E0FBD1C5B31EF21BC2D77234A2FA8269C2838235F2860283E279629BA264624B92B68261526ED1B44244E276027C025FF1B0B285E32EF2DC528A819B02C25286C27972B9B226B,
2948272C2E52275F264F29212040265124A02AF627D82911210E2882278A241736A024A317CE2CA8281621CB229AD47226F62788281E2BE1269C103D080E28792DA22BC02271294727D7291228AE233D267B27282609261C228C2AF024CB27261F651CAA283826EC254C15BD26002F5122372AF22C762A6423CD272F1DC02486,
2C8124E6165F27F626F925BD255C2B9B270323A42D6D270C2714275A265628621B0227D328012ADD260F21342AD1E1C2267A261D27E8264B26983D012114257624A02B7423EC31BB25C82C981BAB277D2364284F242226E327DB2D9C264226C3118320DD282F26A628A31F1827CC293B2B6B2A5F22F0292022AB265F22572456,
275127011F91264127C725C020DB237823BC240B205927E526C228A9272826AC2AE8248B21D32692277626512863D0822617286A28373165269821E70D591BBB222F308A187A250D2677262B20D9254F252A277E22222655272E25CE2792274321091E1A27AA279B250F1B8326B831AE259D24602357297E2A7527292286281C,
29F023BD119F27D626D7226027822E3A24C828C5302C26D9244B2818272325BF19302A2C25A5214728A522FD2348D6F82852279C275C28C6279AFF7E1D0D2B8D2AA2286A2C612F7826A9396B27F5267126F6274B2685269421D331CE2615274A12C321B526A127AE24C31E6E261B2D8E2D1A21C022572856238127E5194F23FC,
29AC2BC120F426772790259B2116255825342315267A25582A9628F327592527265B21A9201A27752873242D36DCC04B27DF271126AD2C6D27711A9C23E425422936207313A3263423DA1C98252525C4265A262B2D99272328502AE2261A26A21766207126DD273E26572BBA25B72F2A2A8429E521E12A7626D827CF216222C4,
27F828471F5D26C1277325531B8C2BB027352852273B2A1B2B43270A272928E5392F298F30A72D4426FA29FC20DDE8E5260F26A027B4307A26C7364624F22383239729DB3277298323C42D021D3C269226872797239B283327C43137272326A316E1239026BA2739252A05842635325227A12E2D1B11214F27AF281D226A254C,
2D6626C23025269927BF23B81FE229FB26A2228D28CA2A1427C1263D26A528E10DA826722764336A271C2BB12E5BDC7725B526C026DB29CC277703603C261DBD2DBB263C16A11BAC249D279127F828A925BE278D249526832D2E2CD227FD26E01987202F27A127892401216827CA267D25B1278C2B3E2BDB27B227D225002732,
243E253025DA265A26CA239B23A42B7A244329C427E8262D29B525C927A323E9282C272A233D25DD265F251E24F6E234261527B027452BC2269C0DA22BC024D02D4124971B3C2EF32680244B1DF42231257E26E0275526622C182C8227DC26AF13CE23AA26F226BE24DF116126FD34112A2D2AF3255F26412BFE27D51A5D224F,
302926B7227427DB27402A9C215C251624D62411260425942AB026C226CB28CF27C11CB91DA732782795240E2B58DCBC266C272926D72A5D27891EA6434626C42C80345C2F8C231F28432902272028542283274D264727392B3E268426EE26A216041CA42816282526E11CC7277E274426A12A8439142819216A26BB298D2980,
2A2029E5190528202858233D28CF2CD02B7126F12B4526A5249A25F626E8238623692A91238327FE27C62FF02965D70F263726CF26322F9726B2099A332A2CAD239C1DA00CDB29A022F72BA023DE26A1275828351F3F279331B6228A27C426D81F9326D0271C284F24F92596266F330C26032F15297527082B7B27D31A5529E8,
2CE22CEF332C28592820253E225727082A9F21D529A7286D21A725F7275A24D025E5251F153F257826D721B029A4DAF42951277A26962C7326E7FC4111A624E52D052E9C2F0D29B325D42C46267F28A827BD27A2242325532E182B2A29FD272817A6171C27C628582688101F26C32D3E25D02A4E3D5C28AB217D26D1251C28F5,
28D4281223DE275A2764269D24792C2528A02AA32E7E2997285A26A427CF2A50276D2A6E1EEA2A8127602D59299FF972270E26C726A9302226BB00EA1CE327E828CC20DF1BF22566274C2B2E285623A222EB26A9260E2620316922602672273F12AE1E5A2830280E24C92CA827B93141284126AF1EC7204428EC28282E0E222D,
2A6F279A2658278227172A7422C0288C249723DF2E25256322F8267E27F525A031C621D618262F7E277E22862882EE5427AC274E2655273C2823F5132A221B792D4D29DF1517320025DC2DAC225E2C4B2ACD2644247027E42AB324522578272C21AA1BAE2760288525D013FA26C0266026392BE334FB28B722B5282F1EA42248,
29CE2B952817270626AF238824192AE1257524E827FB27DA27D32887288F240018B221D819A32FDE256D257E2D1F099F266126882801300B2749EFB6EE1A23BD2FAC28F42D8A2848277428AF206C23CA28C82720274327762CB419E927AD276E008C1D2F26D3276729212310269B360F26CB26792EC82D0A29CD283224892A5B,
286328A9288C273927842883274526F0285626D7282A286127A627EC27F5268D27A0284926F727DB28932819273827BF284227AB2885273D28252812280827C327F226BC28B4280228332895270A26B127A22777280F28A6274C287E281226E52747276C26D1284826C5280A28B027632808273327D526F326C326FA27D527D1,
277F2727271E278F27A3283F27DE27AB26A6271627F026A627A32724287A27192757287E2733287928A7274927D927CA27F326B92780288F2825288427632763289127482805276426D727D72857274B286927CD27CF286326E4271B285C27FE26EE2776277F274D2803288727002854281E26E22808281927F22778279B270F,
272A26E42788282F273726EA26FD28802750282627D5279C276027EE276727F827BD282026C32783288F27A426F2286826B8283928452848272F287227B827FF275D26F627BE271426E2281D287A280C2892289B283B28932862279C27F428AA2697281526B4276726EB281C26FE28CB281D280027ED26E6283E275D26BF2761,
27C6271B2730279D282B27F026FE281E27E7288D26E826C5289327DF283D26C228AD2837286B280228AB2736279426EB2816280728712711277C2866277B289927F226E42725272B273E26C6277028A3276C2893279B26EB285127E227B8288A286E287D27062817277826CC2726272026BB27FB27592777271426E0271E271C,
2743289527E826B7287C27C127F027BA2875281C27DB27C127F82805275F27C1276026D32732277827D0289F27B2283C27B627A0275127FF270827A327002896272827DC27102726287E285128752858278B27D227B9283C272D26F0280C27182734288027CC27BD2749280326DB277D271028B727A8280926B227B8283127E7,
278D26C126F927ED2802286D286D27A626DF284B2773287627FD26EE274E275326FD26BC26E727E32875274526E6287E27B527562863274826F826A32779273726C528572740282826C9271127D7274A280527F6277A26B826EE28932747276726EB26962850273A27AC273E289B288C279F2879276827F7285D272127AF2755,
271727D6285828652879272427B427BE283926A7281C2764282427B327A1273727D12731271126FA286628A027C22792270A271F27CB27802735271F278F274D2890279B270D277927C226BC28772704280C270B26EE27C4270B2746289A277627732730285C284D273926F4281F27A3269B27142842278A281E27C628892871,
279D2772276B2833272B280F26F427AD27E027DC27E0281F288D285727E7274B2786276226CB273A288226B427A228A227F427A5288D28B9273D27202787269C2834287C288126EC27D3277026D4285F278727B427A02788286927FB2780279D26B927A026BB27B926C727D9275E287D2755277226BC281527B326E7288A26BA,
26B02738286D280327D7271627DB2846272726BF276D26D0274B275226CE272826BF26DB280327F827D227E4289426DD27592805273C2692287A26F4270F287727E42837281427D7277127BF280C286A26D227BD279327932841277B27E727F22834269427F727C12807276A26C8275A28072735271828A5283127CB27A92775,
278D281F27AF287128B8278026F926A527B9287B27182693273427C7284026C327C22763284D271128972824277C27DE288E2898277D280F271A26E3275926CD27B327C926D4275027B727F427E4280F272626FE26CD26D6287F285A274A2745275526C827EA26C327FD26D9276D287B284F273E28BD26AC289B27BF284728B7,
282126E027FC26B3274F271B26A427DB279126E22810278A27F1289926E6278F26D22886272726B9270E271C2706275726B126CB278E270227402769283826E728A7270527D8284228372829275B27852811270A275726C626FA26DB27C42866285F2743284826B42827281E2725281827F6276F286F26D62877280626AE278E,
273C2736274D272E283027FD270F284E276C26E3274927DE26F5271A276C287A274B2724282527D827032857270428892709283A278F288A2815288626D6269E269C26BF26F3287A26E3271C26C226D328482873284F27BE284D2732273826C526A2287226EB289226AA26F526BE281D28422753288F26BC275B278A281A276A,
278B2891286A26D727C227A327F7274926DB281726C526BC272F27DA26D926F426B9278228652765274126A627C2278927A426F1273126FD285826AA280A286427EC26B627D5278D26BB28142706283428A426F32873278226B626D5274427312813274E2719287F26DE26BC2898288C26D7279E27B6280F26B12874283026E2,
27472737271127B5271927AA27EA2846288D288F27ED274D28A226B927372826279527E228552741289427F6278D289D28242735273A27FB281026DA272E267827E82860278E26F627C8272726F927522825279627C1278B2853277126A826E1286726E22810288C287A2803270B289A285426F527DF275B2710281B27092817,
288A28BB27E727C7283427B427D7279B288B2772283526E3270326FF283027F8271426D2277D270D288026E52771282727BC2715288C27322784279D26D32734275526BA27E626E427612854281226F4288E28282767276D26EB27F827C9281127CB281C280127A527F6275726E028A027AD2869271D279B2870282627352820,
27F228212806287E275927C2281F27D326FC272E277B27DE28A92850275B27FB287F286A28CA278326DD27A427C8287D27DE277426E8273527EA2882285D27F6288B288F26B6289926E42799278827E426BB2761271728BD26EE273D281A26AC27D6287C28432761273A27F42821279B274B2751273227F627662822278227DB,
286526F326D5278727BF278C287728612810286426A627DC26D7278527CE27E5281D281526DF273F2890271D2828273926EE2882288B2743273A26C926B927A5286126D6279F2784280D26F226F027622877276E2892269F26F026C0275B282D2769273126DB271D279527DE280C27E12851274C26C826A0282D280F272D2745,
26FA278326C2272C276826FD26E62709283728962871273C26C4272E2884284527EA27E82686286428932781270927572809274228932763272726B9286F279D27AF276D276928042789271D285127FF28182830274A26EF280A2774284C271A287C286D27B12794286327EE288426CF27F728C226A4283827E22868284426D8,
2784288927A927352871282827B52730281227FA26BC27C62853286026A6270E26C6275E28952714278D26E828882830283B279328002783274926A727D02865278127CB271026EF288F26E2279A2728268F27D327E5283727E227E8271526FE275427E427D12731289027EC27EA2856270A274F288F26C1279E273226DC285F,
27AC26E226F328A8273F272928AE287B26BE2735273F26FA26D02825279B2757274427A926B0284F2771286E28C42796277D2703286F286F271926BB277E287D2805278E285E279D26AA287627C328AA271B26BA27762709276126DA273726B0284226E628672875272F279527B428992778278C26F026EA270E279D28082712,
287628AD277327BA27612858274827942775288D26BD287E285E26CE26F0279C27CD278927ED275D26C427BB286D2705282E271726E628C427A52871280926CD279526CC274E2701283027C2276326DA287B27332704283A26E8282927CF26DB285D27E5275426C72830278A27EF288928A526B32844289327CB2825271C2709,
28A627F026FA26B828B928B0277E26D327622791278E278727C327C02872274B27E826EF276627E227DD272826F72701282726A9288327B627F928272731276A2838281F27D727B726E92756280326EE27EC27BD26AA280826C4287827F82766273126F027EE286426AF278A284B26EA274B27EC28A8277326CE26B0283D26C1,
2B5F3ABD2F1026C62830458B37BB28892585461B138E26C725D327E427B029CF287925221DDF31C425D623712EAA2C3C26232698270528B527192A10257E25C41D64326C1C7B292D26E324DE12A52F472DA2271F2A3925E51C2027C2250A278410521821275726B82FDC112E27223BB831371A272F1A096235B827621C182456,
234C2F2F280527EA26EE37B337382EA6256036EF1BC426D7291729B626EB20A525B82F7D1D862A2626BE29ED2D642EEF254827A626131B7227412BEC2BD025492D9026FA1FEC2C752663159123D33047309825BC1D73261D1D2C26C4264627321F5F314828B827F133EB20A127C62FAA29F52B072C24209F28E927F629322C96,
2B0E2B26284626B6264534DE1FE027A625A034AA1511257B274227A126AB2A902A19299C1FDA1EEE272E2F472DB931482670277027E7268B27BF2D8B2C1C31E72BD31EAD295E1E0425B4254A1DD82B60350D25EA29F527D41AE528D325E4274534421F5B2864265034142CBA27802B952A75291125F72E3C310A282D1DBB23E4,
250E2687224D2723262C30072C4928E825B930412DDF2658237F288927EE2333280B1DE62C761F97273B1D6625932B582771283126D71F4927702A6327FE1F422BCD1AAA245421E825702E9E2F73315334C9273B311827461E8A30CA253E26FB1D6B212A2840271C2FA31FF0278E19B125ED24882D6916AA244826D724F02097,
23F227312A8D281B27512C26259E2F9125CA2B2D2B31254E281928602691298D0222251628D92D49276623E526FD2A47262A26ED262727BE26BF2A7724BC211F29872D1125CA2108250621E9354430A62CD527DB1E9125AA200D288325D427AF211F27EF26A727E03101318F26F830D526432AD12DCD2DF12BA92838263D2A96,
247F2CF022BA26D727582F6424D82873259B29C2253E264D2B022645268F26AD39102E2F22002DF026FC274728FB2D582742272E27071C1E26F4267A251B3CA8232827722DCE1F2D25F31ED61D652F2E3445266225E4270222D02B0E26BB26DE2CDC1E8726B126E32D29294A26CB24F0295E195F29882C4525B027A929AF2A18,
282924412E192749269D2DFA2A8B2818258F266F2B11262822BE2619277B2087121B311522311E6926FB1EFF12072C5F26F028032647239A27C524EC2BA128732FB528172108263125B72E652E6F278831C12600244427A923422B5927092780237D2A9126FC26903015390D27C02D162EB524DB280E2CBC2BA327252887281E,
2F142B1B2D25276427EE335B252A2D722323205A251525812B4D294426C729F0ED072438211328752794241C21812DFB269F283825E5224428171FF22CE329CB2CD227822C7F2FF12538283A28582EE930C82790308525AC272C311C262C26332FAF2193276027112FA3236E27ED2C60232528992E1630AF343C27162DC82272,
2DFF28DD2406275826492E43296B240B254B21E72227260C1D5228562755210F21BB29C11D1F2AFE28BE27BA169D29A026EA26D3272F1D3028211FD726F220442BB3274E29C31C5E25992D071C9E29E92F2526292B1025D52D262F9D26FF26E5236B2EBF274D269E2FFD296A27162EB027F932D02A582F3B23EA2885295A2E83,
238429FC2240267227BE30B32EC72899248924AE1D8A25862DAA27A7268029AA2B6A214222A12E3A27E122BE1D5E2F8C26A2273225E827A526AC2020257A305A2A2D35852757272126483075220C2B1B2DE526E1256926BC233132272506279F284824432861269331522E3F27182C7B26C32ABA24DC30E12ACF26AE2174215F,
2ADF2333210A279C26CD31502FB527A1240C24C11EF2264F22CA28D6289224A712361CFF279926F8284623D920282A1E2768284226132818282628262B9B21F72EEB2C192D0E248D267632952A732EF7313E272920AA25C826B42DFD25AF27FC24E923E1288527D4329C2EF726762D1F2527304E308321C02EBC27E41C792C7A,
294D27711CBA2746273731A71E8025E6252625CC25D325651C8425C5282C20FD10F42BC731BD28F5289D22C12AEB29FB259327A2278C2716280E265024F62BC62C512948303420DF2573230A1F662F4431772765290C2610296C301E268026501B64252E286027992E852F40268D224A25E430BE2AA5213B2DFA26D11BD81BC5,
29F427292142270B27AA2CD220D028EF24F921341AF02586276E271127862CF21419291B30CF25E3286D215E2F45274625EF273426852CD62800258E2321295832ED2C7F269E263124F52BD826352DAE2D4E27082848259F281F2FA42799281E1FAC1E3A271627D22F3B264226DF2A8C2399278E27821CA0287A26A32B411BAE,
2FD328F1289A270627FE314E20E9302C26541FBF29D2271A317927E1271324BA32872C5625462837282323182FDA2FE0255628002659274527DC26E629161D452AC0243C231827E124D322CF24A82B5F2EE7280A21AA25CA28923184271C27CC2AB11F8C278428E329D3248526192AEE2EB7268E25DC33462A6B26CB25312678,
28B1229D22F226E6272232052BE228C324DC25872EC7270C1ED428022712272E249729EC1E91297A27F322B02A5733A12593276027831F1526662B3B29512FF12B3325671D2427D323D41FFD30952CDC2C5B274B2314254729363487251926B3174721D42712287C2A502D1525F31B6524D4152023C824B2265B26EA2D661EFD,
265C295F2BEE276E263935B02210253F25C021521DDB26EC2B8B2671276B2830378B22412F2128AD27D21ED719012E0E274F276126AC16C226F929D528EA2E382A5B29A822A52D2123FF1C1623BF2ACA2D612731273226AA24782E2B262B27682B401EB92838285E266B286E26652E2028F12F6F27912E6D265427FF2BD429C3,
27BE26E7286526BD27982EE525BE26D124B11F011E7925B01E7026FB27921EFE29A228841C57249B286F25311CC22CF725E826C827EC1FC3279B3294249F2120215724E62C412B52262C27B623A6305E2E72282B2728262A38932B44251E26962CB32B2627D827E4313625FF26F62BE925F631082A192C192EDE2758253E2DAE,
262D26E9258C27CC26B03069219B258225362D0222AE255B237D25D427EB226C246426692817184D26D321052E7529BE25C827AD286C25F726C336A5259A2D9622BE26F72B0D228923F3322429E82E5435D2279525E42620388A33A4252B27EA2A0A2AFC272E26DC357524D026D626962BC8267C23F3293123862685230E2B5A,
254D2E552A0F2781271B33E822BA277D255F24BA22502579206126C526E422832AA11F3020621D88275722451A672C2A263426E226821E7427D1321425A928E4326B332B27231C8B2477316C1F0433FF35EC27AD2DE526533AE622F025F1280E298133802812262E317634CC255E27872C082D6F2BB220552999266F26E629C7,
2B99278C212A27AA280E37111D892FBB256321E91F21259E2FB22688269D25BE31A72376216B325528A0297021BB2CF927132725263324A227E62A9B26F12629322C2B0D20251D72277332DD191631E12BFF27C424A327253EDE0EAF2687264B18B11F48278B2720330D23E724C831352DF5303E307A3078302D276C2B8724A8,
3223290215BA27B2271F334026D529F5266C1D431CE926D91FEE264027BD24162AFF1F59131F2A33285C282B27292254262227E12591277526D327A9269F18133F7728F3312F218127E42E5919AB2B932A8826601CFD25FE36AD058A24AB27661CF1211326E2261635E72A7425A835A928EF2EAC276C3B7D2D50276D1D212CE7,
2F512D0011B9278425EF363D230E2AD524DC1F400D0226A51BBF253226841BE8197A279C16BC2913288F1CF0226029B5275B27C526B926D027B5256825E325C43DD438632D952FA22635262B21C12D0B31E026761FAE25CC2AA1FE9324AD273C14D1152927E427103DBD28E225A83CD72B67312B2CED3E62334326F3270E125F,
1BA43E782042269D27F5363B378C18C9267453C12239268423BB267F26D025FFFEF0355F30B425B7279A27F12DAC30EC28C027AF26842A89285911C5643D332446BE336630D3236825E23FBB1F5F25971FFF2823308526114D723904248527DF2B0D395226C827E537D31CA2271F2CB11FCC26260D2A6D0B1AB728E22F2E208F,
1D95278F2CA42871285C2689159C227F280C21991E48268A27F6297426F724A21AA2157115F81C37293D2F241E1931A3292826F327022AD527EC2A7828BC2B83241D2AEB1D2D3424268D15EB138629ED2E30267E26E326A238E239B0259C27BF2C0224C52723278724D232B627F61EF922FF34102FBA2C2821432729137924ED,
24AA2A652CE526C92678209632D6258427563E5E3B0B269F32CD292D286734F941D438693CA53BBD2A78209F2DA82B0825D5283E26F223C927692A14459A0F891CAA2664202B1D8B25A930361CC1210A1B7326513361277435E830B7267427A32265292B27F526801CBD228A280D26D331E020C222E7442D32F026A327972261,
252B35861A41266B2826270A31CA24BF2600321716FA25CE2F5C28F727A521B2283A215C3B3F1C0528EB2A772C721C2028A8282927B12E41272716DE493127EA190F20E233DB285726DE0CA7186F2B842A3626482AD928C6459634D0261D273F21002CBE26F526992CF4136527672AEB16502B7C162C2B07250B26A12F2E3325,
22022F5E207C28182748204C3A3F2139260F2BE6257529352406297A277E265F046E24C0249435B629542CBD295518B727BC271926C91C1626C532CB3FEA196F241B23952F7C263B286F325A3AD426B623CC27981EDA27C53A0E356C285D27F821582D0E27D928A3284315CD269824FD23011D03260037FF290D28511DA71DBC,
2DBE36E61E73263D279D3465216F26EF24CE42FD277F284B301F27D6287A1D122DBD157D267B275F28A824CF273C1C9A2749284726DD27C626D9FDFD44D43D50373335C7022E2D4E280431AE1F232BB527CC27F53E6827D1367B2C9F28EB2773338F26ED275B273427C0199F271A1D2C28512701F9A12C2F1FEF2777202B31E7,
15C137C318FA264827D7202236601E4525732DD72C6D29C11A92271D27022C1B278626AB3012147929EC1FDB26AF2B5B278E280225E830C5286E1C19319825ED221C1FC9285D1F3A26C421FD26C4261A1E7226A0190B270A3BE736EF2A1F266E0ED729F52711270E1E1326A72692292A2E141BF51B9C30422AFF287034D1266B,
25533BD6163227C9270025EB2F0C2BDE25BD4C042DD9280C3E9626C8266223EF069521672ECC282F293132762E6D46CF26CD279B260127F727CC1BAF55D71E09253A285932DE2D96250E2F7E372D2CF32B6127252BC027ED3C26248C27A62852183A2C2826D127E022C0324E27B51F6B25D62F9D14192849291E26DE29DF2A50,
351822A43AEC27DD26A831E62FCC1B6324422CB81DAC255424072694276828CD34AF23510A86257328F12C422EE10685277627AE2818301927951C675D421AB71F152BA92B7F2B77251C0E00174127D926FF274827432842328C3998280A26C243CC2BCB27AA278323FD2AD627961F2626A8328E1F07311A2223267815401D80,
1B7B4194204427FA280430451ECF27C9251E4652246626F11E65280F27792AB441682EF3371C221626761EC72F3A42A428EC276027392B3226FDFC0D426F1F3B2AAB2D0632B42AD026E92D45294E28BE227B28AE2CC1253D36DD2ABA27F527631D3425F726B728362E7E2E2E27D232C81ED727692DCC37ED214A26D034C220A8,
0E8A2C3C2934270F26CA2D4837E2200626A12E3030B925E630162816288A28B436D425AC3351328E263129F62B102FE9262C27B626D7281F27C00F8A3BA73B9C27C31CBB0E2E2750277418E1306426712A0D283B276A250838E7329C25AC26D50A3B3428286D285A1D871023263619C1305E0DEE17D0301F347127BD298B29EA,
269335902C7F27B027022329297C2B7A27DA456F2AA326BD2D5E272926A428C033852D5B27F5247A26D530102A20251C262D275F27452F5E27BE143F365E2C41196E34883085317726C63B8819A5298A26FA26A919BB256C2CBB2F7026EF27E73A5C2704279B2813269F1CEB272F2E7C232D1D89EF8429161FC726870E7B29B8,
1D3438D124DC2701274F1F002F28225527293527274A275824D3286D272025AA2C3D1EB029B423A82715285A21AB17A9255927282845212E2880FC393A231C6B18B519AD243F2598257B2ABF22E82246260726B84560263332AF33D826E8283E2EE035FE273C26F528C32837275529612B563D0708932BB425FA27002C7F1F83,
198B29AE16A426E226F42D0E35AE230A28EC3D97273D25D435F2262127052093332B2E912CA51E2D2567273322203988268C2813271C2CF3278B19B3432A31E816752E9B316B2D3826D2240322B02A7E1FF127B91247258A2D7C328027A226711729288A26EE27AB2198291927BA218C1D8920692F0F2FA51D7A27631D6B232F,
29B72E940E4026D32712209625E4235929713B1E294A26B21A17274C270A299931D6256C2B072674279228B627C737CB257A277326DA273F284D18DA524E1B3D055C2D86253025C925AB21BE32E32BC329F426632A8727332E7C388B280F286E1F682C4C26B426B71E412648276533162C1C1DA7FB6B295B2BF826542849297F,
13F4316B345827C227982711268D20C328203DF8255D263B37E026DD26B02CE228EB28AF2DA02771260C29061F6212D1259E26D0276128FC27BD30FC23241FF1F15B19133052229B26DC2BA4248D2300281928942D2026F528C1399227B527B42FB01FB8266B268C292D150526641F8822B62D71172429B31F2927560D4F2207,
243B24C71928265526F1266737751C6228A737902B92252824852708271D21C028C32B5D2B932A5625B22A7C214A128926A02729261A285F26A50853239328DE000F1F6E09A12E1B261814C219CD2D212705284719742667298631DE27BD275B1E91345F278926CF24DA233D256C2A8922771FD41F5D24372932265434B624B5,
1804323916842830283422982BA620E828A6378921F528CE261B26D926EC25F72827218F348730B42565262320F349CE2764278427A61B6828990F5F45362DFB08BC25E927A12C76283F247119682126260B267D33EC25FB2775419426D926222ECC19A126DF27341D8D3A9825A83120273C2CB113DE2A3D264626742BF129BD,
21C02C0E25BB28852766234F310F1FE2285137FF2F1726A2262A26E1267A328C1FDE2B4431102DB625682787363C0531280326B7274D31342724392D2E3A1FF4EE55318D2A9A20B928A9252F354329BD21E025FA1762269627283E5826A7264020722F67275C2797230B1BDF26AD1E41272D155314DA32C8287C26EB25651B4D,
11732AC5220B26EF284628F026F91AE32828360030F527A72B8B26B927852397171B1F8F1DED2FA4270A216B1F7F3D6026C2280927BD29E12719282E2B2B2E6605EF1C9D174220F72878067025AC243F29CE26602BC326302897409C27DB276F22A5264A27F2276D2255244A26FE1E3624F021251DB22B0C23B628CD24FB2ACD,
1C962AFC2BEA286726E91FBC28942414283134B121A228ED237A280226D12E5D341323BB318E1D2327152CCE220801C2272E26B4263C24DB27C71D962B510FEA034720690DB9268128CE3B7C185228CD1E282724248426EF257F2532284A256D23962A3D2851274C283E233E274F2541282E324C120C2D57230B26E8265824D2,
1CD93B841336271F27372F1F323A0D08288B461A2BED285C15C827E226BC2269010F28EA2C7C414B26A827EC1F7D1DC8285B280326CD255026FD1C7E2219216DD3751849FD162B49286A1D421DB42C702E7527C7261326E724D73109268226CA276E2FE7267927C81DF42B0126512A981FB2252EF3B53105206426991DDD1D6A,
3A783CD12BD425FA26E12A6229DF2AA4263C3C1F412125331DAF2662271028C211F3343A217C298C267EF6334C4D2D50269726B3269A27BD275A19C7263F16231983215C293D2691266732B6333C1EBB34EF27B23AA627431D9F238E271927532B0C31CE26E4271838EB2554258B2AF931A92A9D2DEA1178D80B26BD2EC50AB4,
301030222694275A26BE313A26AC2D6024CD36DB357B266820D125CE278E25AF24E510F92EAA2C1628A82CED22E229EF252B287526902D4A277D23B822CA2E28287D28A01A18202F278A23F00F9E289527F126632607260421D126E127E728AD30D12930281427403496257D271C2E1E2C6A262F27710F0D21F0264C290E3B14,
2E2A28462142272127842C472C27266A255E32D63136267129C9265928282BA01CA02D0918C62D5A288F18C02F8A287527B126BD27B12A9D271E256625A22C522CF72A1E2EA21E93276C2625254925B92DA2277A1C59268421982A6D260427B225F92C1926F4268C317D2E0B2802210D233719DE196C1C82166D268E1A1A357B,
2C1827EF2E90267D267D307C2AAB25F127C92E2E30E526AE1B4D262327122C4D291A2EE333981CC826D118032FD5296525C127BB2665299126492444275825F423FD24DF2CF41F3826AF29AF35E3274C2E8B26EC267A259B26602AFF274C279429A82BF62760281B2AA72C9226E92A7629DD29D61F08288504E8281C240B260F,
309C2B5B212C26F7277D2F1223872A8D271930BD332526BA2B652570275C240D3062285C1D3424BB267C22632CCE29EF2A3D271027352BCA26AC2B80276A251C22C31AF72F4A26EF26AD2C6E22CB28A32B0725C4295D25F420062BA72821267C25CE283326FA27BB2C16281B266527AF2753261E1CE622CB15CE27F22DC4204B,
30682F39232A27AC26482BA129162FDC24662D662A7926BA25F5269D26832B4828C52782264A2E7627F92FCF2A2927D12A82280927E01DA027E9301226072AD321CC28041F3029B4260F24202B0A2A242E522671233125641FC22951277E27E02467275A27A0282B308425C4261F26A62BAD2BD320A524512B3F27F535932C65,
2B06256B25E1275027B125C332B528F325EF1ED622392597278427F1268C2D7022AC21892F891EF326F9269324922A3C2AAC27CE262C2A2F280134F026FE1FB12E952F322C2729C326322BB42D492CAD2E93270F22ED26881CC021252646278923D629D327CC27E827423191270829441FFC2120255D2B3C283127871E40338F,
25592A4B1D98262627DA229C30F52D5925441E0829D4253B277C27B626CC201D29FE2FF12B001C5826B929862AF9269325C126FC26C2285427D436192A3C348126FB25F92C78268323D027312773274528D92824257B27C11CDA254F26DE26F227F22BB926C527732CD02B31273B27181D402540241D3DEE24AD2682247C2225,
2BA12EDF301E26FE278324A02748281B25731E5227EB26D11E3A27202778275925DD2B772AF92C5C26071ADE2ED62CEB2712271726E1269226C536F727E129212CAB23342AD12EA324BA3250276820D22B48287A2A7528141B7F2CFC278927B81A152CF827BC268935F131C625E42FEE3310289F1F8D30E6157D279428731F3D,
2CD32B1B2797273726EB2C102103281D25A4220C33A526F62EA52928284928B01E5219F11D3F240E270F1E072ADB2A5B26FD2794268E22BF279A3421281829CD2C01247C259F21A824192329227B201C27C52786393C26F524C82D56267A2742314329D82843270D30702B00253125E83067225B236A31D3156F27FB311228AB,
2E0F29152BD42783267D26E927722BF1262A257C34A72691214A2804285A2B751649256125002967275F290D26682E9627442680268E24CF27C82F952C4C269129C82F882323214B246023172183246F227F2759270B253028A5304C26C526EC272924EB26E127722F4D29FF276A25FC2AE42201269928CF1DAF266F24B029F4,
32972A582D95277C26D826E11F00231F258E2760324926A41DC2279A265B24CF1E7C2E4E2BF62E742594145232B125022A16274F28112D35275D2D812BE437A6271F229C243E2154256E2BA3294020DC2CCC26991F33269025832EE8277226A529C332F4268F290D328D200C26BD2122296A36142490211B1559286E27702924,
2A4B2A882FC92681261B2CC328252984245426A02C52263F2149260A268129C714142BFB1929288527191865357F225E284B26CB27BA229227D1269B2C132063289822D4328B2539244820B82F572676246A27622F3F25B22A8B2F2725FC27502DAF2215276F278B3067290B26DF2A2727ED21D0276C1FF60F6228512F0D18BE,
2DDE2D132EC4276426BC2AE524AF2958259C2013366926442B362745268629541A8D174628692D3226F817232BA0284E2744273E266B2A60267F27F7291225F21A6D39921EC619722484250525D524C5296F27AD25BB26AE30303847274028052BED2AAC277B28822C9A241C26AE246630471BEA284924381944283B255E2DE5,
2D9524E11BE2273F26752B2B210E297F266C20BA25962713298527E7278D27481ED53222343B26D9277932992BAC28EB25D626A027E831D127F724BE2AB12B9B25D423DC21222A492507322F233229962CEF281120EF27342AB432F026FC27772A352AA32823287E28F72875265123EF21F62E3B2AB222AE2E4F26B32C1F2DE0,
259F22622E4F277527BA2678273E28FA277B2078280B26B52460291D2751341D2C3C2AF629D81C7026F22F3B1B4F2A212641287727071F4E27B221922A2718D629AA29B725392653255D2F0D25B1295021E028121E2B25B32A643195285128302EE3249B27AB28DC263B343927AD27C122441CFC2DDD28671E0B26E92F2C239F,
2C7D26951BD326A0279B2477278A2952263B220F2CBF26881D062899265C26242FF524041A5F2860263617812BBF2BE1254426F7262E2D96271C22B628AB2CEC2FE12CB53541262725DA22422DF1259E2ED226382BEF269932BD25EA283B26A1219727BF27AD289B2A7925A525E129AA28582543316F2DF01F8726C926661DA5,
2A25257D235727F727F12CCD2743270B282620412D2D25D529F42690280E272D23C4220E2ABE2AD0261D14E428D92CA2258426FC26A81E6B283E1F572D002A9725E92978222930012529258D2248298F28A2270F29F225582C2B2568280C26DF1E982C17263826E52816329C27C62F7A2BB82FEB2ECF29B5294727A62102300C,
32F031422376270327392A3227692F852898241F2D95271522762723269A2AB529BB1E493716253C27291B552C1E2AA8252627F0269D1F1D27A3188E285522B429AD2503202A21D6288428511F35259B2F9A267C21EE253230DE27B3272B26E92B12355D27CE26C1337D2D55273C27A3304B21D832F32B340BB828652BB53466,
2F6A2A682EEA26C626432C282BF7290B27E81FF92F8B2699272125722849255E22FD2C5B24742241268B20E73364232025C3273E267030B827EE1FA825862B602AE433D12845278626512D9A23E426052D8C27361D3C269434291CE9262B26A5295E2B7D27082805300B2C0B2710291A25F7261C338327141325271820DE293A,
2E3629F1212525F326F825AC2133287A28BA23CE2EC226A82906271626D826C62B913FAD28621FE6262B1C2928A62238263C279026C729102712275A25D31F5E2BAA24EF1BD71F6A27171C28262826242B74267F2A9F264635631569280227D91FDB287527D1269B35321E2C281323DE2ECC307C3245285F206027D01FD910B5,
3906310132082673274426A720672BBE290823F1481927751B3E255E27CB2C631D9919F926EB35182501FB5B46BC274426A02746267D265028802A1321B328C82D8F1E4627672E2D26402D9329F31CC12DAC26C63DBF27B4333A052E291527C62D2D2A4C272026793E051DB2286B2EFA2E7B20153541355CDB4D27212BB93036,
0000000000000000000000000000000000000000000000000000000000000000000000000000000000000000000000000000000000000000000000000000000043FB3F333BAC3E4A3F4244724D4D4792435F3D9B3D354C473FF9647244CC3BD943783B4635473880323B3FAC413641F53D9B3D52400443862CAC474D334D3C24,
00000000000000000000000000000000000000000000000000000000000000000000000000000000000000000000000000000000000000000000000000000000589734A736072DC75B223EB0592A3C223906447B36CB541B3B7A392C402457CB3AC3443D417F3CEF4271376034B6360A435F3D2537C652FC288B682948BD339C,
0000000000000000000000000000000000000000000000000000000000000000000000000000000000000000000000000000000000000000000000000000000041023F763DA4488742A63F9D407D3F9140D443A53BAA485944583F4C48DE3D8E407542473B4A470F45FA417C39FE3CDB409939BB429B45F842483DE1407A3E5E,
00000000000000000000000000000000000000000000000000000000000000000000000000000000000000000000000000000000000000000000000000000000360D3FC3399F37EF49963B044582465F3FA255872A5A1F3E47EE398C4426F746623D30D442113B7F36CC3E9137EF42D73C033F283D094BA822CF3D5948C13A2F,
000000000000000000000000000000000000000000000000000000000000000000000000000000000000000000000000000000000000000000000000000000005A903263367A37B744823F270030409E41C84393359A1C743F854037364736DF402942882D733F3033403B913A6E341145AA3F2F3FC242BC14F943471F463EB7,
000000000000000000000000000000000000000000000000000000000000000000000000000000000000000000000000000000000000000000000000000000007BE1326335164F156BF654EC4F6471833EB17FFF3F507FFF3F9C638B3CBB69CB25B57FFF396E2BBD385AA70A41F03FDC30B833A0329451FA354C3AA940735C94,
000000000000000000000000000000000000000000000000000000000000000000000000000000000000000000000000000000000000000000000000000000003DB7396934363F2B455B474140C453D748C643CD40821C8840134B64374E498543B140FA3BC040553CB13D5F35C143A247003F2937A05186B8BE437B45CB48E1,
0000000000000000000000000000000000000000000000000000000000000000000000000000000000000000000000000000000000000000000000000000000028D23C0F395E39C34BD251533C1E4A124D3043EB3D571CDD3BB54E6737EE40C637DD4C44434F461133DA3D51369E32934359495C3E5A34905BEA4C2849E35099,
0000000000000000000000000000000000000000000000000000000000000000000000000000000000000000000000000000000000000000000000000000000037F134763BD93F68441143F03D103ED743B740BF3AB3428D2853251939B13DBF452E416F3647420935013FA32C1A330547204398419D481916F2F4274518397D,
0000000000000000000000000000000000000000000000000000000000000000000000000000000000000000000000000000000000000000000000000000000040BC429E46253D5149A240103A2B442C41453DCF40F343143DD339A03F2C40813AF03AD73ACD457647523CB341D746843ABD3AA23D3C3E963FE93EC648683D26,
00000000000000000000000000000000000000000000000000000000000000000000000000000000000000000000000000000000000000000000000000000000FD823FB9347029B222F244A636006C84330A42E73A8826FB44313C883B3F7FFF3670384B3CEE3FB938123C953F423D853F0E18F73B5B476D2560585A42B52266,
00000000000000000000000000000000000000000000000000000000000000000000000000000000000000000000000000000000000000000000000000000000437C377A3BBCF5AA4120424046DF363F410245AC5D565CE942A53D6539CE3A334130420D36735B0F3E0943974100381A44A92CDC35A9422542E4467247FE4144,
000000000000000000000000000000000000000000000000000000000000000000000000000000000000000000000000000000000000000000000000000000003D75425E4418382139D040E341A544B83CEC3AD143423FBB40033AEC41D23E723D1345B43BE0391648EF3BAE39B140BC42223B553D443FA741B147D0450B3AA5,
0000000000000000000000000000000000000000000000000000000000000000000000000000000000000000000000000000000000000000000000000000000045843D433A2148893E183FD73CE643103E5E3EEF401440FF3E5D3E61479744063F3E471547D24165433643523C2F3D1A410744393FD9428D3EEB40433FA7463F,
000000000000000000000000000000000000000000000000000000000000000000000000000000000000000000000000000000000000000000000000000000002999306C4076437940E8370F4BFA43583ADC388D38034330595134193AAF336C3DC83DBC35BC35243B0B47B738B936FC3FC040B73ECA4E1F60954C193A3E45BD,
00000000000000000000000000000000000000000000000000000000000000000000000000000000000000000000000000000000000000000000000000000000077B31F238672E053C961B7821124250339D286C47CB2FBB3E663E6533EF28793C8648E03A1351BD3C5F2BF534C53E82FD24429639BB29063F9E36DE394F5AC6,
000000000000000000000000000000000000000000000000000000000000000000000000000000000000000000000000000000000000000000000000000000004096453F478A46CE42C43F6C42CF462B3BE83F74465338D14529411B3E9E3A12466C3B903A3043664795419D459841EE49FB408A3A8C4026477745E0439743FF,
000000000000000000000000000000000000000000000000000000000000000000000000000000000000000000000000000000000000000000000000000000003EAE3BD0407C3ED83DC53AE03B2B3CD64B4C3E1B3AF7430E49103D403B373EA53E814BA140163A203D1A436B41D039A343E53F8F46CF477B3E923DCB3C773C4A,
000000000000000000000000000000000000000000000000000000000000000000000000000000000000000000000000000000000000000000000000000000003AD8360E3F9A38B0401F30C5E47E490145BC3E372DE243AC33AC3E88376442EC40B643A63A8D38F43869514B45AA3BCB396C41A03A9A416BDFDB37CD14A44855,
0000000000000000000000000000000000000000000000000000000000000000000000000000000000000000000000000000000000000000000000000000000051A234153BD837A543082A81FDF03C2843E640083564457F370237A64431398F3C4B40204273448A3CB446B339213F7F3AE944DF3BA7410347D83AFD1B063CAF,
0000000000000000000000000000000000000000000000000000000000000000000000000000000000000000000000000000000000000000000000000000000040F73B1B39303C4C44433AE137B3432A44D942903C1D4427406E44743C1848173EB03DC93A68465548F73F1745AF43074725406E3D49347B4368404642913CF9,
0000000000000000000000000000000000000000000000000000000000000000000000000000000000000000000000000000000000000000000000000000000045B4357E3FB33E443E8F4383518C42C5439C3A343DCAD83F422367AE3EEA39833F5B3C1F413D39EA3F0A42D234B442143D3D412A40C34411306F484231B83B18,
00000000000000000000000000000000000000000000000000000000000000000000000000000000000000000000000000000000000000000000000000000000483A3A6941FB447A3EFB3C9B39DA402043D740D03C183D7B414A433D477541DC495F3E5644A042FF482D3F4C3CA140A83F2C3CB644FB3DF7470E41A33FFF43A4,
0000000000000000000000000000000000000000000000000000000000000000000000000000000000000000000000000000000000000000000000000000000037EE3B3338523CF64C974032483B303F442939BA1C692058448D45D73C7619CA40164A442F7444673D39417F2EE63A9635BF518B3A493D4C3C7D4322431F532C,
00000000000000000000000000000000000000000000000000000000000000000000000000000000000000000000000000000000000000000000000000000000293345D132FD547C3E263A3F4B7A37E742DE466959650B1944262900333F4EFA3D54440B40330E063D5B440C3DF63C7E365B074034E93BF3467E3AE140833C4D,
00000000000000000000000000000000000000000000000000000000000000000000000000000000000000000000000000000000000000000000000000000000110437FA38D945FD3733428B561618DF3EBB30DE450322EE413954BB42AA39103CD042AF3CC93F1F3D5A425D35733C3319A93A4242954F304FDD50F814F553E1,
0000000000000000000000000000000000000000000000000000000000000000000000000000000000000000000000000000000000000000000000000000000047D4449737A84BF9484F44F245ED2E574CA14BCE31BB70FC1EB651123B513BF755633A8C32393C4C41C6380643C1432A314D304A3DFB5D294AA02C624A0B4438,
00000000000000000000000000000000000000000000000000000000000000000000000000000000000000000000000000000000000000000000000000000000454F409B444C39A043DA421342833679411F4ACD3E8A3CDD3FF8431C3CB23DBB4E1843313B5D435C43193F743CA742783F7430EE391944A2434A4079351E3887,
0000000000000000000000000000000000000000000000000000000000000000000000000000000000000000000000000000000000000000000000000000000029573F7F41094805433042ED3F4921613AF423394E860FD847D14A6E42B84FD61F0D3F7C3E203E1C37624480375839CD385A3BF83F8F4DD51D734D5239151603,
00000000000000000000000000000000000000000000000000000000000000000000000000000000000000000000000000000000000000000000000000000000615942823DF33FF661124A642084DC782A82468849BA4FD6478A28E93B9D37633C914379368E39023AFB3F842F8F36A25DDF3C693FB3649F36F05EEE4F962280,
00000000000000000000000000000000000000000000000000000000000000000000000000000000000000000000000000000000000000000000000000000000413F3DBB35F936633E2F36AE47505A9240B44CCE2F8E403B4A173F1537E7285545DC39163AA44A6942EE421A3D5837033D4A47E33F0C50EC38B13B954679370F,
000000000000000000000000000000000000000000000000000000000000000000000000000000000000000000000000000000000000000000000000000000007FFF3F2134194E833D7E42BE4F334E5440AE5365468929633705488E46E84CBF36C449313DD647A2369D367D36C63A931E5640303E074B362D2E54084C3A538F,
0000000000000000000000000000000000000000000000000000000000000000000000000000000000000000000000000000000000000000000000000000000080003EC3436BD96F37263C363A01FA9B102511CAD1A33B00472F31AB37A62EBE473534673FD5D23A48CC29FB34943A674E6F29253C9E4FC532CC3F1B21CF4472,
000000000000000000000000000000000000000000000000000000000000000000000000000000000000000000000000000000000000000000000000000000005AEB41613FDB295024C0C9582E744B47F6FCC9AD257B2DE453410E573F0CFA4948E41A9C4558F19243DF6D613EB936864ED548083D892E4D7FFF335480000839,
00000000000000000000000000000000000000000000000000000000000000000000000000000000000000000000000000000000000000000000000000000000E0ED3EA83E3E80004AAC63B54D0F1A5A39E95D554E88370246127FFF33113B8E80007FFF3CC44D413F178000467840B9748D800041393B5A43573E5A3EE062C3,
