memory_initialization_radix=16;
memory_initialization_vector= 
3B7F1F53AB1F073F361E6FF71F217F10211AFC1619011B610067F31B45E42C0080505C1D441A1E1DE7091F14181C271D9E1F18D019BD661B450E561C1E801A67,
F46F1C39EF051D250822F807201A56291C1A1A22163F1B2C17673C1F3D051A08DE42471A2E1A18191E030C1B31193AEBF51E1D1A19F83B162936291E19E02E46,
FF641FFB39F92E2EFC1AEC1D211C6043201324F517421B1D19302A1915432926F7313D20001C1A1C39290F1A123C1524001A1C12190D35161F05211A1DE71432,
46352048FF0A0A281B2007261E1E335320141EFF1B2019322210FF1EDE590B1B2F351C221E191E1B37111A17130D1D061F2015F716F72B173436461A19122129,
31E81E211606062F121F10251E1A0E171F171A1017031D1E2E034121F54E42220A210A21121F1D1A3A2710190A2425C31B1D1B231BF234183238361C1C28422B,
181E2027380021171719F91C1B19082B1B162DEC1C291A1E0D1F001B2E5E190744181820321D1A18361D151F27261F1F181817301A2320121D22271C1FFA4646,
FF16203733FD1D29361EE92D1D1A0B061D1A2502181822111A1A45201B602300D2090B1B1918211A1C38481C2E162BFE321D16201C3B191438471F1E1C371A27,
34F320121E07F90E0C17FD1B211D321D1B1123FE18201B110F253721072D3819050F111F481F221910112C20211004D31D1D1B341D24091727241319182F0025,
2809221F2D1B0E2F1316F0111F1E251221173F2216061B2411122F21291D0C1EB806041D291C1D180E010B1B1B411BF6281C1520191C1018220A0F1B1B3C2329,
20251F173E1E1534161735161F193B3C1B142C251B1A1C2913283820191020151106131B211B1C1A0C1C151B0D292CEFEE21180017F6ED171123251B1B6E2B39,
0A1B1A4A3314F3022E1711091C1F54311A163F0214351A2A083C23152F10231BD315101E3C1C221D11171721101B130DE32015F216FF0A1B36072D191A292D2C,
2C3D1E2D3128212E301A2D011C2046361F1C3D18152121260F43041D29142C2AB318161F1B1A1E1B21231A20034A331CEA2115041CFF171F2636131F1815072D,
20541D4A1A35022221173C0E1B23573B211C493B19191D44094FEA1A2817300A00311C1B1D1D1A19272F11203B47382A071E16F11CEA211132261E1A1C130626,
10621B1C0B30372302193A0F1D1F46161F1733111C232024220B161CF848190CEB24272012191E192F1AFF20102B004B221B1E161C062A16390B2B1E181AF82D,
2C2E202EFF302326141BF3251D1E1B1B1B142F301B391C0E1C150822083119132128301F241B211A4429321C2D1E191B0B1B1733172D0818211B26201EDF181B,
491C1E220D332022231DEC1A1C1D15541F1B211C19191B231D19321EF2741A0A7D2B2920151D1F1734290C1D15310B25121D223A162F00192A151D1B1E121222,
19171D1B1D361E2B131ADC2A1B2216281B182F40191C1B0E1D221F1FF82B2337C339251D1E1C1618171A361F19F324EE381B19251734FE1A24301E1B1D253038,
1FE723290D3D0F28091F0D131D1A2B0E1C0F295A1A011D0F14061E1C40552206242D1C203A181C16121E381E601F3200221F1901180E21112925161C1A12282A,
050322211A330B252C1D33FF211C2E171A111C4E17211831041523202F4D11322E28181D2B171E160712361D0F3B11F9141F1AFB1C10FE1B22261B181D35144A,
1E02212E183517311B1318171C1E34271A17FB47173719331B0E2A221D2E40160723201D211D211D2214101C0520252E0A1D1A3119001B113934321C1A322540,
17D41F35372E151A281760271D1E47482116EB2D1E0F1B49225B312220162325830A1F1F2F181D1A3511F81A281C3530F81D1A0526F8071620111E211E6A0534,
20801E613E2B1B35F31B7F261C1D7F551819C621172F1D59016EFC1D19EF1829800C011A47181824FA340E1B126C0A448D1A19D918BD1A142605211C197F2D41,
205D2041200AFB0F2819381B1C214E371C19E52D15F41DFE7F075D173910803CFDE2A6227F191A2C3B7FFE1A1910DDAD451918EC17005216090DF31C1C2BCD80,
30131B47082A440C33203016191C461B20163A0016E91E0D2FFA24164A21BD0B33DBAC1D521E1E1E3642132113552C540D1E282419205618323919211A334BD0,
EC272033B466162F2F18EE08191C6D4E2013262D162B1FFB60503819183B801FEB19CB1F271A1A1AFD1B0C1EED2068CC251E20FD152167204548D81F1FF10183,
19561A1C077B121D181B00FF192026331F1B34131A4B1FE653E5551EDB12B5F9024ECC1E621B1E1A1D3F3518263E3C45391F254F1B1F3E190F44161A1C221681,
4E041E253F7F0023171E030A1D22402C221A1B1A1BF9200C43311A18415380313C2CEF1D491E1D1F254EF9161D00FE4B2C1A1E1C1725261D4DF9311F1D3120D2,
0B471D58127FDA0E1C18D936211E34421C1A101818191E0B292926162900330D24511A213A171E25412FE71B0AEE191E1E21161A193715192C7F22221C0D469C,
FFFA1E19197F0F2DF91A3D2524203813211D2AEA1C2B1E0508191D10653E1806004F3D1E451E1E1C1FFF48193E2448E2422125331D161F171DF40E1C1E4E0FD7,
F9552107567F03280C20260C221E11461E1828F11F491FEA462C260FF30393192F72621E361D1E18002E141D3B142E0B251B252F1819F914152235211EDD2E08,
3D1C210F347FFA01052171171C221F241D1C11181F05203261211914184DFC1423796A1D191D1E17282DDC223C0BF4DF141C1DF216372613160FFC1C1C461FDC,
38022126537247EB45203F111E1F38101D1E32F31CE71B022DF6601B0C2FDF2E02755E1B2C1A1E19ED071B1B24F82F0025221DC31CE21B0C2B1AF41A1D47F9BA,
1E3B2117165211152716162C1B1E3D2E2318282A17161DED61226C1F362AB025F077571E392018181C33FB1C11470C4D221C20042018F5150A1720221B1718C9,
35071D5321350EF50C1558231C2049471D1C44031B2E1B1161DB1210FE23E11E437A551E421A1A181D26F3175437087F291E1E0025FD2015086D231C1B4D1BF1,
27341E2EFC192E05331D280B221D36361F1759141F1419167C313514263CB13B1962651C291D1D1A0640201C3A040F02121D210817FDF2142129FC1C1A0415CE,
F72A211DF1F0023624200D121F1E17F922132D4A1A1A18FA67413D15351CBE15273D6824211B192009392819EF5213373A191E3E1A2B44121E16F21C19000F8C,
10101F0311D436173E212C171F1E394A1E1B501819FF19060E1CF90F154BF5110D47771E101A1A1C3118C81329210110322022E31B0BFE16254B101F203913FE,
0A3B221FEFAFF22C001B1B041E213604211D312D1B44210D3E221319243BB106352E7E210E1E1D1724FB221D05F01A29171D25341A3E1F0F2AFE111C1A3431C7,
FB191F263599FE2F231AF6231A212B512325203A143C210431303A182939802BDD0476233F1A1A19203248203620480E441E1C2B235A0C1945F01D1A214925B0,
44291E3F429D22200018240F2421330621230D351BDD210C59FEFB193026A15D391037203119201C383DDB22FF52002F3720171C2925171B211B1A1A1CD8F5F8,
3027201E339021211E22390F201D3E4B1C17053618221E12651A22171A3B803115E925233919191C3C2AAF1D0B1D58C711211C0724401322222B0B1E1E3C13D7,
21521B503CB430F53F1EEC181A1E1A411D1CF1361D0218063D1F43152F2F8B2329A0F31D551D1C1AF9141A18226635EE281C1A1E1A2FFA171A17181E1E570C80,
01D3204207CE0E13151E201A1A1B46101B1C1F261B3D2210643714164C08CE1939A6D021121E1F21405FCC1F2565052F23211D2B1DB4111837490D1B1FFB2EA8,
3FF11C33461218F9161AFA0E1F2366252023CC42180A22017F3F581428718055DD8C80206B1B1A1B0F7FE01B1C55ED7A0E1E17DE26DA14131343E01C1F0FD580,
09121C22142D2C184B1A4224221AD3D1201E220C1F031D022ECC5C16142801310180FE202B1E1E1FFD1E3A1B571852E9F31C1A2621301B1D397F131B1DDD2B42,
DAE21D2E1E2234260C1E5A201D1F1E272018321F1A371A312B0FF3190A3642443C801023361C19213C4A0D191A17093316192529172B2421040E19181A131C00,
332B1C2AEE064442221F2E1B1A1CC1F01A191821143F1BF90FFD3A17005DFD00BDC98520211B1F220C2C391F4F7FDA580D201F4A1D18151D2D49171C1DF63613,
72F11F2535641E2F211F572F221DEC112117392B22CB1A2027F9521518F9351F0A80171D2A1C1C1C1517102520EF26061420251D182B101E3DFA2B19209D3535,
C6171F2204043736271A3210212107DD1B261F1F22041907271D061B1A683C4E4E80831B3C1D1D1D20300A1F2E183F34FD1F27332630F7191B48141E1A061E23,
02C4204E2EE408183D195C1C2023E6EE1E281C1E1B551E36162B3C16183225391790511D351E1C1B040D291944312238021E1D302323211727191A1F1BD8441E,
140F2015217F522D2519671C211FF216211D2B251AFA21F118DF1D1B2B3306024880EB1F25212122F1302C1D53F3F600151D15251E31221534F6131E1B9C0523,
77051E3833E03041431C2E0F1D22E4E91B111C1319F62230141E201DF84A2D2D0299EC1D3C1D1A1F0E3D2E18272226C4171E193416FFFE191038131B1CFD3F0D,
D2E31B1B183A291D2A207F33201FED141B112A101AE5200322F7221D02202E4DFEABFA1C19201B231C4C12214933703022211A371C2F1A233D4733201AD00C36,
E2FB1C333F00302050204411251BF610201A16241E561C162D31301313E6190F0C807F1F301B1E1EFF1E311F2E25F6040A1C1A3C25102125372AFD1E19FD4122,
2AE21D131F0D5A0B151D482B231EE5F71E1E38201F30210B1FC7531BF677343F39A39D203A221C19001C181E670F042A131B24032526250D2122332219AD0E1E,
5C081C18173C38464F1EFD1B221EFAEA1B1F2D241BDA21000F15E4170C551C41D980551E261D2216262D351C16151B070F1F233B191421142B20001D1BA0FC18,
D9F1223B150A2F200A193914211DE0EE1C1B17461FEC191D262B5916191E121F2780F824241B211604161A183F2050D50C1E1C051D3FFD181E26271E1F193B3A,
FBE11E15FF1F13343419F0231C1F000D201C221F1B3B1E0012FA5012D51228491580C51F461E1F1BF51E281D0CCC1926FF1B2637200B2A1C2647091E1F9D1514,
43141F071F2F28132F2250121920E6011D1A291C1A2020172021290B28522E003811FC233019201BC53230243D45EE34091C200A153104152D42341920C22F32,
60D2212F25073D233F225025201D0E041E1D222522DA211625D10B120DFAF921C0802A202E1E1B1F28234A1F30014451072119391824251C320709201ED63619,
CE2F202C25182E2F531AE01F2221DCD81F19381C21231CF41713481EF33D192A4A80AD1E201D1D16FF091822372750E4FA1B22241A1D1F203E4337201FE52226,
F2F9220F143B31230E183B29241EEA0E1D1212211B2818261BF13D0F2F19343BEC80D11B4219211A2E3B50235D270B2B2A1F1F3C160C1A240EFE1D201AF10E29,
31E61F3715FE1C3D491938201D21011D1C24275022391EF417ED6C20FB6D224A09809A1F20201D1BEA252A2012340D25F81A1A4A1F09170B3451261B20822720,
39201A320E551032171726221F20E2B9221E0A261701201426F62728FDF9082520C27F1D3B21212028382A1F5CDE111E211E1A2A233C1D141C0D20191BC92213,
184522113EF33F135417242C1F20DE2E1E17182517041A0E2DF82F1CFE48366844805922371F1F200117301E2E493D440D1E1B33190DFF112B1924201E503537,
CD1A1D26152705373119E20F201FBBFD1F20182D1A2B1EEB16F35B1C32562D17D580281B171A1B1DFC2F2B22630950E40D221C1C1C3B111A322B131C1DAB3A23,
66801A7FC401415F09223414201FFD7F1E170614170F1B7F094448111F7C2A0F7F4B391F3B17201C6C060C19F8591D1C761A19FE1AAB3F18493235191D7F1C55,
E4ED2042E50826311B1D4A0719200A351E1907001A421E1B1948271A373D21F74740331D1C192216231B101A1D296C1C4920182519C6500E492A4D201F543751,
0B0C1F37EEF43B28341D400E1A1F3B081D13090918451E160B2B121420212B3F40362A1F37161A19FA221B1724321FF924191DFA17F2500F2725331C1F0B313F,
574F212ED40B0847201900FD191F1A111A173D0F19071D191E1A361915ED31221B2A281A481F1616FE212B16501CF3C7331B1C041AFF530F2D1D341C1C282644,
1642201E140612071C1F3E111A20370E1E1337FA1719203412254C16291B0E171429361EFF191C1E1C092414312B2B0826201D261905381335113C1B19184023,
0B2319303E0B2530181E351C1B1C47461A18161815171B2AFD182D12170E170023264C1A2E191B1A10121718FC1D1C1C1B1D161819132214192A331B18483D2A,
F7291FFA4F0EFA19F91A3E351D1D334A201210FC16361B1B2337081410D71F0209232B201F1B181E3E03391A0D2224692A1B19211A212F16221B1E1F1F2C2710,
27201D294017330323193A221F1C1D321C1329DE14091F142C092218F060190C1E212F1E441B181B23421B161436270F101B1F051E20001436381D201C4EF425,
11411E4226112036041C2B13201B15321A19241D1416202811284318151C4925292B1B1D23171F1638F6001817FC2AFB301C202119E70011271A211A1A201740,
3331233037F927283C1951101C1F3C1E1B1538FB1A481D29141C411C193D2F0D3D230D1F25171B1D34583A160046152F411C221F1E000C102D243A1B1F1D071F,
3C0F1C4D2D1A1836151D2E171E1F0C5E1E0E4A121A242229063C2B151F0C072A461B172025191D1E2F11221B1B1C0A0C481F221118E50B0C320E291E19221F3C,
3F3F1D43231F48431D1D40111D1B1B5C1A1255261B081F2B07040F18265736193C1D111A461A1E1C2C11061A252A1F18451C221D171201113F1A081C19221A45,
181B1E450F31231D031A14FC1C2011421E113B1F19061B21FC14291B2228102037120B193A1A1B172F3F0313F8242E243B1A160519FE17182F132B1B17031724,
302E1F3B31381F120D1A1A091E1B3A241C13491D194C1D27191C1314143D2A1C54110020191F1C1C2BFD20193A2B1F082B2119071908F81A2B1C0F1D1E1A1F33,
01201B201B38EB40561925111D1F300B1D10460418241C10163718143052150C471B0020011F1D1D19002319363CF60A3A1B18F51807200E1A0F22181E35230A,
2F3E1D084433F6303519310C1D22390E22132C3915081C151E005419FE0725193318F01E2B1C1D1631F31A18071532071B1F162B1A37FE10260A2B1F1B2D0F37,
01252039163D4714041B65091F21173F1F181B4E1CFF1E25111A18160E0A2A37F21EF41B1D1F21181E10271312353B2D161B1A001E10070C2917331A1F4F0735,
F5271939FB43321D381E5D0D1F1D413F1C1B304418451B1E2F0A401504E12C222631F81C33161D181E3830191E1A21D014201B3B1E08221B210B1B1C1C691032,
28251F30164A1A2F0B162F1A1E1E38251E18096B193F1D4E05F62D172DD83F2917241E1A1F171D1D14241F15413104F0351A191118F9FA152317231F19240A2A,
29551D3507432F21131C43251B1A13291B13FA3E150D203E070EDB172629F9063328221A401D18193152391B32251710271A1C2A1D001C123837201F1CFC294D,
4D5F1D2D3242501AEF1D22111B1E2D651D15CF3518051A271F6A4A13212E0B3645404B1D4F181E1A1EFD281A05382642451A16001BE7081937401E1B1EDD2040,
1D7F1E7F55211A55021C241B1B21237F1D19CB2B15461C63007FFF0F217F161A7F4A5D1F31191B1E24FC02191429194E7F1F1BD51BAE13133A1921171FAC2D50,
15331E2A0240FE112621A9171F1FF7941B15171C1C151D0B21FC0E1A2BF329FC0880801E301D1F25800C511C6E1EFE19301C1D12152C3A192E0E36201EF0242B,
24121D37042A28125A1BC816201D12C221221F111D0019231810DF22674F0B35E0807F221C211A228049281E49F72C0521201E0F161E481823492D201CFD241F,
F5021D23101C272E4222BF181B1C30871A191F1F1C211D131A14100E3A94392117B1CF1E0C211C29801A1F2234FA10801C1E1C331D32441B313E2D1D1E032336,
0D142024143020154F1A351A201A00E41B1C151B1D211F1F17002E1550081125BD80801C2E211B1B800D3B21FB35295825201BFE23172C1623261A1F1C9E1523,
31E7202616371D14311CF30D201E229B221A2D2120061F091903001B12AD241E153A701B452220248016261D2305FC2E141915201534341E282F051D19341529,
EE0E21100A45242F451EE1031A1C14C72119221520121D1E2C093D114DD34434EE80C31C291C1B22802521221B3A267F22201B1917122E1B1D22171B1AE94014,
07B62042380D1E223D21BD191E1A160B1D201C2E20331D1210F1190E29222D1F5E05801D2E20211F8006222429BC30511520241D1D2810172E241F1C1C212324,
16EF212D15262116361D370F232318C81B1527151CFD1A32261B271720EF17270880801D44211E2280134B1B13040066231F1B191B23321F2A300F191E223620,
1310203610122A32531BD30920211FC01E171D2D1A28210E1713001747DC261ED8CBBB21311C1D2480111D1B1C25245D25221C231818221C1A002A1D1B072321,
0A291A0C2227FF24371C18181C2210A522172A1219001B1119FD1C151D801D15EF80DF203C221E208033341B27242FAC301D1E1D1A2B1F1B1B19121C19FB0F15,
2342221820060B123B1B0917201E09F421192B152029190C14052E1138472C202F80B81B261D1F1D80213D223BF9F07F2122160B17161F18180B241F1E092A20,
21E41C36243F2326451BFA111F1B22C41A1D1E0F1F1C1F0B2B002D113280160BD185801D201C1D1E801935221F5223F9271927201D261817201C1C1B1CEC1719,
2236202E2FF63B2C441BBD191D1E21CC1E1A341D1F0C19091A050A14291D0A330480511D02201C1B803023211F0B1EA61B1C2513221C1A1E2D281D1E1C192528,
0B0A1B10440CD335381BC30C1D2013DA1E1E2C371712220615DB041310E31327328C801A291E201980263D2516043C6A222026041A242E142CFD0E1D1D05151C,
03F61C3A212D1D2A331ABE141F1C25C41D2439211E121A0C25116B0C44243E3105E380222D201F1880073C2142D704E225201B23191E191325172F1E1B272233,
20BE203E3124F5274A1F1E0F1E2028BB2121242D22241C2B1C2422172754223D3BC3A31E301E1E27801719202A25143D2B231B181D31181F273C1F1A1AF41427,
24F9210B051C1D174A20680921202AB41B1F214921111C0F1FE6351515E521151780801D201D1B1C80042A192C141D2417211C2D161D0717152608201CF52A11,
25F41A3C242BEA084C1CC51E1E1B13EE1E1D1C131D101C372505191F4DCB2714F880801D421A1D1A803222234C4519191D1E1DFB243E2B1B201F1B1F1E233536,
0F18202411CB3B0C3C1CB013232203D4212221351D0F240D1A2909282D030F261880C0202B20221E801A4E1F28192B0F2E1C1B121B260F1826251A1D22512915,
F9071C1F1426F2254316D506222138881C1D17341A3C1E2F20FA1E224C1B3D2A0680801E2A211D17803B26193A301732441D1D1727431C1C1C5A0D1A1F1F2526,
19F7201B2EFF34282918F71C1B19EAE81D1C121E1BF31E1A1B2510104380043808C880210C1D211E801B3B1E4623F2161D1D1B0E151928271CF5301B1EE21E11,
ECE51D304123FD15541BD11A1820F88C201B032C20031E2B22270F1740222D2ADF80F72044181D25802A4020370F1E0B2C221CFB1A1414211F1B131E1D10122D,
FDF019593C7F61394D1D0F7F1E210B081E21EC3A1F1C19F3421AD720583D430D0A68791D4921211E1A354B1411633D5C0021263220EF5D152923AA211A1F65EA,
F9181F00B47F26120C2126511E20ED031E2510461E031E0B3110FE1E0E0F54242B581A1F371F1D2425D41A16123F0CBD0C1D240017326A180E3CEB1B1D001C18,
13FF2054EA64151C3E222F7E191D2634202229391D421B041E0DCD0B0B39FAF1EC36E61D2E181B2720F6091D0D281E4D3320251E1DFD2216002DD71A202A3AF5,
44001B2F21302415142158771C1A2E1221251104161A210D15EA3213FF1942123311201E0E1D1C1C0EBE401B2B2D337F071F1D14162562103623E0201C404D20,
44361C40201527170A23B0531F20EE62191E314117121D103E2BF21E2613E223F62247234D1F231F311F661818040BEB201E1B21170E34120450F41E2148480A,
ED19216ADF2732151D1E1762191C34F61F19052D20FD1B4915586A1D6DFC3413151EE11F491A1C1F0CB73A19323B23B2231F1C161A292D1E0E10D51E1D2437C6,
1E1D203B7210431C101A6B6E1B2236581C1F0E2E1E591B0F2006C51A1DEA2B3D1A0BD920221D1D1D0B3343200834327F12201D4417ED1129283DF21E1E002122,
2C431B20702F5FFDF41FF63E1C1D0B361A2717041E0A1AEF2300011D1027290BF3D51422202120211604F81B0B28F04FFE1D1C11240B11173209FD1C20F23619,
320B1F1AE2F8164827221D791D1E1E341F1B120B1C26210C4B2A33231B1AF60EF3F7BC1D051D20181DED751C012C07583D231700261E1216F9E6DE1B1C163823,
E6751D2E4F02FE281C211964241A0E1D1D16322D1F041B030315F3264C58542F1CE7CE1C361A1C1B3BE9072124321E32231F222D191A38230C00FE1D1E3F3CEE,
2D15191E16BC5A33091C2E56221A452C1F221D07220020F2351829203850361A0C00BB21281F2417271B33244BFF1322121B2A191E072721021DFB1A200122D0,
3D211B2C23CB012D1A1F384721220005211DF8311C111A1B2E04E61CE85E01FE351EF22025201A1C14343C1FFE0F4F7F1C202104232E42152906DC1B1E426FF8,
1C08202DDCF23F134E1EFB5C1C1D3B211B233D061920190F3323FD161C35472C35FE1C1C251A1E2129AE0D1C1A3BE4EE0A1B17421817511710741320213D503C,
112D1B214014390A1320FB641F1E0D331F1C282022D51E111C5E11226608501AE7F115202B1E1D1D142C541E4C4D50F91C1E1D01161417190E2BC41D221A24EB,
171E1E3A2109D5400D2010551D20250C1B0D0B391C4F211E1806442A3141161E2AFF2B1C1A1B201D27214F1A191BE38026211E362009131F351CDD1A1D4360EA,
3A031C49400509092D21444E201F2052190B28D021501E1634F9D71CEE4B15FEFD261F1D221C221833F6221A051E44811B1D1BF4173B1C201A45DF18212E470D,
037F1AE741FA2D302319C76E211D0209201B1F0C1DE71B131446022323091A3A173D61200C1D1D171BEE311A1913FEDE311F191B18063A1B1CE3DF191C122DFC,
0A011B50310A311D0D1C5D5D221E435A202621F9214621DB1800DB131C2B361520137C1D0B1D171C28BB291B3A64264E1020152A1621FE1DFC16D61E1C2F171F,
31491D3B661E042E3D1C614E1B211B291B1823F1200C22071DE6FC1A1926311319445B21EA1C1919F82AFB1F4CDD3576252020FE16EA1C190309EF1E1F5F76D3,
34111C2C101F251CFE1C26581C1A42171A1261341D2B1FF519051D16FCF226DA0C524F1E351D2015FAED1E1B22741A05221B1A2F151036140166C31F1E4A77C9,
F413203DBC3B0A1F2D1B00411F1F003F1B155C191ECC183A363D121828FFE500365E3C1D231D2113E12F4C1B42D81C1E201B1D1F18200D1BF70DB81B1E0031D1,
033A200EF1550804151A217F19212A2B21197F68202C1EEE1FF1311737FE56E7177F4F23191C1F1E03BF4C1F24443713251E17251C124622EF2FA41E1D3F37AD,
5B4E1F4988C1FD3E521BE67F2020E000211ED5121F1B1FDB33482D1C1BFC3DABEF557F2206211E1EE2D50A17331A58FF2E1A1D27254311182DD9BA1F1A413D44,
450B192033FA1B09E51FE57F1E2000F91A162BDA1F071A02ECF1931DF2246D202D1537213721212407492B1C0E08DEFF271B182325CA201E5705D91F1A562D11,
061E1B1FE40DFAFA681C5B431C1EE2E61D1635D91B1D18E6AC80D3134148E37435BB5F1D3E1D1E2280574A2011E845FC321C25ED16EBE51B1A2F951D1BFE4B1C,
ED0D1D1C2480661805204D34201C3BF8201549A61C0917FFFBD8F81A006D6497E95F7F1D24201D245E3EBF1B55B30ED8001D241C232EE91736F880211C1826FD,
47161B1D34981A3E4421007F21232DDC1A19CFBA1E5E1EEFE9DA692556DA53D73E3B531F0A211D1953466D193A4412721E1E1E4419A129164FEAB51D1D615029,
E4E71B5829803216051C556C221E0119202163CE20F81EB6F2361117DB9247FE5A7F0B1C151F1F1A3A66DD224ECE1435FB1C236C197F901A527FC0211B2E1774,
EBB21B352B800D063324A7661B1D0CD51B261DAF21021AFAE31CE3122F6C447DDF7FDF1B261F1D197F39181E5200E815371F1E0C1A162F29221B9F1E1B711337,
15E719500CEA1E214620AD5D2022E0001B1837E51F3D1FA9DA0A8B13387FF9DF57AAD5230922212618F44D1AF62615C9141D193A243AB31C2E03FF1E1E014062,
0CAF1F6C5200214B3B1F3F7F1E1EEF021A1539D916A91EA4AF65291D60695B3B261DD71E151A1E266ADF141D3C0E10513B1D1C261C3CC7203013CA1A22272B1D,
B32B19423374330646220F70231FFA0E2222F9D4181C1E02F51D801922E228EF0F21971E0E231E1D1332172136274134171F22341E20242340E3AB1C222C7F44,
7F541B02EFF620245321366F1D21FC891C2361FC210019D800FC8019F00CF3B6FF2CA41F151D2119E87F5324F9D2F1B41A1C19391BE8911C3B65A9201EFE4519,
27CD1C2332FF3B41231B807F241B2AFE1A1765AA1A0A1D88E058E320F08041AD3F7FF31EE61E211C03B41A1E37B308E6142119351734191259EBE6211D5E3E32,
00491EFE379E0113FF1C6F58231F09F51B165A29161B20C6EEA56B1CEA435F10FAFF241D6A2222183F142A2338092B3A2F1920222109BB221E2A9E201D800D26,
B73C212D037F031B4619384B232414CE1F24100B1E5B1B84CDE94A1EECC83CF52200BD1E431E201DFF11FE191549FBB5261A1B1B2363F91A4619E6201ADD3113,
052E1D2EF2A7260B7D1996411F1CF7FC1E2216241C3C1ED9F6599016040A1EF53FA37F20FC1F22202AB6EB1E4A1DDD3F0F1E22171B50BE192E1C931D22BFDD3F,
3F031D49F5414C360B1ED1241D1CFCEA1B1AF5571FFE1B9ACE06801B14804EF2EEE12E231B1D1D225C264219251FD8801D211D4C1604C91A7036991B1B984325,
40C51F0EAF4926065C1A0E6B2222F6002012F26120ED1FC3B6DA8F1C5F97153886D45B1F11201D24BB3D241415D5107F1B21211E190FA61C3D12BC18187FD51D,
D7C91B0F2E514617181ADE45241B2CD21D1BBF5E161E1C0AE89EDB1A46610FEB0000CD1D53221F23217F351A1CD30031161C1941160FA814280FA41A1ED2201C,
121D1A52024FE53A721981511C1D96F91F102029190E1CCFF9D2CD34212B3F033223DC1D2619221BE54B161902042A033E1F1BFE1CCE87174EF9A31D1FFB7F3C,
1D29211BF9640A4D2D1DF5591D2001A41E101F3C20EB2089D4D92216D4E24D214A7F7F1A0B181F1B8A0E21202DA20CF51F1A1B1F1B45C11933D8881A20A46A27,
F1341934034FC84250205049221EFF171F10807F19031A94F1CDA50FBCD834F4341C471B2F1C221FBBAD252622815D1133221B1916F60923490DBC1E22F61C5F,
993D1A3E05DA33503E1C217F1E1EF588191C805D1A7A1CCC1280A1215DB0314165F41C1C031E1C2602C56023FF51206E19201C51152EE3173D03001F18EE277F,
2B131E177FA5DB3930200DFB1B1C3F1E23264E7F1E40256040AAF31A0402F88E56346D1D0E1F212219352E150EE1216D181F1B0516037F25E37F451E1D184601,
2AF41B4072CF00222F1CE6431B1F2226211F2A611DF8213A22E31825640005D8F98DF61E44201B191A0A1C141F6543FA321B1A1D16177F1CF51B70211F4F321F,
0D2F20227F0FE615191AB70E191E59291D14407F1A391C1F29D34918E4330F80E57F1C1A10212121EDFE27154914165414211E0C251D7F20137F171A1C87531E,
3D07202C5980552B0C1D48171D2269291F18FA5B1CF81C2C18F2D32141FC39801643001B2A1D1E21D94CF8192DE822B4131F1F48232F7F200A7F7E201F1F1FFB,
2038211F50ACD2096F207BF91E1D5D171B17407F1D62217736B83622F22DEB801726C51E332220232C17381C17044413271B22CB19F97F190E7F071F1B5A58B2,
502C1E0E7FB8063C221FCEF01F217FFE1E12343F23CA1A4444086B222AD915807F4B2A19F51C222025F3E01832D62A80041E2128163E7F19035BED1C1D4121FD,
0B1C1DEF0B80F45A452114F3201E2E1D1E1B457F1CF319E42D2A2428E0E2B880661D7F1AAE1D20288006001A1E503DF9361D1F0E17367F23FE2016241D422AFA,
FA25210D0DC56716251E31E21C1D47F51D1A0D571E03207F27C1F91F349E0380177F8022101D1C22E540091F0CD207BDFD2321211B06711ED35F2B20221E3BE7,
41DC22004EBB000A2E1F42041F1D175D1E21306D20232045418FF41E2A4D2D80428041211D1E202632FE001F3A4B200B16211F0C191A7F1EE251451C1C213E1D,
201324383EB424281F2018071C1C4C321D17EF291C2F19483603F61D05C81A80344F3A1C2123202152170A183223001C0020201F271A7F1AE67F34201F457802,
023E221803E9B757071D320D211D3F181C202F2A1AFB1D7F2AD1CF27273CCFE051087F1D3E1D1E1D34145B1B2FC23380461B242326557F25C44E291C1E194DDA,
21281E3D7F80F227FF1BFB291D2163131C1B18511A4E1E5D30EBE02636F1D8C2FBFD8021F91E20232D5742184933F3371F2219262517751F13545A1C205158EE,
2AFA223C44D200383B1D1D131C1F2B6B1B1C0A4022001A7F4DBB7F1076F2678014E380230D1D1D23211FEC143FE52A802C211C45173F7F20D466431F1CD67C28,
03131B2C7CD7772F141A21051F224DD72019182F2022204A1709EF1C29FDCD8039A2011E001B2122DF320F17DA1CE61608201E0A28077F1ADF56412322F87DD4,
18E7213A05F1384C4421E8D91C1B2F2B1C1628521E021C6B5F0403203EE72180F7ABB91E1323211F4526191C177519802B1F202D1B307F27EC1ADD1D21EA4AB9,
39661C183D9B0F5F2F20262A2121204C1D1632FE1E361D5E54CEED197FF32180407F2C22E01D1C1C007D041C167327801F22242317277F20E0405E1E1B0B7F13,
F1F71E3366A90124151B52E51A1E1F19212D391F1E0E1E7F6B74471D39410080E27FF11E1E21201B4A28131EF467102B241B21601B307F27073B171D23F37FCE,
155B1A083447FC3F401C53141D1F211B19217F1A1B1A266E591CF51C2D974F80D8F6BC21111C2317A0EDE41C1F302E873D1E1B071D0F7F21E61DF2181E216516,
2857201B7F995C3F321B63021B1F45041A1A2C0D1BFE23504DE3DD23610FE1800E7F71240C211D233C57241814780CD1181C1E6D1B1D7F1EF326271C1B0161D1,
68F21C4E7FF2E031421AD8131E1D4D211F1562F816F2214B56FE291634B4339E276A9724E6201C235AFE211845082E801B1E204621157525EC7F63201E0375B3,
3E571E106BC9581E532178FD1B1B6CF320167F1F1C0D1F4F1AC6F2161A69D88062DCB523181C1C261C4D1D1B0CD02A80FA221E571915611DF07F251B1E5646FB,
09F71F2B51802F300E1A1727202245FB1E207FA821E01B7A31FD21202E801F80C108F021FB1F2123BA4D031E1F06F7801D211B0C1B257F1FE9777C20219D7099,
23181AA3F82D49351B1DF8E91E21ED15211812111BE81EF77F70031B5600431A2E44741D211D1A182D807F1A275368E701221F2C227F2718114A3D211F2AEEAC,
E1ED1FEEE12D1C48271B36011A1B22131C18270E157F200D511FE1162829280F244C621F07201E180ABD4919070B3B0F1F1F1F121F595F1A394E1C191EF615ED,
3F0C20FF15431A0D111A3AF91E1FFC3E2119252A1A2E201748FA2C1A0C39423C405A501C201F1C18093A24151F08C400291F1C111B56321430183E19183D10E7,
56021BDB136D2E172F19040D1C2025261D173F0218EA1F201533151729233D34E6513F1F221C181926D75615320F08321D1C1D331A344C1A3B3F351D181024F7,
05181F2E1B552A1D011B41321E1E1C261B1C1E0516F01AF02A21151C211F3A0D024731200D1F19160F2D1A1E392141FF201E1F0C150A202022EE251D1C293509,
EA2D1D1E1C70431D3D2004161B1C163F1D161B0E1671201A2911F41D194010FB2C3E111B221C1B1F2D06131C072E2F0A0C1C1B33173B33232E2E2B1A1BF80F09,
51281FEF386A2225241AF909181F290E1F1B1AF319261B01271BD02002001A2E2E2B0C1C3E1E171D2DFC0F1A41530F46161F1E2C26152F231F0B34211B0B2010,
481F2019144D31080E1A121B1E210B2B1D153F0816081C2D3336121B282E151E0C1C061B141F1C1F2041091C2F0EFBA122201A20142B1F1A27190E1A1B2341FA,
2454190345562412211930131D1E253E1E153B1718CF1E13251B3D1C18F4243D1920E7231E1F161C18060C1B3437410F231E19241A2F041C0F43251F1E1C181A,
EE0A1FF11C393427171C430D1C1E35361D192C2218241E163324E51C1A14592A3F2ADB1C2D1A1C1D18F3541B2A244C1B00211A0F193C0C1B282F1B1A1E4B03FD,
453419FA41413A261A18CA151B1EFC3F1E19300317791E0675F0271637171F3D1819E21B361D17193CDB5C1D17194BF6171C1C271C5A131B1913381B1F13FE06,
382D1BF4213C281F231CF501181E1E391F1B3D1513E5200B5559F41D42064B3719FFDF1E121F191628DE50193F2915132F1C1B22185BEA162A20371E1F3FFBEC,
08071DF615352E361A170708192029101C164233140621FD2C431E1E3AFB52231202DE1D1A1F181628FB541C2A2F15171D1B1B20145EFB1E24302A201D27FBF6,
F32F1CEA0F0F0F1802184C1F1C1FD5F81B123A1B1B5F221F3A10501A303D161608F3DB1E111A191D35FB2F1D2137203E271B1A201A2321172E0D0A1919261A0B,
231B1C2B11092D0F2C1D1B0C2020302E1D1634241A451E1B211D0818F531F82520F8E51D25201B1A1F081C1C2A41D560131C181E1B17261B28172F191FFD0A17,
610A192121E81E38411F1F0C1B20262919103E3516E21B27360926162D361A4D1CFC021D1E1B1D1B1ED21C160523073017211E25162F2F16301E311B1A1006FB,
0CF6200513DA01282E1A1A021C2030091F17345518EE1D29264FB317443C1A32430D2C1E371F1B182625261C111231EA271E1C1D164A0A17190D211E19271912,
D00B1C2018CE1A2C17175317191A131B1D174041194A1F252BEDD61423042B07FE16441D1B191D1B2728291E06135EF9361C1D161721201A2A2223181A112AFA,
725020F81FC92722151921191F1BEC571E1524531A721B3048EBD418142145420111411B251E1B1B18E022182629F510191B1C241B2EEF161B2E06191FFCF5F6,
7F301F080CE1471C191C07F91D1A23361E12C93119EB1F0C680F051B11430E4F282B481F3F1D1A17261A471C0D50CD4B191E162A1950051C22222D1D2013F9F4,
1E2C1BE138DA55372E15E8281A1C1D132113C72719A91B0B5C4ED81D3D043E2C0E416B1C10171C1F2CF92E1AFB074352FC21171315492417263246201B280DE4,
9B5B1AB95C0A6229161511F91F1C0C2F1B11D73B167F20EC645EF71D4C1265603C517F1A131F181B16807F1C5D09756AFC1D162D1A7FEA174A65281E1C50FFC6,
7FD21D492E430D36EC23100D1C20FF25212418161D7F1F31097F31267FF104172123031D411A1E160A140218482A8003391D1A261D043D14465BE91E19381F1B,
7F281CFB37353826021F552E181F152B1A110C0B19801F3AFC21E92364F72E4326171E21261D20162342FD19131972342D1D191019485419173CFB1A1B322F20,
14FD1C2319261128F31D0F1D1D1EFB121D1432261D061B00007F141C748FEB3D56EC0D1D381A221B1C0E001A2C467F93311C21271D0C131C23301A201A3D262D,
C94D1EF93768D00DF321620E1B20055C1C1F1DFC207F1C13284BE81C43DF474B61DBE91FE9201E1A0853F1227EFF5D272920220819122820171C151E1919121B,
6E502010FFD8510C161E062B1F1F18F11D1C2D051B421D0D2C4B571A11CAFE213F1E1A1F011B211D5139221C304FA515251E1E1B1CFE2D21221B291E1F744529,
5C321E451C2EF62C151F44181B2226542118172E1FD51C242F2C10107CE114254B0D3622211C22190411211D3A0C3F80231F1A101C31231911F612221A2A2334,
F13B1C2A281224212021261D201F05F41A1F30FE1C0C1C22137F06194AE5331C0F27EE21121B1C27495BF91E23D5382D301F1A3918F940143B2300221D1C3111,
E4361F36403A3F220F2329191E1F34121B1E3D4D1B461C11152A151E2BDD453CE3283E223D1B1E2117352E1B2CFC63312C1B22191B26171A381F021B19330615,
4AFE1B0142423819061AEA131D1EDB031C1732261D7D1E170B6F3C1C7AD0041D592B141DED1F1E1D0918201A2C7C9E7F271E26172023301C312E001D20110E1F,
7F421F34160A113C002241331D234B481A1A23251FF21F141E433A18459FF6364A7B002027221B1B33302A2337C648D20F1B20301B19111D354F2E21192E2C3B,
23F123404241182BF01DFE211F21FD21211F431B1C111D23105DCD226EEB0B2859632D1BF21D1E1C311F1D1D4840774E27211F171B212C0E2E401C221C0C0219,
D10B1C0A10F54227EE224B2D1F1E27341D142D211D5C211C18607F206CB7C83F1E363E1E241C1D1908D852221ED63B6E0F1E262F1839FE1D2316251D224D4127,
6A041A3718F724271B1E34151A1B2532221C1C1F1C781C0C0F59E0181FE7641646215C1F221C1F151434EA1D20DFCBF0041C2419222F3B152B350E1D1CFA0E31,
70181A021D0E111F001C34181B1A08041A1B28301ECF1D21152A56105695E4281468481AFC1B221CFBF71F1E3D0544F32A1D23EF25112D1218E806211A4F3228,
441B1BEF2F2428101A1FB81C1F1F240F1B191F301E351E13225B11145DE55245F951161C3D1E23150F4A11173F2253F82C1B2049162B151422352C1E181A2B2E,
F2131B3A06090449051F3F1C1A1A2CF821191444173A26122F3E14112BEA110BCF3D1422131B1D1C1C48DF1D1A0B2E54291F20211D202B172F02051E1AF52832,
5D4A180B1CCE53FC031D06261D1B071F2118401F15382234206A4F0F57DE0D511D1E411E2F1E1C18413A261B2D25C7041D1F1A3D19F3241E1E6123191C333615,
4C0F1D190023FF360D220F2A201D0E1E1A121D4A1DF01F161E4F2C0F36141D520ECD0522221E1D1A332F3418212724361E1C25391B153F1A2B2D021A1A052735,
E74A204125260F33171F6324211A071F1C1618291C071C06F17F22155ADFFBF54A2F3A1F011923181B0A181928357FE5151F1A31160A150B1013181C1C0C1A13,
BF141F1D354F221C0F1DFD181A1AFF111E1805381D7F191613683E26560D2E3335E1221F251E1E164255291E174450332B1F19081DF82B1C482E071F1B272809,
7F1E1E2D4B3BF73CEC1D160A181F221D1C15EC241C7F1A041A620F1A42F00E243DD5F61A1D1C1C1E1B00441E3EE880092E1D1B2117291016334017181C20241B,
7F441E3E372B2C2FD11A34211F1FF7351A121B2F18881C200C5C0F0D74FE212A1B1A1B2118201E1D0E3AF92164047F7C331B1FED1DFF0A172F19F51D19F1290B,
14021C0B29E63D40FC21022A1C1DBD291F1D1716212C191B2C267210497F2A18E080481E16211D252D0BFA1DFF402A2EE81D1B1B1E2E34192614351B1DB91D2D,
302320382A2B1019541C3821241F182E1F2226121E161C2917111E12245303094980531B271A1D233C0B2B1F252F2BDE15221D57191A0714141A202019442722,
212F1AFF1B2314160B1DE71B211EEAEC1E1F162120291D2F151E211543052B3146CA1B1D2520222516372A1B302907C80E1D1B1318343C183130201F1D351A11,
12E81D3A0BFF2A2C061AE11B1E1CF830211B2F1D1E261F2A2D17161C3B5E3F20E6A5F41C23201C201334FF1D1D041D25071B18381E19241F2937251C1DFC2D48,
12291D3A281B4341301E0F302022F54D1F202D1A1B261C1D232B431D321A0F2B0F80DF2021221A1735F8151C22222B4013211635171200150FFB261E19282920,
373A190A2B01F9182921D61A201C02EB1E23171A1C301D1C11280222121D05274680421D141D1F2452401B22223E0303141C1C0C1C352B1523071C1F1A4E2008,
19271B2232044F38221BD1281F1F1A3E221A230E21051F1428405226335909031780631B1C1F1D24291A242330122D0FFD1C22591D1A1711281A401F1E5A391E,
34202211FE173A0D2423972A2122E02A201C2D23201F213A28DF2C1E203D4240F280A31C381E221A3D0BF11D1A032C371B1A1F0E1B1E2E1B0DF50C1A1F27FE33,
032F1C2E54704C32131B301A1F1EF82D21262A261D2A1E21153D211B4E27F9380C80F91E241D20183E282F1F06240F3910201C2F192821193821211E210C0E0C,
29321F312DD3F82D1F1F0F261A1E030919242B1B1A251A2A322C191C07251A0E2780381D271F2118193C201B283739D01720231E1B2516182CFE1D201F564134,
190B1B010312391D0C1BB9221D1D0D3521221D1B1A041B32251D451647212B270080141C3E1D1D1C2D150E202600207F101E222D1C1922160028231E1E15112F,
3D221B322529132F291ED61D1B1D00271D163325212F2220161F1A1B30102E1F2780352025201D1B302D0E1B193223EA0A1C2229192F23174031191E19330617,
1B4E1D1B36091A24211E2B2C1D1D00321D1513301A3220202C08511A3C522033EB801B21121D1D1A4716111B342A0D68211D24181A1F0E2915EA31191D28300D,
29F81F161C06311A141FB827211CE0021F1633241F2D222E1716141D224E1923F780AC23291F1E213DFCFF1922051A1E0B1E181F1C1A2E271E111F1F18380D3F,
163B210123025E37211B9D18201D0E501B1820141A1C1C3039232C1C142C0A3D2680E22335221A16444CFA21001330540C1D1D38212A202D212A181A213D3821,
2E221C4A22000D291517CB241820F4182112223B1E101A2A210B331A2E33251B1C804D1F181C1F1F2017332225F11C230D1F211528231E1E31DE2D1D1B280B2D,
152521130935331C0919C22D1F1C050E1F202F1D1E211F1A1627F616290EF23008B80D203B1E1E20382E1C1F1719323C1C1E2238272A27211C3C35221D502718,
212B19133F001A1A381AEA221A20FB34201C0B1C18422025303139122F2C4231FE9FDE1CF41C21211D1A04215A14081C0A1D1E26171710201224151C19080D1E,
2F322018263D2E311C1F37211B20041E1B1E211E17061E3828FA511E2E272C232C805D1C4D1F1C2722271B1DF6E5253A0C1C1D341A25301F2A011C1D1C452E2D,
1C1F1A05153B3121251EA4211F22BC1B2116252E1E301B1717190E21191CE627F880161E2D1F21252B10221E14DE314E161F19F91D14041A0C011F1C23353B12,
083A1C4B1DF4084B1A1F14111A1B3C231E1A27231E251C091F2AF118454D4222E0C1411C091C1D1F343B361AFF310C441A1B23341D4022142923322121331D28,
3F6A1E1130131C2D1E189E341F1CD1421D1E0A251F2F1F2931167F16FDCF3D343380611A271D2321520AF21F68F641600D1D22291C0C26242B11251D207F211C,
23F721120C1F0F245B1AE9141B1CE6921F282A181F291B181301401A312D14111BC3801F421B2019802BFF1E2930233C151B2041243A3F19341E1E1D1ACE262B,
11031E29001A4425361DB12A1C1D16F61E200E1F1C1621191A2A11113E223D31F7E3801C241C1D248035101F2BD31A7F0A1F1D1C271B4E132E293E1C1C132924,
1FDE1E2D0CEE0220441A0F14211AF79A1E142C0416271B1A2DFF371B39043F093AEAA71C301D2127800C0F233B021E241F201A1E161436182D2B351B1C0D4635,
F1FD20091D01182A2F1AF4221C1D0BCF1B15130E16101B22182C241C3817DE2410D8801C2D1B192280454F241F23223924211C2720342B151CFF151C1A422331,
19FE202826F92B184B1F11101E1FF8FE1A192DFA21451E1219102122361F3C1B30BA8021271F181C802FE41C3D22011F0D1C20261A362D1C2A201B1D1EC92A30,
2A2E220FFA121C23431CC6122021F4BA2126271A1A01201D1D07F11A37F13D1D2469B62132181C2780530E1B332B18532B2026241B1D3C1823170E1D1B391C20,
15F41E3A291C311B3B1C421E1B1CF8D21E24200B1E1A1B051D00151320343223FB07C51B151E212480261F1952F222B51219222C1822230F2A1F361D1BD62C2A,
0A2F1F2232E723384D22EC18201E11ED1C192F1319281F22220E211B400D370749F2BE1D171C1C23804AF621183C18CE14201834222219143A0912201C012533,
12F71D0F2A332D093F18D7151C21F3FE1D132D0A19181D1A0D232520260A3038229EC01B30211F1C800A072134DF135D101F230425202D131A01251A1E3A1D26,
11091A0B250C2A2F2620FD231B2103C51B1938201C11220E1EEF331748102F131604771B1A20191A802C05192C2120EC221A1E1D1D370F1C2F16171C20D91433,
210A1D2B270D1217481BEE141F1FF9041E1F181D1A081E151503191A14E24409EFB4081B4721221980221A1E1B07122C1B1D231B2001100F0E03172019FF1C1E,
10E5200E220907353719FA131F1B07CA1E1949071B1A1E1C1A20681B3F32222B2FF5801F241E1F22800D0C23051729E5171D21111C4224133A1F091C20C60F28,
0B05201C2B07282B3E17301A1D1C02DD1B192C221D38191A1715F31019CE02251510EB1E331B1D20805D11221E00071A151E242B161A0C151604171F1A043027,
150A211F05EC3A1F4B1994151D1B0EDB1B1D4620210F1F1A1BF5350F274B280E0E145B1C431F1B198003291C36442767241D1D2E291D221D30EE161E1BFE2220,
1D14201F302E1F171A2005101F1F00E61C2034361A131F1723201F13EFDA1938F7738B1E281C1B17803B301D4F1E1AB5241B192029240A1B29000F1F1B421B37,
09EA203119162D29521CC5141B1C0FCF1B2033311A1E1C1609F8111A3DED13361330B51B301E1F198014151A180D1D21101F1728192028112F0F0F1C1A181511,
27271B0621672B1B1E1EF31C2121F3D81B1C1A2E1D191E0A221D25220D4053331B7FFB1F2A1C1D1A802E101F4BF7F320241C1B2C1718101415052B1D200A1B42,
28E9202F1D273E184E1A1714221D1CFF1C200A481FFE211E1B102F0C27B2F70F344EA51B40191C1980264120200E2B0E0E1C18131B2E1C2F34240D2221E42829,
24151C0623782A18361BC01B2220DCDE1D292E3A16111F1F231A3218283D3C3514C6801C331B1E268027071C16D51518131E18062227072B1D091521224E3535,
0939212401FC1B22461F34132121FACA1D1A094719191B0C0F222E1E16F0032420F4811B421B1C1D8027361E2BFC2B1E2A201B22273B2B2332121B1E1E102124,
09FB210B235630191A1BCF18231EEF071D16112C2012192C320938184AD42836EE2980211D1A1E1F80230A1E3FE0074917201A0C163A1013230B2B1D1F1A1F2B,
2A122128353C1A1C5A1B0C251E1CF5801E1FE8341E1E1D240F01231E223724400F80801E42211A1AA536161641E707E310232320202014162C110E1B1D212F28,
20201C1B1C201D211E23211B221C1E1E1C21231E23211E1F1B1D232121231B20202121211D231F221F1D2123201C221F1B20201F22211C221C1E231F1D232322,
1D1F1E2021211C21221C23211E1E1E1C21221D1C222020221E22201C1E211E231E1E2321231E1B2020201E23221D231E1D221D1F1B201D1B1F20221F1F1D1D1E,
1E1B1E221C202121241C211C1E1B211B23201F22232123232122211C1D1F1C1E211F221D2222211B221C1F231F1B211F201E201E1F20211E231C1C1D211F1C1D,
1D1D1C1D1E1E201B1D1D1C1E211D2322231F20221C1F231E231E1B1D1D1D1C20231E221E1D2221211C1F1D23212221231B2220231B1C2320211C20211F1D1D20,
20211F1B211F231D1E1C211E1F20231D1D211C1D211F201F222222231D1D201D231C1F1D211E1F1F221F23201E1D1C1E201E2120202021221F2020231B20231E,
1E1F1D22201E221F23231D1F1D221B1C1E1E231C1B1E20211E201D1C211D221B1D1E1B1C1E221E1F231C1E22201C1B1C1E1E1C20221E221C1F222221201C1B1F,
222320211F221D1B1F211C1D22221D1E1E231E1D201C1D211C221B201E1D1F231E1F1D1D1E201D1D1F2023221C1D1D201D1F1F211E211B211F1F1D222222201D,
1B231C1F211B1E1E231E201C1F1B1F1B1F1E20221F1F1F1F221C1E201C2323211B1F1D1D24231F20231F1B231D1C1E1F1E202223212020201F1C211D211E1E1F,
1E1F2021231D1D211E1C1E2120201B2120201E221F1F1F1C22211F1E20212120221D1C221B1D211E1C23202020211C1B1D1C1E1E1C1E1B1D22201D2021221D1B,
23221F231B241D22231E1C201B201C1E1E1E22231C1C1C1D2120201F1E1C201F1C1E1C1D211E2323201E21231D221E201B22201D1B1D231F1B1C1E23221F211F,
1F1B21221C221E20211D21211B221E2222201C1C1B1E1D211F1E212122201D231C211E1D1C1F1C1B1E1D1D1D1B1D231C1F1C23201F211C1F201B1D1E1B201C21,
1E211F1E1B231E22211B1C1B231C221B1B1D1D221F2222221C1B1D1C221C1B1B1B1C2321231F211D231C221C20211D1E221E1D1C201E1C1E221D20211D1E1D1D,
1C21221B211F1F1C23231B1C231D1E211D1E1C1B1F221C23211D211B1F201B2022211B221C1D1C1F1F201B1D1E221F1B1C1C201D1B1B211C1E201F201C22231F,
211D211D1E201C22231D212223211C221C1B1E221F201F211E1C1D201C1F22201A1D1C21201D1D21231F20231D22201F211D1B231E20232322201F1D1F1D1D1E,
211D21221F1D221F231C1E201F2121202120201C1E1E21231C21221E1C201B1E1D1C1F1F1D231D1F211E1C231D1E1C1D20211C1C1C211E231F201F2120202423,
201F211E201D1E1E1F21201D1E2223201B211D1C241D1E1B201F1F1C231B2323202223201D1C1E2023201F1C1F242223201E2223201E1D1C2021201E23212120,
1E1D21211B1C1E222021201F1D1C1D1E211E1B1C1B231E221E1C1C211F1F1C221F1B1C1D1E23231C1D211D231D1C212120201F1C201B222122221F1F1F1C1C22,
1C222220211B24201C2320221F1F22231D221E211C1E212121221D1F211E1E1F1F221B1D1E231D211E1D1E23221A202022231D1B1D2223211D1C1C1E1D1B1F1C,
221C1D1F1B231E1D222020231D20201E1C1D20202120201B1D1F1C231C1D201F22201B1E1F211F2121231C1F1D231E1B1D1B2222201B20211D1F21221D1F231F,
1D211F1D1C1C1F1E231F1F1D22221C221B1D1C1E1D1E1B1D2320221B1F221F21231E1B1D22221C1E1F24221E221B1F1E1E1F211C1C1D1D1B23231D1D231C1C1F,
1D1D212023221B2323201F211C1E20221C20211C211C1D231C1E20211C1E1C1F1C21221F241C1D211D221F1B1E201F201F1C1C22231B231E1F1E221E1F1E2322,
1B221B1C1E23201E1C221F1B22201C1D1E20221B211B1F201C211E1C1F2021211E1D21201F231B211C1C1D20201E1C201E2220201F1F1F1E1C1E23231B1C2023,
12F11E59A43EE946711DC4411B1EE0C01F1420F1182A1D383ECA141C25F24BF61716291D231D1B19323C0E1849F81522281F20181CCE7F1623617F211B3E6D2E,
3325202402322D2940200251202347FE1D191BF519F61744420FD61A33001C371530311DEE191F153D37281B29F73F17021C28251CEF5E163C5F611C20213E0D,
10F721463A18252B2F1E34521A22FE531E1824EC202918562EF81517F926FB304931371F1B201E1A47383E1DFC0027292B1B1F1D16D454171F0055191B222D2D,
02141C11DA371218E71F00401D2204F61C1545FB1E461D55473F3C160811EB30FE202A1EFE1C211E2E17F61DFF33F8210D20230E1A394217243241191D091A14,
2B19213039382C19451C4845201B20041F18230017FB2034445708140417352704132B1B1F191C192A1C101E36241586271B2221152E2E174017321E212B1D10,
29271F173227E626141C26361C1BFB341C1B2D0B1C181A533EF6FC18FD381E0D75151A1CF11D1D1D36251E1C39083A671B1B192D1A15281722143F1E1C0B3512,
21231D2F3421143C352066421B1C2B0E1E1D2E0D1F1118491F3B3B1719042140222F14200E19211C32C7FD1CFA0946C8021E190B192D1A17212B391B1E3A1121,
0A381D53443A230D32200E401D1E06401919461D17431F453D22211541331F34283500210918211B3906111F22041180281C262E1615010D37154F201E362D3E,
3B2623103E2A4D203C1D26411B1E3C0E1C1C4036182D193E28F33517F2281E30011C0021F51D1C1C27DA1F242DF52807041E22F61909081510263A1A1E102439,
05061B2C45142C1B331D3A471B2211221F144A0D1B161C392D0843191D1E58294316001B1F181D1B3FF60B203A0B052F271A1F3816F71312233C441F1A09290E,
33F2203C07434315361A3D4C202310142017391B17021D463D2B4C1A1235313D082F21212119221E29000F221C1FF4C81323240B1AFC13101F40471C1F040D2C,
EFF01C39052B4418091B3E3B1F2215EE1A1A422619251E473EFE0C160342263230141A211D1F1F17292C0B23244830C3042117F21618171518FB481D1EF31E26,
EF2E1B22F31F1F0E2B1C193E201DF9FF211F402117221D3638193014191B334D260D1621341A1D181E3E0522184525D0351F1D1E16EC05142403341F1D051D29,
1A151C2A4F181B3C2D191228241FFF2C201D48231707213D2E130B14200C112CF6251C201E1A211641410C212115324C131D20471D28001A420347201D232441,
FD371C1A130FD414EE18352A231D07DD1B155425150C1E323444000F20F5162E41262E1AFD1F1E17502A0B2027FB28131D1D21FC1D3C161424304A1D1C0C0A23,
2830211A3B1F3F243A1A221A2221FB2E1E193A121B1D1D372C0FF110360B272A3A24281CDB1B1E1E39E4FC20233E0960211E1A2F1CF80517150859191E31261A,
38151E3D31294618311C184620202D341B152E65191D213B430F1F192E32140504134C1F00201C1835F3152213F22327FD1F1CFA17FAFD131C173D1F1B221C1F,
2E0C1A0E25101A301B1C13581C1D2D292015506419181F593B284A100A2D1C0B37175D1B18221F17283B041CE1211A120A20180E160B35151606431B20161C19,
281C1A27013037311F1655471921502721180C6E1A391F5A52FD4712F31D4E4B24174A20FA1A1C1932EA091EF701FD2B0A1C1B01160913161E0B511D1E293B15,
132F1E42434342394613104E1D1FFEE31A1ABA7E1D13203149E44D1EF6002D4A191C2B2013191D1D350726234B060E48171B1B4017FD081640F75E211F041F2F,
35F51E36701E3C2459172B5A191C04F41E13945D18F41A2B2FE73B200646247FE01B1F1C1E172019091D21222ACCFE2D101F19001CF4F51A291C4F1D1FD7254A,
C91D1C4F7C35462E7617247A1D20D4D31D13802B18FF1A49350719194037647A1718161F1C1B201E2809F42325DB1FE6F01A15EF1BB3FE142C0C5B181FC6353F,
023E24EB7FB31900341DF361201C682D2012667F1943210017FE7F180E454F7F4E7FC6222B1A1F244538201F17445780181C1A0F1A097F1AE3605B201B017DEF,
14CD1D053240520CFC204C131F1D13311F1769661B1C1A3A28CED71B52F52D112F242B202C1C1C2548F93E26F1D8D5EB131C26201BFA06210AD61B2222341FF7,
091F1B4D7F0C03491C210AF31A20250A1F1A445A1E4F1AEE04F34217F7001AF3BD7F291E0F1C22182D38022B7275647F5622254D1B6F7C1E164D021A1C352A13,
4E3E1B142DD82FD92D1ECD351B1C34041D19557F242C192A2FE2B11C225103E4207FDB1D3A1F2123F1332B24F0700521071F243F18DC4A1813491D211AE95815,
F7F722256218F40C141BD722232035052022586B20FC1F0F1B6E4B22193F0E11E67F4D1BF11C1D1FE3263426591213901A1E271025163119056B011E21023F08,
49001E0032801C22F51DE7201D1E1C501E24335C207C202030FD48213686595F787F801C201C221EF31D13231E1AD638F5222042221E7F131C06531F19FA5E38,
1A55222D42EFF039251B1BF91D1D29BA1A295E721DE41BFA191B081BFE2200081848F1224518211F2E1B0028D1421B1F311C1DEA28333816FA5C002019E461D7,
2A281C2522D04018FE1F4B0B201C32E1221F127320301D2E355F3F14374D2215F97FEF2020181F1C7F3B4B25213C0598101A1C7D21397F17303D181C20D87216,
F6D51A0846FD4C1BFD1F2C101F1F307F1B21694C221E1E1C20DDB7152F2F30FDEB7FF21F42211F1E983D322416A90D55241E1B1016F73411EE41491B206E0B56,
02551C0562381EFC4D203A3B211B18F51E202C5E1534230A2426361C2C4C352BFE7F801C2E1D1E247F3EFC1A085F3D7F2C1E21FA1C127F1520FC422120017FEE,
28271F5442DFB743E719C0F7222252A71C174C66141E21291A43E31E1EB8F3207171BD20211C1F19412D29194C4F175D2323214218443A1B0062361C1D2532B9,
28B91A002580F70D3B1DF41B211F1C6C201C3F3416E71B1C27E7711C474354E6325BD01F3F1E1E191529421C12203750241B1D371B2B7F202F270D1C1F33581B,
FF331C1830A1772E261E21241C1D5A3D221C514C197F1B18090C2C161711E7E3F26B802305221D16DE07221D0F28FB32171D22141E1E561D093EFD1E1C1466F5,
0DF61EF6403D01F7061F25061F1C23DC1A1F4C3716C81F002B0B101C36473CDA497FE71F351D211B68081D16F9343B4E021D195A181D79240C59351C1CDA27E6,
27221A312680F7314E1E19FA1B1B32FE2221643B1D2B1A29304D071717153793ED7FE3221D1C1E166120231F1A2D1649271D1EE81B266F260D18021D1CB83C28,
08B41EFD27DC370BFF1AD4251B1A00401F1F69241C3623210C122F1C0A43E480000D451F251E1C17CBFE25191E382324351B1C6219167B21031B1D1F205347CF,
13551A2511FE000A2B160D141C1F53FB1E1F49271AE6221D36E7D3193AA5FE80240EA01B22191D1BC9052B172A2F2E24071D1D12152F6023F2601A1C1AE51311,
28311A192ACF341D46176DF71D1CE73C191C7F1E18511A1904E61222331F18A1397FBC23EE1F1F1E7F04191644540621181C1C192408602303300A2121DA4AE0,
ED161C234DD3D51DFA1BF00C1F1E3F02191B7C1D1BDD180728571523032B4880003A671D461E1B21935B1F1638462E004C1A1C191B3E622200460D1E23173107,
2C14240F2DF70414F91C11091E201A0B1E207F2319301A281117982204DDF3963B2E211D281F211B78FF061D40F8FFDC0E1F1B2F1F455A21EC1C24221C082CC5,
131A1C0C36C74B21151E0D221E222A0E162215161C121DF924E170241AB6018BBF2EF72014191B1D8508341DF5480F523B1C210E240655211023001C22312DF3,
F6F81B01468015FF2B1A2DF8201A411E1C1A46141C19203B33F7F5222E80E1800608F21C161C2122F8FF201B7F3324820A1B20D722317F23B34A3E1D1DCC71F4,
A93C1B80C5392B482D1616661D1C492D1E1D0EF71E6D1F56FC4F4C1A1B2605E6D819E71E1F1B1B1B367F801A270653C7241D1AF7157F73192B282A1C1830766C,
6F251A08BB1E19333A1D16541D21254523201C0718181A2023BD101F00E823233A0B0F1E361B2215280C3523313CC314171F18031A585D13371B461B1E1B4242,
58E91BD9F2E6E80D042139471B1C31181F182A061AF21E381715191EFB3C29353217161D2B1F1B1F223FE32336E335F32F211A281A464D161A32321F1D05223A,
1910219223FD28282B1C332B211E31271F1E2D1A171A1C3B1E5A271BFE351410181E1119271A1F172641E01CF3503D25321D19ED1B453A20182B431A1A3B2031,
013820D70BF4191E1F1A21311F1C21181A2130001826172D230B331B1C3EEC0B151E2F1B301D1D2A2834091A13F52243101E162E1B4E441D2B0E3E1E1C052E44,
3358202E110230301B191743211F1E12201E2600160D1A3A292D111928FD21072C184220F720212B202941203B1A1F242E1A1B181B2B371241252F191F0D3E43,
50FA1F212E160400261D481D2020280F1F1904F31B0C1D3C3436301928323E3CFF1C56212919202B2A121B1CFC3F060B371B201F1709FC18244C171F1E18162D,
09121A137B1115F51D1D2E341E1B30201C1C15F4201621241E1E1D0F1A33181C542A5A20221B1C171B2D271BF22D4129001C1F1E1528F91536450A2019F72A16,
FE221FD645FF234E4118495A1B1F35E81F1F35EE212B222E031E4B133C2C0D3425205E1B1B1C1D1D353DEC18322D2F181E1E1DF91C20FA16211E131F1C423D2F,
234620D5490E094318152D431D2228471D1A36131C671F20000A0D11061712312821521F0B1B1F1C2A2CF91D10F5E8FA2322253C1C5008172104311C1D1F2D34,
29131AF7241B082C181E293E1E1C141D1C1B4323151D1E0A12060C12050D3F281B324020131B1A1E3C1A251E261416D92F2221051B541619311E1C1A1F302539,
251E22D504125A26041B004C251B4D281B1E3D161BFD1B3403262F1605110A1D6131371E36211E29144CD1173B313AFA131A1FF81B4B1E170DFD1C1C1E372A4C,
E33D22BD001E0720291C25431F1E08381E183E2B173E1E121A3F0311154C0B2301311B200A1F1C220958E21D23E531D0281A180519321B11272134191A402B2A,
391621E51122F042121B1133231E2B31211D63421B171F2613181412E6FC69EA1825201A2A1A1D1E222FDC1C3622DDEA261A1E2E195C001726132C1B1E3C3539,
39311B3A0B2C3A08101A222423212B2A1E1C4D2C1D042135270D4A142A0410182F2C132049201B1824304C1E1C534AFC1E1F20271D17031A27042E1A1DF01437,
0F3E1CF92239F409201F5319241F133D2122482A17F9210726173D161A152827E329061FFE1D221929ED3E1CF2282D32521E25121B21021E251D1A1F1E3A0917,
F71A1CFF394715222718172B231F1F061B21184D1B31193D173909181957344135230B1D37191C153030DE1922EA1041191A23F41B340819261F121F1BF01B33,
42041F26283C41303F204C211C1931FB1C21163216291D2327091615410927182B35FE22FA1B1C163424D3192C2C080F1D211B29183601211D1D3420200D1629,
533022AD2E4D07431F1D36501B20572D1C1D1F4515081A4017FD2223070014270B22E21FFD1B20152B31EE1D155EFA282C1B1D0A1D3711233F1E2A1D1C0E474D,
26031DCC1D501918251D3142211D2F261B19F4521BF51D371810381A1F22512C2E16FF20441A1D170D4F031B0912320C1622161D1B3F0020253132191C3D2A3F,
C2002001224B433C1021F9571B2022002021D557192B1A2F1919F11DFEF01430FE181E1D251C1F190923F11900227F2F1C1C1D251B3C0F242205171C1804283A,
42301D805757003B3D22F77B1A1D2A362025934F1F7A1C38F32937193A1EFA37240729231A1A1E1B1E7F8014561CE8F7332016ED1E7F102530011B1E1A4A4566,
000000000000000000000000000000000000000000000000000000000000000039322D31323A473F38302F46336A3B2D392C24281F333536302F3339173E212E,
0000000000000000000000000000000000000000000000000000000000000000582325185C32592E293A26512D2934572C3A362F37272325382F2750116F4021,
0000000000000000000000000000000000000000000000000000000000000000353330403733343335392D403A32413034372C3E3C362B2F342A373C37303431,
000000000000000000000000000000000000000000000000000000000000000025332A27422C3C3D335313033F2A3AC8661D372D263127382E322F450830402B,
00000000000000000000000000000000000000000000000000000000000000005B1F25273A32D634363924003334252634371832212D2B223C323338F5380332,
00000000000000000000000000000000000000000000000000000000000000007F1F234A75534A7D327F327F33682F720C7F2A15288036331D21204E242C345E,
0000000000000000000000000000000000000000000000000000000000000000302A22323B3E3551403934003444274239352D342F3024393E32274D80393C41,
0000000000000000000000000000000000000000000000000000000000000000112E2A2A454D2E42473930002D4927352746383C212F2620384131225D46424C,
000000000000000000000000000000000000000000000000000000000000000028222D333A392F3239352C37100C2A303B362536233316203E39363FF8C43B2A,
000000000000000000000000000000000000000000000000000000000000000035373D2F42342B3A35303538302A32342C2C2C3C3E2F363D2C2B2F313332402F,
0000000000000000000000000000000000000000000000000000000000000000D2332212083A257620382B0E3A2E2C7F25282F33282E323032FB2D3E0C583708,
000000000000000000000000000000000000000000000000000000000000000039272DC635373E25353C5F5E37302A2B3537255C313935283A172437383D3F35,
000000000000000000000000000000000000000000000000000000000000000030373A282A35363A2F2C3833332C36312F3C2D29412D2A35372D2F33363F3B2C,
00000000000000000000000000000000000000000000000000000000000000003C2F2B4031332F383132343531313F39323E3F3638382E2F353A33373234333D,
0000000000000000000000000000000000000000000000000000000000000000121C3439352645382C28283859222C21303024232C3F29263335324864452B3C,
0000000000000000000000000000000000000000000000000000000000000000E11F28192EFE063721103F1B313122112E412B4E2E162331D1372A1133262A5B,
0000000000000000000000000000000000000000000000000000000000000000343B3F3E3833383D2D333D293B35312B3D2D2B393F363C3642342B343F3C3939,
0000000000000000000000000000000000000000000000000000000000000000322D3432302C2C2F44312C38412F2C313145342B2F39362A39333E3F31302E2E,
00000000000000000000000000000000000000000000000000000000000000002C253329341DAD413C3119392131273835392B29284D3C2D2A362B36A627F440,
00000000000000000000000000000000000000000000000000000000000000004E222D273814D22E3934243C26273A2A2E34373A2F3D29332C3B2D353F2CFE2F,
0000000000000000000000000000000000000000000000000000000000000000352C292E3A2C27383B372E3A343A2E3F32302B3D41323C383E342F223934372F,
00000000000000000000000000000000000000000000000000000000000000003C24333131394E38392B309A376E322A332E352A323823372F35353A1C401E2C,
0000000000000000000000000000000000000000000000000000000000000000402B363A322E2A3439352E3035383F3641313A3840322E34322F3B303E363339,
0000000000000000000000000000000000000000000000000000000000000000272C282F4634401C3A2A00043A3C2EFC34431B3A2F361A2B244E2B2F2E383850,
0000000000000000000000000000000000000000000000000000000000000000123C2052312B4527383D59E63A11214A2F3934EA3039302E25E0232D3D2C342E,
0000000000000000000000000000000000000000000000000000000000000000EF28293C263754FA321D3B08355237292F372F323037242EFC2B374A4B4DF551,
00000000000000000000000000000000000000000000000000000000000000003F3A2745403B3C1946451E7C024D2D2D532B1F2E362839381E1C305F4316423A,
00000000000000000000000000000000000000000000000000000000000000003B343A2A393737253544312F33382F3048382D3838332E37331D293A38342328,
00000000000000000000000000000000000000000000000000000000000000001233353F383832062C0949ED3F43384B03333131273A272A282D3348004729F6,
000000000000000000000000000000000000000000000000000000000000000065373033654305A1143D424B3F112D272E3925292C331B26602E336A26614B08,
00000000000000000000000000000000000000000000000000000000000000003530252531263E5B35461B34423227103C292C43383730262F3F324D292D3D26,
00000000000000000000000000000000000000000000000000000000000000007F32224930384A4934503D1226403E462641303F2625262B0134314418514651,
00000000000000000000000000000000000000000000000000000000000000008032399C262E2BCDEDF0912C3E1E271A3E2233914113232B49122E4B2032073A,
00000000000000000000000000000000000000000000000000000000000000005B3633120B841944C8850C1950EB32CD41FD3BC039773225493F30197F2180E2,
0000000000000000000000000000000000000000000000000000000000000000A7313180436847FD2A5F49263C7F202D807F2F4732803D357F80352D38313267,
0000000000000000000000000000000000000000000000000000000000000000313739343F2F3C2C3F303D333D3D3437322F323C3E3C302C3C303D3F333E3D3E,
00000000000000000000000000000000000000000000000000000000000000002F232C4D35432D113F2048D43739253A453D283419361A1C413327273C44432F,
00000000000000000000000000000000000000000000000000000000000000002B312D3B4326382D333930362B3736323435322939393C33322E33362C363E41,
00000000000000000000000000000000000000000000000000000000000000003231302B3D373936353D392E332F3C38383C31392F2F31313A3440322F382C3C,
00000000000000000000000000000000000000000000000000000000000000003A2D36442D3A453C4047313C372D352B2B323D294033323F38263C29352A3338,
0000000000000000000000000000000000000000000000000000000000000000802627224980F7EA377FD7204F802D2E1A4D2A99344B3D223E8C370CFD000444,
00000000000000000000000000000000000000000000000000000000000000001433310E3C2F24F82C53321D39212616601C2F2331353424381E2D37F22C432A,
0000000000000000000000000000000000000000000000000000000000000000371D232843333739345E3CF93A262825221822223531262E2432213C07274035,
000000000000000000000000000000000000000000000000000000000000000032352B3B40392B3C29283D3C38363A312F342F3D382A322B322E3F333C2F412F,
00000000000000000000000000000000000000000000000000000000000000003B2F2935364040324135361B1F3E1A48283D223F2432301F383328275617331C,
00000000000000000000000000000000000000000000000000000000000000003915222D45244E38354706F33637245F354424501A2E282B3037273514423B40,
000000000000000000000000000000000000000000000000000000000000000040312D343438403A393A32E52C691B2F33302A2C1C34272A332E313B1A392A33,
0000000000000000000000000000000000000000000000000000000000000000462F32A5F719276A214A4873B1802C60E24D2934271A3B26483025246380E622,
00000000000000000000000000000000000000000000000000000000000000002E2B2534262840283337220F4A2B2C3530321D392C322A283930264C443A2D4D,
0000000000000000000000000000000000000000000000000000000000000000302D3536303431352D3E31343332373B3F382F3B303135353D2A3E2F2C323233,
00000000000000000000000000000000000000000000000000000000000000002F39323133312C313E292D2B3A2E3D2B3F352B363C37323231242C462D382936,
0000000000000000000000000000000000000000000000000000000000000000EC2013062322802531FC37211EFA28D8F11D32801A80281A203B1F3BE621262B,
00000000000000000000000000000000000000000000000000000000000000003C2D3B3A3A453A373A292F2A28333A2B2E353E2D3E32353D323B30293C32362B,
00000000000000000000000000000000000000000000000000000000000000003438242F46342B2E3254182A3C2329FC661A2A1C2132192B30332441F2214035,
00000000000000000000000000000000000000000000000000000000000000002C27292B3C33B333303121E63A2F221E3A343528364A2A293F342D32002D0B31,
00000000000000000000000000000000000000000000000000000000000000002F2C342C2F3F393F2D203A322C2E2C3B2C4431373E3734322E2F32413E333E34,
000000000000000000000000000000000000000000000000000000000000000024272F4A19444B2B2B0836171F2C27341E4B2F352B362D243444311D252A5023,
0000000000000000000000000000000000000000000000000000000000000000411C3139353B23473C4437091F381B432B3A2337243B223331282D3C3E432C42,
0000000000000000000000000000000000000000000000000000000000000000332F295C19213D1C3B40F4E9350C2F1F342F2AFC2B442C23415A302838453929,
0000000000000000000000000000000000000000000000000000000000000000373C3234362B34382C2A30293E26383432332B33393D2D2E28372E373B2C3734,
0000000000000000000000000000000000000000000000000000000000000000322F3A373C42363F2735412C2F383D3337293234313A303F35382E2D3D2C3133,
0000000000000000000000000000000000000000000000000000000000000000C5242C1D55404B421C37331C2A1C2C552A2F2F0F2B382C32412A294F0E673912,
00000000000000000000000000000000000000000000000000000000000000003225333305EE45E239255DE619F923D12C293143343B343217493144371B1AF1,
00000000000000000000000000000000000000000000000000000000000000003B212B72343D43442D3A5A3E293A3708432F2A711F302D324A2B2A4A2C2E2E17,
0000000000000000000000000000000000000000000000000000000000000000000000000000000000000000000000000000000000004003FFF8FC2F07FE3FF8,
0000000000000000000000000000000000000000000000000000000000000000000000000000000000000000000000000000000000003A4A3E443E522F653656,
000000000000000000000000000000000000000000000000000000000000000000000000000000000000000000000000000000000000332F3A3A236449243639,
0000000000000000000000000000000000000000000000000000000000000000000000000000000000000000000000000000000000001024FD0D8E231880041F,
000000000000000000000000000000000000000000000000000000000000000000000000000000000000000000000000000000000000481C111D2A1616264E1A,
00000000000000000000000000000000000000000000000000000000000000000000000000000000000000000000000000000000000055542F2110203E521E2E,
0000000000000000000000000000000000000000000000000000000000000000000000000000000000000000000000000000000000002048252839192D342220,
000000000000000000000000000000000000000000000000000000000000000000000000000000000000000000000000000000000000514F584E303B3D445143,
000000000000000000000000000000000000000000000000000000000000000000000000000000000000000000000000000000000000FD0BE30018F82A0D1818,
0000000000000000000000000000000000000000000000000000000000000000000000000000000000000000000000000000000000003B18352D26072F2C1842,
000000000000000000000000000000000000000000000000000000000000000000000000000000000000000000000000000000000000333778757F4A6B534435,
000000000000000000000000000000000000000000000000000000000000000000000000000000000000000000000000000000000000220007F4DD0B1F20184A,
0000000000000000000000000000000000000000000000000000000000000000000000000000000000000000000000000000000000003E5533303D292F3E3728,
0000000000000000000000000000000000000000000000000000000000000000000000000000000000000000000000000000000000001732F9FA11CE200BFC1E,
0000000000000000000000000000000000000000000000000000000000000000000000000000000000000000000000000000000000005A395759C05A2BCE1857,
000000000000000000000000000000000000000000000000000000000000000000000000000000000000000000000000000000000000402B3531631D2D66452B,
0000000000000000000000000000000000000000000000000000000000000000000000000000000000000000000000000000000000001B4C3A332C3F321D1736,
00000000000000000000000000000000000000000000000000000000000000000000000000000000000000000000000000000000000013F21125190D34210858,
000000000000000000000000000000000000000000000000000000000000000000000000000000000000000000000000000000000000231D11180C25591E2218,
00000000000000000000000000000000000000000000000000000000000000000000000000000000000000000000000000000000000065C1DDD8DC19E1E8679F,
00000000000000000000000000000000000000000000000000000000000000000000000000000000000000000000000000000000000080ECFD808080D5804680,
00000000000000000000000000000000000000000000000000000000000000000000000000000000000000000000000000000000000020551D205126204E2C15,
00000000000000000000000000000000000000000000000000000000000000000000000000000000000000000000000000000000000051484F477F413E7F5142,
0000000000000000000000000000000000000000000000000000000000000000000000000000000000000000000000000000000000000F34696438D51D21083E,
0000000000000000000000000000000000000000000000000000000000000000000000000000000000000000000000000000000000002F42504B675155703448,
0000000000000000000000000000000000000000000000000000000000000000000000000000000000000000000000000000000000003A61414431646B573668,
000000000000000000000000000000000000000000000000000000000000000000000000000000000000000000000000000000000000D14E34313FF73234ED49,
0000000000000000000000000000000000000000000000000000000000000000000000000000000000000000000000000000000000001B3F4D455F3C3A4A1837,
00000000000000000000000000000000000000000000000000000000000000000000000000000000000000000000000000000000000008582426400C34410C20,
00000000000000000000000000000000000000000000000000000000000000000000000000000000000000000000000000000000000036303C3C4D0846346925,
000000000000000000000000000000000000000000000000000000000000000000000000000000000000000000000000000000000000FA122C342E151013FF1B,
00000000000000000000000000000000000000000000000000000000000000000000000000000000000000000000000000000000000080592A2B1880EF438057,
