memory_initialization_radix=16;
memory_initialization_vector= 
671A801E1C560E451B66BD19D0181F9E1D271C18141F09E71D1E1A441D5C5080002CE4451BF36700611B011916FC1A21107F211FF76F1E363F071FAB531F7F3B,
80CD2B1C1CF30D0916520017EC181945ADDD10191AFE7F3B2C1A197F22A6E2FD3C801039175D077FFE1DF4152DE5191C374E211C1B3819280FFB0A2041205D20,
422BDD1D1B137F391D1B3021261A1CF3E95218571B3A1EFD1F1E1E2B20FE800131012814165CCC2E021D031F0C221E20D1D31A2224421A4B182C2D14221C1209,
551C7F1D19353249183FAB1AFE191A761C1D59F8190C066C1C20173B1F394B7F0F2A7C1F114844097F1B0F171406171E7FFD1F20143422095F4101C47F1A8066,
2B24F01E20360E2E193A2C15121D1C3019FE1E6E1C510C80251F1D301E808008FC29F32B1A0EFC210B1D151C1C17151B94F71F1F17A9212611FE40022A1E3315,
EA651F1A21AA2329155DEF20322621005C3D6311144B351A1E2121491D79680A0D433D5820D71A42F3191C1F3AEC211E080B211E7F0F1D4D39617F3C5919F0FD,
443D411A1FBAD92D18114325271D1A2EFF581A33170AD5E21E1E2106227F55EFAB3DFC1B1C2D4833DB1F1B1F12D51E2100E020207FE61B523EFDC188491F4E5B,
0146181D1E457FE3257F0316051B1F186D21E10E152E351922211F0E1D6D34568EF802041AF3AA406025401E7F4E26231E3F1C1BFB0D203039DBA57F171E132B,
ACEE2A1F213D4A1118277F222C1F2201E76853271A7F802D181A1D211D74442E1A4300561B03707FF71EE81B1112182115ED211EE9F81D1B35492DF8A31A1823,
1B1F38191EE95B46143D041D261A1D3903802A481802140A161E1A411D0323211704F17F26317F09311F7F1D1618242125FF201C0D1023EC360D432E491DD27F,
2D1DB91D1B35142619342E1E1B1B1DE82E2A40FF1DFA0B2D251D21161E4880E0182A7F491072262C1B192C2116171D1F29BD1D1C2A0221FC403DE6290B1C0214,
2B26CE1A1D1E1E34193F3A2441201B153C2330291EFF2B8019201B421F80C31B11142D311A400113181B291F182A281F92E61C1B14E91A5B240F1F0C1221F723,
2223231D1F231E1C221C21221F20201B1F221C2023211D1F221F231D21212120201B232121231D1B1F1E21231E23211C1E1E1C221B21231E211D201C1B1C2020,
2E6D3E1B217F6123167FCE1C18201F282215F849180E3C32191B1D231D291617F64BF2251C14CA3E381D2A18F120141FC0E01E1B41C41D7146E93EA4591EF112,
EF7D011B205B60E31A7F091A0F1A1C18805744171F203845241F1A2B22C67F4E7F4F450E187FFE17002143197F6612202D681C2061F31D340019B37FEB243E02,
6C7630181C2A282B19737F15F71A1D24C75306271A807F361B1B1B1F1EE719D8E605261B1A4C4FFC561F6D1EF70E1D1E2D491C1D6616162D482B39C5801B3CA9,
462EE0191E293629163BF8191A1D1EF5EB3A19311B0C031E19181A2E1A4742DE081A053D1F3C67172C1B3F16221A1A1C29561A2007F82208251D05EF391C6FF4,
D04B331A211939321856201924281E0D542C5513211342361E1E1E521DACDB330BBD214A1624FA2F0D1EE916003A16201B461C19163020330C442A08471B1330,
001C131A18190E0421242B17292519163309171A190D4A3C21191C362310803C4442360A19F30F2B311A371A1F321820271E1F1D205A1E0C2634221E2E1DE2DA,
5137541F204D2A490E50C619251820491C6C291D1A101B231622191C1D334047F7213D371A2748191B1E421A0007191E350A2019074A1D1B312608E54220EDE4,
1F24FD1C202D492318481E160F1E2021052CF7491E284980221A211C227F80E0350B4F6722DF10182319001D111F2221C2121D2016C81B5A12282A04371D1224,
181C001D1BEB3C0E186A321700241D0CBD0C3F12161AD425241D1F371F1A582B24540F0E1EFE10310B1E031E4610251E03ED201E5126210C12267FB4001F18F9,
112D561A1FD905571E20CA2523181B27FFDE080E1C2B4907242121372137152D206D24F21D93F1EC021A071FDA2B161AF900201E7FE51FE5091BFA3320190B45,
1F324F1F21701BF51C7F17161D1A1B32FA43651F141C0A1A191B20441EF68DF9D80500642518E3223A21F81D612A1F2126221F1B43E61C2F2200CF72401BF42A,
ED15F61E191C4E391A5F591F121F1F1F0F3B0B071949BD0A181E20071F624C240F28292816E11F510D207F150E27181C13221B1A01361B27481C2DE1EE1FEDE1,
202F321B1AFB3C171954481910191D2D3472191319FD422316201D26211E1726432EF76423E921FC3A1F80190B0C111A2B151F182E551F0226383537FB1C287F,
2227441920201A1414071A19571D2215DE2B2F251F2B0B3C231D1A271B53804909035324121E1117291C161E1226221F2E181F2421381C5419102B2A38202330,
2429131C1C3E292E134E1B271C1D1F0A7F1AD32B1F103580241D1C241C80E3F7313D223E11112A1A1921161C1F0E201EF6161D1C2AB11D3625441A00291E0311,
1E1D1D1F1F22201F1B1D201B1F1D221D1E231D22231E2020201B1E2321231E1E231E211E1C20221E222020221C1D22211C1E1E1E21231C22211C2121201E1F1D,
0D3E21201C615F3C165EEF1C25281C02173FF7291B28373D151F19EE1D313015371C00331AD60F424417F619F51B191DFE47232051022040292D320224202533,
F71F3422221BD60A2106FA1B20261C13EBD5D8F1263EF948251C1C2C202B242F112DF5521BD7CE283A1A1C1B6669171F31131D1F134C20FC0C524032051DCD14,
42421B1E1B461B37135D581A03181F1714C33C3123350C2815221B361E0F0B3A2323E8001F10BD23201A1818071C20234525211D54161D3A33191EBB081A256F,
