memory_initialization_radix=16;
memory_initialization_vector= 
48340C353544313F35481C342134351435383534333630273535343F354542E82E39263F342A482E47352E34332C3436325336362B4A353C3E30351743366F3D,
403A253435383C38333D2B343435352B283C343A35312E353434343934403F2530342F3D363D483339343E3336343435384434362F2B363037352F293C354A2A,
3B33273534362F36333B31343235342D37333D323431383C3534352D363D3A2B37383F3334393A3435343F342B3732363F4635363528342C3A392B3C2C36472D,
3836323434403B3B34392B332B3336362F3531323434323C3435343536353B3A34304425352D32363A3436352D353336433B3535372F36353830302D40363B3F,
393F3835353B3C3B343B2A35373535351E3737303432383D3435363236303630363F422B363E2E3935352E343234333633313435373236323A2F2F333635273A,
40402C3635383635323637343A343434363637383633353C3434353A3634343F2F344639352D3631353438352839333539303435352B343333362E3C38363534,
38343C353536403C33343D353633353A2D39333A35403C3534363434353130212D374635363F3434323634342E3734352F3034353927353C38352D3B3C36332D,
372D3A3434323738333037353B343535222F323636393232343636403632312F343C392F363C3731323536342D373235353A3536352D3331312C2F3532362A3B,
38373D353431303634323534363335382B353E3435312E3134353538352F2F1B35313538363A323237352F33363E333632373536322933333A31353935363038,
3C394A353437373233282B332E34362929393831343335313435343634322F3233363234363C383338353435373933353D3D3436333B34333B33353E34363736,
3939383434392F3C34302D332A33362631333532363333323536353D353233223536323A33363D3038343B332E3E33343A4336353032343A2E2A333B41343530,
392F333436323B3736332D352F333628353B412E36343736353534353633341A39393338352F3F3237363633343D35353C4036352E39343A3936383A39353D39,
372F33353435373A323628352933352F383C403D36323A383434353535353A2D303A3438342842303F3534343D4035363D443734313D3436362E3B3441354336,
392B34343539303C33382F3533353436412D3932362D343A34353432363837283134402B3533313637363735323B333533403635313D342E373C3A3035354732,
3534253536373536343039343B34353034343539353A383F34363437353A383632343A303630333531353C353A3A333435343535372A353337373A2D39363939,
3632323534353338342E3A333D36353237303A333531383B343535333638394E30344B2A353B34353635343435363436433335353428353736363B3136353540,
3C3A373535353A37342D3B343734353C29372A34363B34333433353535373C1E3C37392B36353635313435343E3A3434383336353824343339353C3534353434,
3838323435333738323631342E3436362E3A3646353C35323335343D363539372F36433E35352F3331352E3445383235313934353331363038323D3138372736,
41333B3534353736342D32352C3436332B323D31353B322F33353339353438393B32413A3637332F3A34363342353234343935362D3B353937303B3436362E2F,
3E373A34353A3B3C32342D343A3435303937362F353233363536353635363730333E3935363831353B343C34402C3334383B3535333433353A333B343A362E35,
3B2F493536353236332F2B372F34352B3A3B3538342B323B3435343A3636300D37373336363A45364035323539283336404035353846333834333A3C3B362233,
3E39633435362F3733341C34233434103F30493235313B2C37343440342E31D338342934352C4A2E45353A33361E3434435835353763352A3B34393E47350936,
F1203935352A313033432D332834343F18243234342D533D3934344F3616262C3DDA323C33462F652D352A33392634353C423635353C3438312C30363E364536,
21413B3436343C3A34443634373835314339433336333F3B353535433518243B301C364133372C3A313527332E3D333634403534333A363B313F38304034333A,
0D2E2A363523403F364836332C363537204836283531342D343434383620342836FE3D34343C42462C36393339373336424A35343029343A3A33481A3B363828,
0D33363534333F32343E36354237363C3F3D3D37343B3E35343534473520422E2C1A32243543264327364134333B34363B3736342D2E343435324D2F35344434,
21363A35363A2C413537373435353439412D2D35332C4237353535403529393D3A01433E34343A3F31362B3534353436393E3635302E3534372D513E37352F42,
134031353636523934333C34343336353534293035273A3E3735333D36344237313B2D383337383830353434343234353F3B35363C2334353124533244354031,
2331423535312A35343633353B37363F2640373E34402D363535353F353D422D2F343D48323534302F35393528383536333C3637373D342C39314F3434352C2D,
303A2435363B3633332C34343A3734373039333D3533392D3435353C35474B3A34112E2A3237394028364036293834354032353631373631382E53443036432C,
24364035352C313333373C332A353533252A303D362439383335353435494D37332C4134333436473A362F363432353537353635344B362F2E2C523B3136353D,
1B2C4035342A3439313426351E3536372D3A2B37353430283435343934464C2E39253A3134462B392E3527352A3A3535323C3635323E363F28404B4337362E3C,
1F34343536363330332A34362F36353641314032352C3B353434363C35444C293719383C364A364728353334383834373A3D3535393333383332433334363D35,
2934423535374A3033362D372E35353855303C43342A37353434343E35434D3F3525372D32322447323539352E3F353540403635374433312A313B3643352F3B,
20332F34352C3836332A2D34303635322E312F3D35363E2F34353538354847343D193D37333B3A4E33343336334534363B3B35363038353B2F39342C39353B38,
0F322E34352A3335323F39343E35343D3C32432934383C303634353637493D38331C353B333D3E482C343434413932362B333536323136373C2E292A3536382B,
2D323C3636324137332D30352636363B322E3638331F343A35343432354C4031322B4133322C35312F342D3434423435413C35363339363E333C22322E353232,
1F3A3B3435322D3831363E343B3735333834292F35362C3733353531364E393B2F193D373432363D31363F35393A35362F3B36352F35352E392A182935363D30,
193740363435293F343145373935353F3140363C36403A363434343E374C2F2439FF3C38343C3A3A2F363D333C36373742393634372B34373A2D133B3735342C,
2B2B233534343436343337383533363C3A2D432D36243D3C3536343A363C323C4615373A342C2D44313624353B3137362F3B36373137342E3636143F3E35383F,
23333D353530393636333E372F3536321F4435303519383D3534343C373727333A043D3433363448323536343B2F3435413E3536313C36353636113B3536383A,
0B31443535343334332C3A3435343538293B48363434332C34353544352A1438370F3A3A333F363D2F342E353B2A35353E3435343428353E2A3A1A3D42354336,
17392C353531403C34321A35393536373A2F48373620463E363635323621163C3421304133333C4732363D353736353432403534343635333331202F3F36222E,
F722313635253F3232332337253335314D2843353525523135343449360A0F2444E04B3833443E632E3630343F20373637483735312C34332C3432403B35293E,
3F3924353533503C35353A363734352A27433444353C352C36353539362DC22E3A2E3833334520392E352E363136353621223436373F34413439393336353230,
2E3532343434312F36373933383734333B3034343431413D3634353C3632FC3D3F3F3C30342A32393A343C34363B34363835363536453531373B36353A352624,
323B2B3535334039353334354136363144235042353C393136363436360E1F1C2D2D452D343D2D312B353E3336343434291D3534353A35363E3F2F293835393B,
3B3B143634392C3D35323934353736332F372936373234333535353935340830363B2B3433432C3836342036393C3336322835363A4436363A35473B37362A4B,
37352F3435334035342B3A373B38362C3B3E343936303A363535353D350DFF42423D4834352F35382F342F3636363734242F3636323A34383C3C2F2F3636331E,
353F233536343438333637373A35352E3C363A3F3438312F3435353B354210343C373A34333D39333C35433535353835292737363545343D3430263942361E2E,
372F143435332B3B33363A35373335332D2B2A4335393A2A363636373628F6402E2F3B39343525342A362C3437393536332A3636354834373943523633363233,
313E2D3534323C32342D2D333B3435341E37363834393D313634353D3528132E3939412B353635333A362B3433353235272636353139353F3E3A253B3C352F4C,
3B312134363B403D37343A353C3436363A4A3B403632413537353634352C172D4239362E35362B362E36263432383235332836363B4F363835383D3435352621,
363E2D34352C383C373632373D3435302F2B3739363A352D3535353A3557F03131342732333A3A393335443537333436322B3437323F3642363A2D3E3B352C26,
35311834363B3636313737372E373533392F31483534352D3435363D3614153C3E3B4C2B35431F3630363A36363C35352B263537394035333145313532352538,
342C1534352E3639333633343D37353130353333353B3937333635373543E8233E354431342633312D36243537393635282C3536342C3542403C3D3334353045,
3D3D343635383735342C3E352F3535312242363E3434332F33363537372B00383632353433453937353428364034353529253536333C3430363A30333D362923,
3333143635304037353930363C37352D373420313538352B35353540351EF5334038322232422C322D353D3436363536312D36353729343B3B32362D3335252C,
3B3A1D36343B3F39332F3A33303635303B293F3D373A3B1E3536343A372C323C2E3A43383038363633363634353834352E2736343242363A32383A352F36333F,
343B223536302F3A353737343C34362F423F2E3A36413738363435393638F11D362C2C313230213733362436373635352F3135363742363E373D2F373A362246,
37362636363C3F3E363635343736342C2642383C3634302D333535363518094138343D2A354032332A353736353C343623243636362534433A39343739363A20,
3831293436352D31373431333D3635393931384537423D393436343F3521F1283D3B343A323D2935373438353632323531283537383D3431373A3D3332362C2A,
36380D363437433B303430364134342B37313B3236383728353536363513E33041364A2C364928342A353C3642383735352E3635363C34413D352D333C36273A,
33361F343436313533353D37383435363532254536383C383636363D355C1D3637302B2C38382B3733362E34373035361B263636363734343A3244313A34363C,
3C3B423536373439322D31343B3435313F3D403A353A342E3636363C3645D53F483B402D353A2B3931342F34373434353925363639373443323E2A3E32363F34,
373D17353533393A34323D35353536312642304736393A2C353534343538DA223439443B35452A3328353934393436352D1C36363126343A3C2F383337353420,
44355935343B3A40343E17342D34344C3535452B34312F493536333D363C415B31384E3532403F3050353233332F3435592D3636333B3630463E2E1E5434FC48,
423C43353641394031421E3437343640354938353432353733363435353B3E402B363D3C3438403435353F342E2F34353B3036342F4135353A3830263F362826,
3E3A3036353B373832422A332C3534372B363A373335362C3434333C35383C3E3E3936363332393033353F3430303235303D3534313E353B383D2A293C363130,
3F373835353B353931432D342F35353B1F2A35423339362D3333364034383834363A2833343C343534352F34313D3434323436342D2D34364030302239364244,
373E3434353D323B323C2F34373536373039393A333730353535342D353B383334313538334137323B3634332C3C3335313C3634323D36352F322F3335363E33,
383D4034353B383433363334343335343535352C3434323234353439344137372E3331333239342D383534333433343440403534353B35343A37313D3A343730,
3238393636353436333A36343634343849373631343C2E3E35343435363937302E36233233303C3734353C332C323236413B35353B3D342C342C31422C36382B,
372A423536353C3C332D36352F36353231383C3333353F373434353F353A3635313446293436303933363033253833353B353536363C34372E3B343E38353638,
3E34363434363438322E27343636353A2C382C33342E2B3C333633373535393837403533343F383238363333353734343A3335363239352F3B3632373F353E32,
352F3536353D373932312D353636353E3A33402D333C443B353434373631373D313A3D34353E3533383540342C3C3335353D36353242343D38382C3C3A373A3B,
3D3536343538313A3130263432363540313035353436323A3535343736333440392F313633393D2F383637343241313546313635343A35333B3434394135313D,
3F3436343530343E322E32333536353F34363837342F3239353534403432353D343B443734312E2F393630343744323445353535323E35353F4036373F353E3E,
37332E343439333A34342D342F33343D3739372B322E3E3A3435343C3430323C363238363538332C36342F34363D32353F3236352C33342E35373A313F353434,
3B36343535313539342B30342F3436393036393D34362D3935353634362E324335393D33333335343835413435403235373D34353034343132363C3A3D363A3A,
30373B353436313431362F342A34353D302B3D3B34372D343535362E362E34403133433A33343C33323537342F403235313A3635323734443E283C343635362E,
3C31393536393037322D3C3439333635303A332F34342A3A333535393529343B3437302D34432E35333530333C393236313C3635313A343B3A2B3B3F30353D3A,
3B2F4236343B3338312F32352D343533393D3B323338323534363635342A352A3C3830313334343237352D35423534363E3436363048352F33403D333C36372E,
3B32493535343036343630353D35363321363435343A3C353435333B352B3A373639252E333E303A35353F343F3A35353E3E35363146353C353B3F2C3C34382B,
3830373436373437332C2C343234343B292F3A3E333637333535333534353734383E233933392B2F42353E3449303435373C3535343A33303A3441333A363738,
41382C3535363C3C32352E35383534383233373B353C433A3434353E3436383B2F2B38373424312F3D3631333E2C323438323435373F3532363A3F2F3B354438,
3E36243535353E3C343027352D33343F3F373C2F34382D353435344235413E3F3C3039363341493638342F343B213335483935353236352934423F3B39354641,
423918363436343C333218352235365242343833342E2C373534343A3646415534334F36312D4F2E4735403339203435533736343437352E4334364350355435,
39372935363C313A343D39333235353A342D354A354231D73735353A3507EF302C382A3934312C363035333535333335122B363533173637322D3E2E38353B33,
36372D353639403734403533323536362F392B40353840DF363436353650FC253B3042483625323437342D35323636361D323536331F34453238382F3C353237,
3B362E3535393E3A353F3A353B353535F4322C3B363634D43835363135211933363C113D3132333432353635363634340E3A3535341D363F3938353237352E2A,
3733143536343736333933372D34363744383B2C363D31E03435363935F8E01C3732304233392D343636363535333535262E3436343B344233363A3337363331,
38333B34352F3A38353B3B3336333433392C2F37353733DD3736363F344B3D3335371832342D2E3430362F363639343613363536312A353A33353C333736273A,
333E273435333635353932343435363651373C34363637D336353538351E00293B3F2241323D303935353236333634361F3335342E25353F3A373F3032363129,
37363635353637393432383535373633433A1C3837362FE73636363935E52F463639363831342A3232353B363935363530333435341C363D3635313C3F361A2F,
363B363534313A38363A373534353637482E2F33344133DD3635363F35DEDF3038332936333835373A342D35333833351F343737313C353B3336373339362933,
36372F3435392E34353634343735363746373735343532D53735353A361C202335372440342D323431363834393534351D363636302234433B3832323B363232,
33312C3435323434353639343535353A183A3738353B3BCF3635363D3625FB293335FD3533352D3432352D3432383436163236353434353C372D383631343830,
3638303536373034343533333033363657292C3D363D36D535353537351B0A3A3639403C323A2F3331343836333934362A3035363430353D32302F3634363F37,
343428353535353634343735363834382B374336363B34E93535353635F80E213033043B32392E3930363536313535341E363436322C353F38373E373C352636,
383734353535383935343536323735351635303636373AD53535362E3543F92F3B30353833302F3430343136353B343520363535341C353F393D2B3A39363B36,
35332F3535312D39333937342F373636493D2F33373D37E4343635383409103B38322632322F24332F3632333C39353524323635311E343C3B22313F32353030,
3B363835353A33373234353437343637252F233F363D2FEC3436363936EA262F3A3E373F3149323731343235363C37351E373536331C343B383539363C352B2E,
38332A3434363D3836343A35343537393D333738363434E53835353A35151E3D3D3643383336373539353736393736361B38363531353641382A373A3E361C36,
32392B3536303733342F3533393536333735333934382FD93535353635EC053433362633333B273631353236403636351A383636304836413435352F30362C37,
3C3B37353635363635393E372C35353534343F4137363BDF3435343E35F7F92B3338204235342F373C3532353235353529323535351E3541302839373D342A37,
3338433635343737343137343235353932393438364234DC35363639361DF03437322E3938303834313732353B363636222E36373319353D313D203237363431,
373736363431453535353F383435353F3A343A3D34373DF5343536383505F52F383D344136352C363A353D343B3335350E3C36362F22333F372A37333635302C,
32352635343A2A353838343331353535332A3640353D34BC35363531360C1F303C2F063F3232373534352A353532353527283435352B3438383B2D3934362B34,
3932323535323436363333342C3536393035313C363E38DF3735343F362BD8253939363E3331383639352E36392E35360F2B363434213543332C373E3A352628,
2848363436173738334529363B37362E453D473233413B3435363640354D4830313F3D443623343F2A3435363C28363530303635633135413C474F3D4434292C,
34352E3534283D3134493B342D3735311C313E32333422373735353C3534443937433231352D323A30352E35403237352E2936354237363132374F1A2D36342B,
2A3D38363423392D33362D353537363B4135383135302B363834343935273C28292C3C30302031352F343F353C3836363B3735344E3A363E3533472843362D32,
36413E353625373C324737333335362F583B3939353E1C31353535313536323B323F342D323A2833313634332F323736323A34354C44363333373A363A352D3F,
30404036352A422F323B31343635353628302F343448363A363736423740362B37253237352A393E323532333E3A35344729363643193630333833363E353C3F,
1E3C373535223231353938343335363719373D3A343C1B313635344036253533323B2C4A3549443340352D36392F34362B3B353447333535333B382549363428,
36362D35352A3D38383228343F353632543A3B30363F3B3035353536362330343D392835341E2F363235443539313635443B36344A493432353F324B3D363535,
343B2A36352D303B343230373235352D42293830352B2F33363636363633222A31383832352E2D37293430352F3438343C3035353E2B362A2D463A4B36353F39,
373C33353525272B333235372D34373D442F392E354C28353436352F351C2B2A312B3434373B394131363735303234353B3535354D35363840332B263436303B,
293D3E35352D2D31373C3434393636373A353A37362F273D3535343C352027353A434441372A332E2E342E36393A33353531343747343635382D2E4239354C27,
21362E36342C352E36382F353438343236332D41373B353834373538361B2E31343B423C3638343B2A362E362F353636393F3436443935303B451C3335343339,
2B4A3E3535242F38333F39372F3636354F42322D363D3B3335343637362A353B2D2E462735272F39353432353A2B35362F2D3636403C3634392E20363935363D,
3D423D3636324C32334233343F34343029263D34353118383635343735352D3B39403B35332D373B323436342F3D3734363D3535452C3542333E2A2439363035,
28373436351E3931343333332E3535352C424141354339333535353936332927344230483632463532352236363835353B313536472C3633303C333E36343932,
28463F353424353B363330363B35363706263534344236383536343435392D3835333E3A383F2F34353642353C30313531373635433236313E2230363D353533,
3140393634253F3436353D332A3535350D3F352F34362B3B343635363536372C2D33412935232C3B333542362138303443363636423F363930302F3E40352E3D,
2C39323534252635343C2F343434363A252D3334343A29353435353136463D333C343037372E40333234273531353436302E35364A1F34373A392C3E2734562E,
35333A353523332C352D3633383336324237473C35381C3835343530354E3336333B393532242D34243640362B363736453F353645453531353A303A42342E30,
224C46363529302E343528332D3636374C3B2441352C382B3434352836453F34323A3734342C27352F3631362A373435383536354247353D3A2F35483D35403A,
1F4C4135361E482E333C32333A3435362F344B363435282C3336353B3542433123372A2C33352F342B3639353B473234343F34354437352D353736323935323B,
213A2E35351B312B34313634363535363535233F35413A2533363537353D463B2D262D3834323D3B3D342035344533343E2D35363E2E353936303D1C3D36322A,
183C3E3535163A293640323537333537323C3F3735411D2E353635343742563327442D3C333A2A3529353936484F343639383634603634332F30432931363D2E,
3F3D3E34351B233934323F37383534392D44343B333022263535362F36784329173D2C353539403B24363536322235362D253636522735433D2D1D0E40364245,
3239443435232F4435361F37373435382D253031353940303736363C363C3339364A372A35112A282E342F36243933342B2D36356126362630342C3B3634303F,
35412D3535123A34352628332937353A2C3F2732364144EF3635353E35461C3B4B26403E33220A1827343534233B3335272635353F4535482C2C31263635352F,
2D37343536042B3C34273A363537352D23311944351D3E4637353637354F462712474A2E342B232C2D343035164033362B3D35363B41362F3448043735353129,
38424635351A2842333815343F3535354B323F3D344A40433435363036433D3D2343234437492327293546351B21343424393736522D363F3E34123B35353340,
4B343935361D5A4334104F344A37352C3B3320423624483C34353633353051452D40112433323C2A1A352B3621473636342E35364A44352F333AE33844352726,
3C334B3435143536383A33343135363C33272E4335343C6734353637342552254E3F493A322635262C342E3618353735223135354816373B2F31FF393B341928,
473E2E35352D2E39351A3C373C3435331F33372B34412A343736363037221744252C5F3C320F302417353D36263C34352D253636451836403635283142342733,
35393836341F333A361F3D353735353D4232313D3533254937353433352335373D4549463538481816351733233C33342E2935354F3E363D41362D434A361831,
3F5039363517263E373736353B3636343B3E383B36333B32353537313512363129382636340A352B2E353534222C3636312C36374B3136402F3B4B3B3E343919,
343F2D353617483D351127343C3435341A29212B37435227343635333616392D1A2A312934012C2D23342E362C4737350F2C36354A3B364337362B292E354350,
3A3E46353627284532343B333B34363327301A3C35341A2E35363526352A4E3E183E0429362644250E353034174834342D3834374F0C35373E3D2D3B37352038,
3731083536143835361C30363636343A3D39303C3738333E3436364935372D2C32463F28354916291E363433384533342B303637444A352D322E143C2D35402E,
333A243436273440342C4737353534371A2C4033342D322D3536353F351C2E362A3D1F28354127200D3545353032373620333737413C3440352E542E39363D1A,
3E241C363511353A341C4234343635313E24354135281A383636362C365A153E2B35302F3310452B23353D35373336352C2B35363E12344E3137162A3A353A2F,
373F133434133B4A341F2F33413536350C233637343E374536353534363925292A420C3334EA2F2013352D36442A3434282C3535372135303B413E2A40352E3E,
35224E34341C323D35163234353636355532223333373D1B373536323645220E3C3312463510241A1E362936472A32362E2B3636493134452F37401831361E3E,
3536213534163238331731333E3435333A2D2235343B61363736364335202E2E283247403424142730353533461D3435223935373F2434343440433931351F23,
3D4F2C3635152B42330E20352D35353E2E392F2E34334126343634373524363B2E3E39363B20222C21353134383632362C123535420C344B3C26422E43343532,
38491636340E233B341D3F35353434362A3115393636310F35363430344E554136412522333623220F3628363D363235162E3635452A35394130472C35363835,
46352B36351C314037302B333435363B32460D363737181C3636353A3540353B2A3B231C3116202911342E34510C3235342D3536404236423E1F422E3B343B29,
4F382934352D2E3D33263933433536344A36422D37461E2E3735352E35352A473E3A19463615F93220354D3445FD35340E2A35355936353E423B232F3D343D13,
2E403435353F502637532E332F3536344A36253133393B3436363631354A3B44102B2E2F342A173E46373E3552423737353E35352C31363A3C24165834353239,
363A4236364A352B355634333534353B2C3F4835333530343435363F352B102C232F2D47373426363D362B3547383636373636353F27353A362E214B3E342A38,
35430E3534335132365C3537313536334333334033382D28363636323435522609313B263440223836353C34503E333538453534311A34343327315136363A31,
2C363636364E523036683A37403636331A362739342B412336353539352D3F33013C2C3E36222A3439352B35452C343538493635344035313944054539362F3D,
19444534362F523134562C3420363538323F2F33353C33393736363B351E37340728392A363C1B3C4C364735523E3334334535352B4D364A3021184236363C36,
2C363E353528452E34613E333836352F0638223A34252A373636352B343841530B3323383649303F3F341F373E3B32352D513635292036363D2F1B5031353942,
2C383F353733362D374E3C343136353B2C3D4235342D2F073836351834553548FB1B26253837383926342A355C3F3535353935362A33363F452A023129353530,
273D353636394622354B2F343636372D1C2F223136303E263635353236FE5A34FF2E143B352B1D3857362E35443134352A403535263A353733481E313136372C,
353E3635353F432635503434313536333036413D362E2D3B37363535363E083F03394238352A103E3F3637364A3A3635463335362F3F3539302E1C422D36243E,
2E4C3F36363B5627345C34383636362E352D373A3430344336363736353D423B03341F2F352B2E3C40343A35382933353B4135353034363638371A3D3C373336,
234134353538421E3760433737373540053B1D3A3545333B3535353E3553304225213D38382121394E352C34383A3635343E3536313A352F441B272E34363E2E,
2944423635454333364C3437373436363C2A3B40343E44393736352B360A2C2C1D23293C3725283A463542344234353532473635382C342D382AFD623D353836,
384E2335363F482236593E333F353639EA38263E332836363735353137032633FA482A4C32581C4158342D363E303535493936353235353D3C2D213F3D362C38,
224E2B36373E442534532F38303536303327352433313B253636352D352E153C0A202C3835293034413636363A343436234136352F3634333A4C234E3935332E,
1B41283635243428385F3A3539363639F7344C333534373F36363732351B172BEE36273E362E2F4649352E3543383335393A35352327363F413C292F3D362734,
3356303535463E25365638343737363605384B33352F4E2D353535253639533EFE362A533428214346353C352D3A3335413636363837363A4632133D3435483C,
205B2A3735333D2F38513A34463635373932482A3532384135363635352A5F25F52D3E3C35404B4955353135353C39363436353426433533372E17483B352B2A,
33483635342A3527365832352F34353D0E3A3A363526291534373532361C2B2300421239352B35444A373435344F3634353636353343353E3E2C403B30344533,
21462E343538372A355E35354A35353421314D333437443D37353631374B7E31FF2531473724264142372D34313934342F3F36342E47353A3E45135C35364438,
194C2E3536475F28374C333640363535DD39303F34362D453735362737124938143B1A3B33382D4441362A332B473336364135353323343F3A252A5042352A48,
2C40443535375B29354633344435362CFF3821313535413537353534371A2447FF234934332A1E3442363135365133362A4935342C4C364335441F493235443E,
134A1436364E4C27356A373431353635E62B2F36352E421B3736362C3629301DDC35D73936362D3A4D352536175936352C3F3636383434313A3AFD4239362B30,
18293836363D4132343861363936362E27484338345CF43934343536354C3F39343F2D44342E4B532B3527343232343633283635272B35343B40392B15343437,
28332B353435423C3446443632363536313D302F34401C30343536303647413731383838332536423136503331383435333634342E3B35384035392529362825,
27323D34343D343A333A4434323536382D1E303633373C30343536363542453E3D3F3C3134392C4034363934393734363D2C36352C3D343231343F332D36313E,
2B373234353B3E3D34413B343B3535353A30313A3344233734343536363E42273B3D373834333B33363628342E3E333537373635312F343A343A4A3224352E44,
303B38353537293636363033313535362D3E363C3534393233343631363A402E313D363635333638293429332F353535373535353A3E352E353844353936342F,
30312B3534393939373B3D343B343531303A392F35332F393635353634323E392C323E34352A323834364B33313533353E333534332E363D353F4B3535353928,
32363034363B3036363A3337393536334031433E34312C393534353D3531393A39342D2E362135382E3437342A34353531383634302B34373736493C29363843,
2C3E3734343134383436393336343636152C313A35303E3636353633352F353135333A3834323C3B39353033303E33353930363535323431303A413334363640,
3434353536373F32352F3A3437343537313E3C3B34312F3435333635362736343D372A34353D353733352134343D33353D373535323A34363237443F2E344337,
2C2E413534343A3835313D343134362D3541373835432A34353534393524383E384433343526373B33353734363934353C3B3535313F3534383B3C3529363029,
2F2D3235353C323435324535383535342B4134343545243D3434353B342634343D36343C3338294C2F354D342E3A34353E2C3535331F3434373D3E3E2C343B3F,
282C3E36353C3638332845343634353A3233383E344225383334353235252D343C412F3F352A444431362632333D35363C3535342E2A353736383D362A35393C,
2B2C383536393A37352C46333634353533333A3835432C383334353435252E3237432C3D35353F392D362F333B3F333532383634302F34343B3A3B332B352F30,
303437343430313934363734363434383E363C36353A2C3B3534343235242A3033333D3A3442323C35364635343C32352B2236353641342E3432323128353A2A,
33302D36343A3438353733343534353346223E39353530363435363735262B36372B3A2B3430353634353F34373B3335393A3636313535393139303239353437,
2C2F3234353A353A333A3A33373536333A2F362F3335213534353535352E2C3541343B393337303C383525333B3E3234383736353136363E3C35273636343047,
32343834353631343430413335353538283A3232353737373435363C3539313F3A343D3F341A423738352934433B3435303A36352E343439382E24322F362B31,
2C38323434373639343636343335353B2B46332F3538383834353435353F332D2F392F3733222939373541343E3E343534333434334333343934203436353121,
2B2B2C36342F3A353329393537353534322A38373436253434343537353E322E3F3F3633342228403A344B3443373335442835363436343336381F362B36424B,
2A2B323635393636352F42343833353441204231354034373434353E3640393842313F32352F3148313628343A1F32353C3734352C2F35343540253130353A54,
2631383436403A37343740333333362C433F2F2C34392B393635343235493E31393D2F3D3523424530341734381F333632353534382733393C43233C25343935,
1E2D42353538484134285D343933352C494C3046355EF73334343632344E423D46483241352B4647283654333D2332343A3135362B323333384730451B344513,
35363C3435284540333D2F353734353C2E023840342E33303335343E352E3736342E2A58373A52303A366B3533343736372D3635313237283B313F3940352152,
363A3A35342C3D3334434034323435393B4B3432342C3F3733363537363533373F392B473727362C3D360C3431313234393336343A44352E373C3B3C2C353857,
39373D3436343A37353231353836353A11524039342E31353436343C353128443D28104C3533532D2E352F35373A3335322C35353531352A3832373436352C33,
3432343435333534363832343036363838462D4E362A433034353627362724474140253F35274138323557362C353635452F36353147362A3121493C2B35411F,
383F4B363538353636392D35353535373316423A35363C433536352E3534353E362D1F323444413931353F352F39353529343635392F35333142232D3236424A,
3B37383436322B3234373A3532343636F83E313D3536322F34363536363C31413733254D3232393A373522363933343643373635343F3533392B39353F353B45,
323A3535362E373D333E2C343C34353A393C2237352B45403835353236293831353B2641342F5232363531352D3A36342A2F3636353736363637323838353D29,
332F3B34352E353C34333734343634393A472C39343A3B333635353D363D38263D3F24393533383332354035423D3534323B353534383731363E3D3E3B363C26,
35313236352D393A353A37363437353855144E39343634303535352835333944352F214D353D4A3034354E35373B34352E2435353228342F343C3F3F2E352D41,
3D393934363A423B353234353A36353121401E3C37383A3B35343638362D4D413C2B143F343C3F3533362A3637373434404137353B3E362E3D3230333B353F4F,
342E313536353E393139363533353638424C3E403535353A3535352A353947443831284A3620453237353235353F3636362D3635362D352939343E3F3E362937,
383E413635373337352D3C343A3735314A3D22353643233034353537353E3B353E1F1B4A3652463435364535363933353B38353639413629383E2A3230353021,
3A312C3535313B39333D3A363437352E2920253635283B333336353635453640334727353425443131354D35363535363B373434333B353438372B343C342F49,
383B4234362F273432393237293735382A3F2F3D35352B2C3536352C344048333826124432443933363521353A3834342F303435343B352E363231352E34344B,
3939343435393B3633333933403635392B43363E333241323337353D3533432B3F4326453332453632353B353A35343432373636351B35343238373A2935353F,
3A382A34352F2E3A333936353636363843393134352540353535343236333D213032283932333E3A32373D343F3334362B393434353E362F402F302F3D34322A,
333C3B353437473535372A343D3436352F1F373935373C3E3435353A353E353543312544314249363B363C33363E3436362F3535372F352E2C43213531344146,
3B382F34342E3939343E33353C3735353C373836343B3A3B34353536362F20314335333B31394235333529354135323435313536383136313C2D372E34353141,
3234313535343232303330333A34363326623B38343430353437342E363D3A412B2C25453336522A2F352F3538343335362F3436374736343B3137373E364127,
30383835352F394035392B35303436393B423F333538433E333535373636253B3B393144373E4833333456353C2F3435322D3434342C35313536423B3536331C,
3537363534333E3B333238333635353930FE273E353F2D3535353535342B223D3731293F343147342F3463353728333535363534303335283D2B3D4139353550,
31382A34352A343A33302D352836353B4E532F47362B3D31353536343635343538362D4B3131453136350E343A3532343B2B3536363B34213A39393C3E353F61,
39351B35343B3337343B39353535352739393E2D352C3039373536333540802534384E40324B37393534393633333536381C3535382E362C3E3D273830352E33,
36383F3436363433332F34344435363324393A373639303D3735343835430040302E433732353234383533353237363639343637363C3543343239383C36373A,
32343B3536363A3A343D3B34323535311F2F383A35383C3337363637353520403A392F3F333635333A353836363336352828353635273531333337342D343A36,
40392C3535373C38363734353C34352F37352F35352D3B3236353637352A1627363E463D3533333938363735353A35363A2B35353525342F39382D303C352732,
3638383435372C31332D32343B3336323E39363635332B3B343436363625D9313931343B353F39373535373534393636412B36363A32353A3E3F34383C353832,
3036423436352F3733393B35313535332E2E3E3636343E4337363533353FEE40382F3532362E383235353A3534343735282E353634223638342C2E3930343D3C,
353C4535353E3438323334354436352D3139323A37373438373536353547EC332E30453B37433E3833352F36313734363E343636382135363C422F3B36353834,
3B2D383634312A3135393534313634353C392E343529303D3436353C3515FB2A3E3E3D36353925383C363636373935363825363638123737313C342D3236363B,
313131363536363C343638343A3536323C31372F353A383E34363537352BC9313C2B384234363D333635383537393736392B3536343A35333A414B4339353A2E,
3B3E443536352D393433373435373634213C3C3835363D3434363638353CF0383134372F3534393A3834373435393734302E353437313636392B22393A363A38,
3A3233353537382E333634353936353256362E37363133393535353E3533FE2D38393640333F35373A352F34343536363B313535361B3531353C322E2E353034,
332F3B3435343A3E34373A343836353028373B343531393A34353637363BFF383639323A3534363336363A36373B3335382D3535352335383A3338373B34363D,
313A3835343A283338313634343735364831383B34323340343535323634FF283B36433D3442303936363A343A3233353A2E3535393935363734303C35354235,
3E313C3436353235383934353634353035342F36342D2C3D363535383718DE2B373442363533333339363936373B33362E253536381B3633343A2F3533352B38,
363C3D3634343936393638363C353531433A322D362C413F3334363B3726ED373D3039333539373C3A3535343336343542313536341435363C462E372E363D33,
393038353539253A353537383336363137352937363B3436363635343641E23534373B39343B3036393432353D363236342A36343720343338312D3641353639,
34384235363B3D35363838383C3635353D3B34343535393C3635353D36311B303A2A3138332B383334363635353A3635312F3536391D3430353B3B3033363733,
3531303435333732363234343735353035303345362F34353636352A3525142D3A3F393A323C3A3A37363F34353035363B2C36343628343C34342E3E32343936,
393A3F3535352E38363A37343B3535313C37262B35343836383536423546D6393739383A35432C383C352F3335363534352F3635363C36353A393D3734363B3A,
323D3B3735362E31342F33352C343633423A253335363239373635393533F92B382735343631343433343A353A373336351C363636163537363A3D332F343635,
38353B36363A373833363E353B3735343F313A2D343C3D3B36353530353E1D25363F413F342938353035373537383435373D34343233353441302A3541353C30,
35365236353732393737313538363531463E2B48352A3043363735383447953B3B3D212D3352333A38363A36373035353F2135363B1434353935323A3235493E,
393721343535353B343E3D373E3635333D373A38352D39DF3436343F36001E353233393A343E2E32343538353438383611273535332834453731363132362B37,
37383235353D383933423538353536305134223936323B0137353537350A262B3A3D363E3232383434363335363136352B3335353819353C373F342D38352E32,
3B403135353B3939343B33333534363637352E3D373131FA3836353A3516283C303E2F3C353C2D39343438332F393335132B34363332343F362E293139352436,
3A373F3435332D3533393B36383536373C36373637423F013634353935E623323725333C35373934363532333132333521303535362A343A38342E3530362D29,
3A381F353534363835393B3437363531362E363D35263ADB3534363836F81B3A343D363B3636323432353F362C3934342D2B35353232364134392B3738362D34,
36353C3535313337343D3535373736394334393B353143E73835343A361A4937353D293C34292F3535362E34343838361B2A3636321E353F3735322C32363938,
38392334353C363831363634393634321A362A43343637FD37363533351E2F2C363B3B3633332E352F34343530363735222B3535353F353D343A35383D352A33,
3B372E353632303D333436363B34363320343D34362B41DD37353533351C2A402F3C313E3436313636363834333A343528323536342836423C37273A36363A30,
37353D3534372E34323936372F3735324532253B362F30DE3535363A341D14363C3A30373637373134353434303933352D2A36353323343E30393B3832352B32,
3B3323363534333A35313C353535343628363639342F39EC34343634344C2F33323A3240343B293531363235363C34351E2E3635372D36373A38313730343032,
35352D3436342E3131322E363537353539322F34353436D93436364034301A29303F263334342E3333353034353436352F2B3636332935403332313839353036,
38311E363530353D33373F35323635342638332F373131E036363537360B2A3A39363B3E35483634353534342F403435202F3536332C343C3B2F303631362632,
383A2F3436332F333331343339373533342F2E35363246C83635353B35283233372E2034322A333434343C3536393435242E3535343A343E39382F3935362F30,
36362D353533293A353635383935353748383F3C35382EF33435363F3545333131384138313B2B3434363136364035352431353533113441363C282F36363033,
3C353F3436312D3835303738363435371A343542353A3DE634353538350F4B2B3C34242932363637343532343B3B3635272E3635322F36343435393A36363335,
323334343531313A323836343834363236353134343333EC3436353A341A3A333C32283D34322B30333535343A3B363521313535331E3543383933343A362830,
3F35303635392F333332343339353537362A2B4136323AE634353538352C53353B433E31363735363035343539343535232A3636352A3535353948362F353838,
383826363631373B3A3539353234353131393136363E37E03435343E3516423B312B1938313A323535362D36403036352D35353633333442343D38353A362838,
3B3B423636333035392F38362F34353334332233352F38E43735343B35081E333B3D3D38343A3437363632333C39383525243636341D353C34384D372F353337,
373632353534323A37393D383635363835392C39353C38053535353F350D2A36372E29333539363131353434403034351F2C3636333B364036352C2E37363C30,
393634353539303732323C3331343633402F253E353037F936353435360038293C382241343C303B39343236393233352F29353734213534343A443730362C30,
383A3635353132393333363636373732262F273E33333B163434363E35FAF9313E373C3635372E32373535353B2736350C2B35353731344535343D3B38363238,
36373735353735353635363636363634363635363736353636363735363636363635373636373535363536373536363535353536353637353635363535353636,
35353535363636363535363536353635353635363735363636353537363735353735363535363635363636363535363635353535363735363635363636353635,
35353536353535363536363635363536363635353736353635363636353636363535363535363636373736373636363734363535353635373636363536353535,
36353536363635363637353537363635373636363735363536363635353635373635353535353537353736353636363736363536353535353536353535353535,
35373635363636363636363636363536353535353637363636363536353635373536353536363636353636363535363535363636353635353537363635363636,
35353536363636363536353636353535353535363635353636353635353535353536353635353635363635353537353535343635363537373636353636353635,
35363636363536363635363536363635363535353637363635353635353535353736353536353635363535363535373535353636353536363435363536363736,
36353536353635363636363637363635353535353735363736363737353535343636363536353536353636353636353635363536353635363535353636353735,
35353636363536363535353535353535353536363636373535363534363535363636363635363636353636363635363636343636363535353635353736363635,
35363636373535353636353435363635363536353736353637373536353535353636353536363636353535353636353535353635363535363635373537363637,
36353635353535363635363536373535353735353535353535353535353536353735363636363535363535353535363636353635363635363635363536363535,
35353535363635363535353635353536353536363536353735363537363735353435353635353535363636363635353535363537353535363635373535353635,
35373635363636353536353535363535353536353535363536353535363536363635363535363536373536353535353536353536353537373536363635363635,
35353536353636363737363537353536363636353736353736353536363535343636353536353535363636353635353536353637363635373635363535363536,
37373636363636363735363535353636353535353635353636353735353635353535363535363635373635353536363636363636363535373636353636363536,
36363636353636363535353637363536363637353536363636353535363736363737353735363536353535373535363536363635353636363535353635363536,
36353535363536363636353635353636363635353735363535373735353535363635363536353535363537353535353635353535363636363635353536363535,
35353535353535353637363535353736363634363735353536353735353536363635353635353636363635353635363536363636363637353637353636363635,
35373635363636353636353636363535353537353535373636363635353536363536353537353635343636363636353535363635373636363535373536353536,
36353537353537363535353535363635353635363536373635353636353535363635363635363637353535353535353536353636353636373535353535363635,
36373536353635363537353636353536363536353536363536353537363636353635353536363535363535363536363536363535363536373735363736363535,
37363535373735353536353536363635363535363635353536353736363635353636363635353635363635363536363535353636353536353536373535353635,
3A4A3D3536554737335620353436363836332B4034313D3A34343537353833342B412A3735331F3E3C353834293633351D2535353E1E354B40273D1644352932,
313E36363547463D334629353738352E343E2B3835383C3D33363429353A3A333C352D3B3422323F3F342B342B3534352D403736432E363E38393A2E3736373B,
3939363534442D36334322333536353938382D2C353E3C4034353634363C3A403A2C372B34332B3A4434383628373435432D3634433B353A3937343D40362B32,
33343035343E3A37343F3C3431373631362B3B2D352B333A3536352D3538362D3A283230333D3E40433540352C3F33352B2F36353E2D352734323C243235332E,
32353936353A333E34393933363634380E33373C35323538343534363539332F383B342F3330443F3B362C332E3734362F3635363F40353F34393C3C3A363439,
323B3035353E33363338333439343435483D303C3535373C353535293534334C31353C2D342C2B3E43343435303935353B2C35353B3735333726383A34363838,
36323C35343C3936333439343034352E1F40302C352C1F3B3536343136333A363E362F34343D3D3540343236313A3535313935343F48363B3D33363B3A353736,
3D393B353642333C312E333339373538F8322F3636322F3C35363430362D3B383B353B3E3336363D3F363F34354034343E2F35353E31363B31373C3F43353C30,
3C373235343D3732333030342B36352F2F382A39373624383535352B362D352E3A35382A333B2A383E3439343B3E3535313D35353E37353D3641383E3237373D,
31383034363F3D3732322B333C3634383A2F303D36302B3E35353436352E333F38443535343F30393C3533353141333636323634403D353B3539333F39352F2F,
39312F3635403E3632332C34303737321F2A363536322E383536343636363A303D3A3B323441393D40352E34353C343633323736413D343B333F3F2F3D362A3B,
37352A3535402C34333434332A34362F1E3A403737303938333635353634333A3B373F2E33312D3E40353734373F3434293336363D3E3430343F392F3C352929,
38352F35363B2E37332F28333535353B21373F34362F3E353435343B36333137423B3534333A343C3C353633363E36362D2C35363E3435393135352A36353929,
3E37373536402E3F342D383540363533413B333636313E3E333634353635372B393231363330323A3D362F3437403536392D3537383234393D34344239353334,
3730313535413A3733333D352C36353532382C38363038423335352D3439373E39332A36322D3F3B3B35313337433335242F3536383B34293322323234353C2C,
34373A3534443033342F2B353A34353646303E37362C263C353535243538373D3838303B322931393C353535323C3435392C36363436343C373E363D34363A38,
36353635363D3435322C2C342C35362C38372A3236332A3B3435362D3641322F2F333A393436313F3D363534473933343B3936364034353A3440383A3D35333C,
34353336353F2F33333B30333134363032343625352F3D38343636343545333C303539303241383D453634344742333638393535443335343A3432373134313A,
333D383535433035333330332E353530392D2E2B3530283A3435342C364133374142352A32402C4345363C344A31343638423634404433353A3C3A2E38343538,
3A352F3636462B3E33302D333E34353440312F4137372F3B353534323639353441392E2B354126403A3632354E1B3434262D3535423233403C3F3F3F3F353A32,
4137233635423538342B2A352D343632392D20383636353034363335353635254F37402F363D273A39342A34451232352A2F353445393344373D354B3C352A3B,
3E3B1E3534453139332D19352933342927362437372A303835363535363334344D473C3E34342F3B40342D34390A3235222236354D37334C3A403B4E4235351F,
294E2E343645462634643034313435340B443F3436363C3F37363439361E764256423F31344F2D332E363F345E48323639483536472A353B2D341A7F28373E2E,
2B353B3636342330362F2C343638353228222329373E2B40373535393639373A32392B43342320383D343535484933363A3335353341362C31433E3A2F352033,
32383B35342E4133354E4A354137364451474C4B392E3C39343635323538551C2A342E2B333F2A2F29344235453F3436303736342A303635402E315442353630,
3344273436354033344124343E37362F362F4A2937393B293736363D35245936262E43363519253A38343937554434352F3B35343B203539233A233933353E42,
303E2E36352E492F343A33373238353410333244373B37263635352935414F2732313E3436414A3532362C36494436362F3B363736233433312A344737362B2B,
3C462C3436432F35335335363F36362A3C2234353733352A35363536350A544D46450E3C36402D3A36364E36453B3735423535353627352B3635053A2D352E40,
23472634362E452C333C3B382835353A35353F21382D353A3536343F36294034302D362D353035342C3526354B4638341B3835352B3534373C29293F39364434,
334B233635343D3A345C3C364E353432132F3D3637413D57353634363629662B3336413C333E463B3A353A364B323636253A35363041362D343E213637353838,
44304A3635403E29323B2B333234353743311733373A3D133536363F362A6E282D3A3A3A331A24363535353641493635533A36353239362D35412C403034222B,
29512E36363F2C36335632352C363539513D4630342C3E52373535393507522D393B4139353C373730373B33463936352B3435363D3D36412C353C472F35432E,
1B3A3735353C472E353D3F343F363737463442413438393E34363536361C4B4B362A1B3535263F343836353348413435164336362B1D34273F1A253F43363838,
34443B363531383A365539353C353537423C3632353E38333435353E3621453A27433F40354B2738353527333B3E353649353636352A353D312BFA372D341B38,
2B483335352C3E3035443535333635333A2C383135362F253335362F3608492A262732333339313034355534414235363D45353537363537394C153A34353B2D,
27382435353B4431374D35344534352E423D3B2C333530493436353B35275340233D403B353230392D361F333C413634243735362F37362F2B2E3D3E2B352B31,
383D1B35352E3431374A37352735353840333934363736473335353536266328113C3334332F413A383439353D4736362D3B35352C3435423A2B07373A343638,
214043363635342E364D33344735353B37373C3534372D2033353537363F312DFC263F30353A323136373B35374936363E2D34343722342D303C24382D351A30,
323326343534462A37463A333235352F373A3A3834392F1F35353436351431370C2D163C3422273B35362734384036352C43353533313339302D2D3237344332,
2541233636303A2E3746303734353534362F433F33342F5A35353629371C553C1534363B3632272F34344334355135343D2735352B4A3340353B213834343A38,
2F3A34373531402D36473D35343534412D39403C333545113635354035483D2DF940392E373344382F342434354E35342E3E35363129352C3522224136353329,
1E3930353637352836453F363A353531242D2B3E352F2D4D353636383536393D122A242F3612343238343A3437503635303436353032352C332F2B3931373339,
2A393A36352D373236432F373136353D4331402A353B300E35353433362B391C0F2E1A34374B25372C35323533333633313836353631353336411F3C31353433,
2A4B2035353D411937563A36233635300D373B5135362D2B36363533352A302FDD250939362B2B3B3D36343533403435353E34362B3934392D33FF402E342B2B,
4A4C3A3435383839344B51332B3435371F432F3834015C3C3435343635273423272F37343441422C44364A352B313535394035354833333940393C1EE1353D17,
3E3F34353540353C334644342E343534331E3D3A373B31383336343C3531303C3637272E35321C37363434342F3536373F3736354333353C3B34351C3034374A,
3C362F35353A3A34334140343834363A2A3B263C37263E36363536393533333B3B383D2C353433343C352A342F393436343A3534403C362F3127272A23342744,
3A363D34343F3934363D3F352934353B373D422A35253E37343634383432353432333B2D353845353D35343334393536383A3536393B353938382C3711363234,
3F3A2F35353D3139353F42353A3335323F362B3334303B383835353A353A353330283E35353B3037393437342E3A3634343635363A36343635342A3023363C2E,
3F3E3136343A373E323C3935343434393735343D363E38363936362B363F34392F362D38343239383D3431332D373536323536363F3434353A3A2E323936443B,
3933343536344137342C30333536343C302F3E2C35343238393634383644352D3D3E3A38343A3C3B3D3531342A2F343532383636354035372D2F333936352C42,
33382B3436303F3C332B38333536352E383E392A35383934343535363645384335343B3432353535373633362A333535363A35353B3935352B33324D32343230,
3A3D3F3535323536332C36352C353535343A393B34283D3B35353534354636373B31393D3341352E39363936293B3536273B36344540343E42372D3F2236362D,
3B393635353A2F36333042353D3736372C272B32352B393835363430364336383A32332F3231302E36354835333C3435403836353F3933343F30314022364037,
3C373A353435353A343343342F36363A233333373537343D35343433363E3B34383E312F32312F3230353533373F3535353335353E383534393034372B343238,
41383C3535352C31333541352B3634332C3D3A3D332141333835363B353C3A473530322F333A372E3B342D34333D353538423437412E352F3745322F22363537,
38393E34343B363832353B342F343438213A2637352544303635363036343A2E37304133322E3E3432353E34393E34353C3035353F373538362F352D1C363D26,
3C3B3D3535393237332E4534393534372824363B35243A36353534383436373428492C2732333433373634353F4735363A3935373B3235323F2936322636333C,
3C33293534392F38342E3335383635352C41433535413A37343536403633393A34322F38334131383B362E35394235353839363637363432303D39303D353A3C,
33303D3536343537352E3635323735433A39382A353E29383436352D362F382638383334333D34372F362C34384036363D32363734433636302A3C362B353E31,
3B3429353632353734303B342A3734343E32283634253A3A3335343C3530373B3E3B443434303C333D343A34413436352F363637393334383633403C2D35342B,
38333136363B3535362E3B3438343635313039393422373B3335352C362D3B393438303E33333038373538333A3336352C3A34353641363E3A3E3D3837362F3E,
424031353538353E37323C3530353439382C463335293A393336342D3626363038332E2F37362D333E3430333F36353539443635423C35363F2F423918363A43,
3E393D35343A3A37362D3E3435333633313B3230342E42313435343F362D333A39423635343C32343C352B34432A3435373A35363E3A35373434423520352E37,
3D382F3435342F3637323D35373535353A4F362D34293730343635373535342D3A33292D352934343A343934442236362D363634442C36323D3F41362E362D1D,
483F413435352E3A373258352833363B2B273544330756353535343436382F373C2C353C343C382A3C354D36421137363B3835344D2B363D3D2E4444E5353A3F,
0000000000000000000000000000000000000000000000000000000000000000403D3B3D3D404642403C3C453E54413B403B3739353D3E3F3C3C3E403242363B,
00000000000000000000000000000000000000000000000000000000000000004C3738334E3D4D3B3940384A3B3A3E4C3A403F3C3F383738403C394930564336,
00000000000000000000000000000000000000000000000000000000000000003E3D3C433F3D3E3D3E403B43403D433C3E3F3B42413F3A3C3E3A3F413F3C3E3D,
0000000000000000000000000000000000000000000000000000000000000000383E3A39433B41413D4B312A423A401252353F3B383D393F3B3D3C452C3C433A,
00000000000000000000000000000000000000000000000000000000000000004E353839403D173E3F4037283D3E38383E3F323D363B3A36413D3E3F24402A3D,
000000000000000000000000000000000000000000000000000000000000000062353747584A475C3D653D6D3D533C572E683A3139E13F3E34363648373A3E4F,
00000000000000000000000000000000000000000000000000000000000000003C3A373D41423E4A43403E283E453843403E3B3E3C3C3740423D3948EC404143,
0000000000000000000000000000000000000000000000000000000000000000303B3A3A45483B4446403C283B46393E39454041363C383640433D374E454448,
000000000000000000000000000000000000000000000000000000000000000039373B3D40403C3D403E3A3F2F2D3A3C413F383F373D323642403F432510413A,
00000000000000000000000000000000000000000000000000000000000000003E3F413C433E3A403E3C3E403C3A3D3E3B3B3B41423C3F423A3A3C3D3E3D433C,
0000000000000000000000000000000000000000000000000000000000000000163D37302C403859363F3A2F403C3B6F38393C3D393C3D3C3D263B422E4C3F2C,
000000000000000000000000000000000000000000000000000000000000000040393B113E3F42383E414F4F3F3C3A3A3E3F384E3C403E394032373F3F42423E,
00000000000000000000000000000000000000000000000000000000000000003C3F40393A3E3F413C3B403D3E3B3F3D3C413B39433B3A3E3F3B3C3D3F42413A,
0000000000000000000000000000000000000000000000000000000000000000413C3A433D3E3C403D3D3E3E3D3D42403D42423E40403B3C3E403E3F3D3E3D41,
000000000000000000000000000000000000000000000000000000000000000030343E403E3845403B3939404D363A363C3C37373B4239383E3E3D4651453A41,
00000000000000000000000000000000000000000000000000000000000000001C3539333C282B3F362F42343D3D362F3C433A483B32373D153F3A303D383A4E,
00000000000000000000000000000000000000000000000000000000000000003E4142423F3D3F413B3D4139413E3D3A423B3A40423F413F443E3A3E42414040,
00000000000000000000000000000000000000000000000000000000000000003D3B3E3D3C3B3B3C443D3B3F433C3B3D3D453E3A3C403F3A403D42423D3C3C3B,
00000000000000000000000000000000000000000000000000000000000000003B383D393E340643413D3340363D383F3E403A393948413B3A3F3A3F04392343,
000000000000000000000000000000000000000000000000000000000000000048363B393F31163B403E37413839403A3B3E3F403C423A3D3B413B3E423B273C,
00000000000000000000000000000000000000000000000000000000000000003E3B3A3B403B3940413F3B403E403B433D3C3A41433D413F423E3C37403E3F3C,
000000000000000000000000000000000000000000000000000000000000000041373D3D3D40483F403A3CFF3F563D3A3D3B3E3A3D3F373F3C3E3E403443353B,
0000000000000000000000000000000000000000000000000000000000000000433A3F403D3C3A3E403E3B3C3E40423F433D403F433D3C3E3D3C413C423F3E40,
0000000000000000000000000000000000000000000000000000000000000000393B393C453E4334403A282B40413C273E4434403C3F333A37483A3C3C404049,
00000000000000000000000000000000000000000000000000000000000000003041364A3D3A45393F424D1E403036473C403E203C403C3C381B373B423B3E3B,
000000000000000000000000000000000000000000000000000000000000000021393941383F4B263D35412C3E4A3F393C3F3C3D3C3F373B273A3F474748244A,
000000000000000000000000000000000000000000000000000000000000000042403945434141334545355B2A483B3B4B3A353B3F39404035343C4F44324440,
0000000000000000000000000000000000000000000000000000000000000000413E403A403F3F383E443D3C3E403C3C46403B40403D3C3F3D353940403E3739,
0000000000000000000000000000000000000000000000000000000000000000303D3E42403F3D2B3B2C462142443F472A3D3D3D3840383A393B3D4629463924,
0000000000000000000000000000000000000000000000000000000000000000523F3C3E52442B023142444742303B383C4038393B3D3438503B3D543850472C,
00000000000000000000000000000000000000000000000000000000000000003E3C38383D38424E3E45343E443D392F41393A443F3F3C383C423D48393B4238,
0000000000000000000000000000000000000000000000000000000000000000653D36463C3F47463E4942303843424538433C423838383A293E3C44324A4549,
0000000000000000000000000000000000000000000000000000000000000000A23D4000383B3A142122FB3B4235393342373EFB4330373A46303C47363D2B40,
00000000000000000000000000000000000000000000000000000000000000004E3E3E302DF6334412F62E3349203D144327410E40593D3847423C336836C51C,
0000000000000000000000000000000000000000000000000000000000000000043D3DB4445346273A4F46384165363BC27F3C463DAA423E5DA23E3B403D3D53,
00000000000000000000000000000000000000000000000000000000000000003D3F403E423C413B423C423D41413E3F3D3C3D4142413C3B413C42423D424142,
00000000000000000000000000000000000000000000000000000000000000003C373B483E443B30423646163F4038404542393E333F3334433D39394144443C,
00000000000000000000000000000000000000000000000000000000000000003A3C3B414438403B3E403C3F3A3F3F3D3E3E3D394040413D3D3B3D3F3B3F4243,
00000000000000000000000000000000000000000000000000000000000000003D3D3C3A413F403F3E42403C3D3C414040413D403C3C3D3D403E433D3C3F3B41,
0000000000000000000000000000000000000000000000000000000000000000403B3F443B40454143463C413F3B3E3A3A3D413A433E3D423F3841393E3A3E3F,
0000000000000000000000000000000000000000000000000000000000000000C638393746D1251F3F6B1836499E3B3B33483AFE3E47423742F93F2D27292A44,
0000000000000000000000000000000000000000000000000000000000000000313E3D2E413C37253B4A3D354036383250343C373D3E3E373F353B3F233B443A,
00000000000000000000000000000000000000000000000000000000000000003F343739443E3F403E4F412540383938373337373E3D383C373D36412C38433E,
00000000000000000000000000000000000000000000000000000000000000003D3E3A4143403A4139394141403F403D3C3E3C41403A3D3A3D3B423D413C433C,
0000000000000000000000000000000000000000000000000000000000000000413C393E3F43433D433E3F343542334639423642373D3C353F3E39394C323D34,
00000000000000000000000000000000000000000000000000000000000000004031363B453748403E462B233F3F374F3E443749333C393A3C3F383E31444143,
0000000000000000000000000000000000000000000000000000000000000000433D3B3E3E3F434140403D1D3B53343C3E3C3A3B343E393A3D3C3D4133403A3D,
0000000000000000000000000000000000000000000000000000000000000000453C3D03253338543647465708AE3B501C48393E39334138463C383751801E36,
00000000000000000000000000000000000000000000000000000000000000003B3A383E383943393D3F372F473A3B3E3C3D35403B3D3A39403C384844403B48,
00000000000000000000000000000000000000000000000000000000000000003C3B3E3F3C3E3D3E3B423D3E3E3D3F4142403C413C3C3E3E423A423C3B3D3D3D,
00000000000000000000000000000000000000000000000000000000000000003C403D3D3E3D3A3D42393B3A403C413A423E3A3F413F3D3D3D383B453B403A3F,
00000000000000000000000000000000000000000000000000000000000000002036312B3737E5383C273F363526391822343DA833DD3933364135411E36383A,
0000000000000000000000000000000000000000000000000000000000000000413B41404045403F40393C3A393E403A3B3E423B423D3E413D413C39413D3F3A,
00000000000000000000000000000000000000000000000000000000000000003E3F373C453E3A3C3D4B323A41373A2752333A34363D333A3C3D37432336433E,
00000000000000000000000000000000000000000000000000000000000000003B39393A413D093E3C3D361E403C3635403E3E393F473A39423E3B3D293B2D3D,
00000000000000000000000000000000000000000000000000000000000000003C3B3E3B3C4240423B36403D3B3B3A413B443D3F423F3E3D3B3C3D43423D423E,
000000000000000000000000000000000000000000000000000000000000000037393C473344473A3A2C3F32353B393E35473C3E3A3F3B373E443D35383A4937,
000000000000000000000000000000000000000000000000000000000000000043343D403E41374541443F2C364034443A40373F3841363D3D393B4142443B44,
00000000000000000000000000000000000000000000000000000000000000003E3C394E333641344143231F3E2E3C353E3C3A273A443A37434D3C393F454039,
00000000000000000000000000000000000000000000000000000000000000003F413D3E3F3A3E403B3A3C3942383F3E3D3E3A3E40423B3B393F3B3F413B3F3E,
00000000000000000000000000000000000000000000000000000000000000003D3C403F41443F42383E433B3C40423D3F393D3E3D403C423E3F3B3B413B3D3E,
000000000000000000000000000000000000000000000000000000000000000011383B354B434744343F3D343A343B4B3A3C3C2F3A403B3D433A39492E534030,
00000000000000000000000000000000000000000000000000000000000000003D383D3D2B21451C40384E1E332537153B3A3D443E413E3D32473D443F343322,
000000000000000000000000000000000000000000000000000000000000000041363A573E4244443B404D423A403F2C443C3A57353C3B3D473A3A473B3C3C32,
00000000000000000000000000000000000000000000000000000000000000000000000000000000000000000000000000000000000078717170717672717870,
00000000000000000000000000000000000000000000000000000000000000000000000000000000000000000000000000000000000077797778777A767B777A,
00000000000000000000000000000000000000000000000000000000000000000000000000000000000000000000000000000000000076767777757B79757777,
000000000000000000000000000000000000000000000000000000000000000000000000000000000000000000000000000000000000737571726575745A7274,
00000000000000000000000000000000000000000000000000000000000000000000000000000000000000000000000000000000000078747374757373757974,
0000000000000000000000000000000000000000000000000000000000000000000000000000000000000000000000000000000000007A7A76747374777A7476,
00000000000000000000000000000000000000000000000000000000000000000000000000000000000000000000000000000000000074787575777476767574,
00000000000000000000000000000000000000000000000000000000000000000000000000000000000000000000000000000000000079797A79767777787978,
00000000000000000000000000000000000000000000000000000000000000000000000000000000000000000000000000000000000071726E71747075727474,
00000000000000000000000000000000000000000000000000000000000000000000000000000000000000000000000000000000000077747776757276767478,
00000000000000000000000000000000000000000000000000000000000000000000000000000000000000000000000000000000000076777D7D7F797C7A7877,
000000000000000000000000000000000000000000000000000000000000000000000000000000000000000000000000000000000000757172706D7274747479,
000000000000000000000000000000000000000000000000000000000000000000000000000000000000000000000000000000000000777A7676777576777775,
00000000000000000000000000000000000000000000000000000000000000000000000000000000000000000000000000000000000074767070736C74727174,
0000000000000000000000000000000000000000000000000000000000000000000000000000000000000000000000000000000000007A777A7A6B7A766C747A,
000000000000000000000000000000000000000000000000000000000000000000000000000000000000000000000000000000000000787676767B74767B7876,
00000000000000000000000000000000000000000000000000000000000000000000000000000000000000000000000000000000000074797776767876747477,
0000000000000000000000000000000000000000000000000000000000000000000000000000000000000000000000000000000000007370737574727674727A,
0000000000000000000000000000000000000000000000000000000000000000000000000000000000000000000000000000000000007574737472757A747574,
0000000000000000000000000000000000000000000000000000000000000000000000000000000000000000000000000000000000007B6B6D6D6D746E6F7C67,
000000000000000000000000000000000000000000000000000000000000000000000000000000000000000000000000000000000000496F71365E596D4B7832,
000000000000000000000000000000000000000000000000000000000000000000000000000000000000000000000000000000000000747A7474797574797673,
000000000000000000000000000000000000000000000000000000000000000000000000000000000000000000000000000000000000797879787F78777E7978,
00000000000000000000000000000000000000000000000000000000000000000000000000000000000000000000000000000000000073767C7B776D74757277,
000000000000000000000000000000000000000000000000000000000000000000000000000000000000000000000000000000000000767879797C797A7D7678,
000000000000000000000000000000000000000000000000000000000000000000000000000000000000000000000000000000000000777B7878767B7C7A777C,
0000000000000000000000000000000000000000000000000000000000000000000000000000000000000000000000000000000000006C797676787076766F79,
000000000000000000000000000000000000000000000000000000000000000000000000000000000000000000000000000000000000747879787B7777797477,
000000000000000000000000000000000000000000000000000000000000000000000000000000000000000000000000000000000000727A7575787276787274,
00000000000000000000000000000000000000000000000000000000000000000000000000000000000000000000000000000000000077767777797278767C75,
00000000000000000000000000000000000000000000000000000000000000000000000000000000000000000000000000000000000070737676767373737174,
000000000000000000000000000000000000000000000000000000000000000000000000000000000000000000000000000000000000E17A757674EF6F78807A,
