memory_initialization_radix=16;
memory_initialization_vector=
C9,
AB,
80,
EC,
A9,
02,
6F,
B2,
19,
28,
9E,
98,
75,
7D,
2F,
93,
E1,
64,
81,
1A,
1E,
26,
97,
1C,
CD,
46,
D8,
BA,
B4,
4A,
AC,
B4,
11,
0B,
86,
18,
2B,
95,
A8,
9E,
2E,
F2,
3E,
1F,
A9,
B4,
9F,
9E,
2D,
D1,
D4,
77,
9C,
EA,
BB,
33,
9D,
68,
A4,
4F,
B5,
5B,
67,
C3,
C6,
24,
5C,
8B,
47,
8C,
E6,
3E,
8A,
CC,
53,
4A,
3C,
98,
08,
A6,
EB,
A3,
E2,
DD,
9B,
5D,
AA,
A4,
B2,
AA,
2E,
9A,
C9,
A0,
80,
7E,
80,
B2,
B1,
74,
6F,
17,
62,
7A,
89,
2A,
46,
3B,
13,
93,
F2,
42,
F4,
97,
10,
09,
92,
51,
6D,
40,
0C,
DF,
8F,
8A,
78,
C1,
DF,
A3,
0F,
7B,
92,
62,
99,
5B,
C9,
1A,
33,
FF,
07,
A3,
F9,
AF,
84,
51,
6A,
02,
EE,
70,
DF,
9A,
5E,
0A,
8F,
C2,
3A,
3B,
80,
D1,
7F,
0B,
39,
93,
C1,
AE,
4F,
44,
E6,
0A,
77,
64,
DC,
B0,
29,
EA,
E7,
65,
4D,
61,
89,
2F,
B9,
5E,
47,
FF,
0F,
E4,
36,
5C,
95,
2B,
61,
D5,
16,
CF,
29,
63,
1E,
50,
7C,
14,
D1,
AF,
54,
16,
FA,
D8,
31,
EB,
A7,
FC,
58,
2F,
F5,
8E,
1B,
90,
49,
3C,
D3,
ED,
A0,
86,
A5,
12,
37,
97,
17,
98,
64,
97,
5A,
3F,
7E,
91,
BA,
9E,
67,
45,
D5,
87,
3E,
58,
7B,
8C,
A5,
78,
21,
FD,
CF,
B9,
C2,
CD,
A1,
49,
98,
0C,
3E,
D7,
6C,
94,
6A,
0C,
93,
70,
4F,
9A,
7F,
BA,
F2,
0D,
AC,
F5,
73,
0A,
AA,
49,
05,
46,
5B,
B8,
20,
B6,
36,
3C,
47,
2E,
FD,
19,
2D,
EF,
91,
CF,
BD,
BF,
26,
FD,
D0,
1F,
89,
AD,
BB,
8A,
E9,
83,
5D,
C3,
AE,
A6,
4D,
0C,
62,
21,
8A,
92,
29,
3A,
8B,
E3,
43,
64,
ED,
BA,
DC,
2E,
64,
F7,
DF,
AC,
E7,
43,
9D,
69,
EB,
44,
39,
87,
FC,
BE,
F8,
9E,
83,
CA,
2C,
0B,
43,
36,
EC,
29,
CC,
65,
98,
9B,
00,
47,
AC,
5B,
66,
5E,
8D,
2F,
44,
F8,
B7,
79,
A7,
64,
C7,
47,
C7,
58,
2E,
77,
29,
6A,
49,
48,
75,
5C,
17,
5C,
63,
32,
53,
42,
AD,
71,
D3,
D7,
25,
98,
D3,
DC,
55,
B1,
7A,
00,
09,
EF,
61,
D3,
D6,
91,
4A,
A9,
F8,
66,
5A,
8F,
FD,
84,
F7,
DB,
A9,
3B,
23,
5A,
44,
4A,
80,
90,
B8,
43,
E2,
74,
30,
4F,
6E,
D2,
DD,
DD,
F6,
F1,
63,
81,
10,
74,
0A,
15,
3C,
CF,
89,
14,
A1,
69,
C0,
39,
2F,
A1,
1B,
05,
42,
2E,
51,
46,
07,
B4,
D9,
AC,
52,
4A,
C1,
A7,
A6,
0D,
63,
3A,
34,
D1,
60,
26,
3C,
DC,
65,
15,
B4,
DC,
24,
EC,
D8,
4F,
71,
A8,
30,
3B,
87,
72,
5C,
F0,
83,
A9,
A9,
0C,
8A,
54,
0F,
CD,
13,
CA,
DC,
37,
E2,
91,
10,
ED,
8F,
C7,
C1,
9D,
95,
94,
E6,
01,
09,
E5,
4E,
4A,
15,
61,
70,
92,
C2,
74,
FD,
8D,
A8,
92,
8B,
E8,
40,
3E,
E6,
7B,
02,
58,
AD,
C3,
D3,
1B,
C2,
42,
AB,
E2,
7A,
43,
40,
78,
5F,
CE,
3A,
F0,
AF,
63,
FF,
2A,
17,
7E,
89,
0F,
1F,
2D,
B9,
91,
42,
EC,
5B,
2D,
8A,
23,
46,
94,
FE,
1C,
69,
4F,
94,
D1,
D6,
BE,
75,
11,
ED,
24,
26,
A2,
FF,
A2,
C0,
E3,
75,
55,
86,
E6,
5A,
5F,
39,
E9,
E2,
2C,
35,
3B,
1B,
14,
3B,
C8,
07,
95,
63,
84,
26,
01,
12,
5B,
4C,
47,
A4,
46,
B5,
28,
71,
A9,
DE,
0B,
73,
1E,
04,
2C,
1E,
C4,
55,
98,
08,
8E,
2E,
17,
8C,
07,
FA,
FD,
A5,
59,
79,
C7,
11,
E5,
79,
15,
96,
46,
B1,
5E,
A6,
95,
87,
31,
6F,
8B,
66,
17,
B7,
21,
ED,
07,
58,
6E,
DA,
31,
6C,
5E,
41,
93,
43,
C2,
77,
A9,
31,
3A,
34,
59,
E0,
A8,
BE,
F5,
AF,
CB,
9A,
A9,
12,
DF,
DB,
86,
22,
CE,
23,
6D,
17,
6E,
12,
29,
CF,
8A,
8B,
FD,
82,
8D,
73,
D8,
C9,
D9,
B9,
FC,
90,
70,
43,
AD,
F8,
3E,
77,
B4,
68,
C0,
53,
6F,
49,
17,
8C,
58,
F7,
95,
90,
86,
F6,
AA,
B1,
80,
61,
43,
87,
04,
DF,
C2,
4F,
AD,
09,
24,
2E,
E2,
94,
52,
DE,
CE,
3C,
BD,
D7,
17,
E9,
D4,
EC,
5E,
66,
2D,
21,
82,
5D,
CE,
F0,
78,
87,
E4,
14,
54,
2F,
FF,
56,
16,
0A,
4A,
09,
3B,
9B,
4E,
C8,
D0,
8A,
04,
63,
2C,
70,
28,
BE,
F9,
D1,
B2,
FF,
65,
21,
D2,
B7,
30,
9B,
85,
B9,
9A,
49,
12,
DB,
4E,
B9,
D6,
DE,
87,
81,
DE,
A7,
C6,
2F,
AA,
A5,
13,
77,
66,
63,
16,
EB,
3D,
5B,
5B,
1B,
81,
E8,
65,
2B,
BA,
60,
11,
B0,
50,
20,
29,
F9,
FB,
61,
4F,
15,
90,
43,
38,
C2,
B9,
E1,
12,
DA,
C3,
54,
17,
AD,
BB,
9E,
6F,
C9,
3F,
22,
2B,
04,
4C,
C9,
A0,
16,
37,
5B,
84,
96,
37,
DA,
37,
88,
F3,
92,
E2,
4A,
58,
C1,
54,
33,
AE,
75,
ED,
12,
21,
70,
5F,
57,
68,
C6,
2E,
46,
34,
B5,
D6,
9C,
8E,
87,
C9,
02,
BF,
9D,
CB,
C1,
AC,
05,
F6,
99,
66,
66,
62,
2C,
13,
90,
87,
CE,
C4,
C2,
8E,
17,
2B,
C6,
86,
72,
13,
1C,
30,
40,
01,
5F,
3A,
24,
9A,
6A,
26,
DE,
4C,
46,
22,
0F,
99,
8A,
4E,
FB,
D3,
90,
81,
6B,
8B,
A0,
F1,
56,
66,
0A,
B7,
82,
B6,
00,
21,
90,
96,
40,
1A,
93,
8A,
3A,
D6,
E2,
2F,
0E,
C9,
BF,
6C,
59,
33,
45,
EB,
AF,
B7,
54,
10,
43,
D5,
05,
33,
41,
7C,
9F,
09,
DC,
19,
C4,
67,
70,
47,
E1,
87,
8E,
D8,
92,
52,
F6,
DA,
76,
97,
49,
01,
9B,
A9,
B4,
0F,
5C,
7F,
40,
D5,
D8,
50,
D8,
74,
78,
DA,
D8,
69,
D9,
A7,
38,
2C,
EA,
78,
FC,
92,
88,
DD,
BB,
F4,
99,
8D,
BF,
9F,
6C,
7E,
FB,
D6,
00,
C2,
6C,
D0,
59,
14,
17,
EA,
25,
AE,
44,
23,
FD,
F5,
5E,
B0,
87,
46,
32,
EE,
6E,
48,
B7,
0C,
BD,
9C,
CF,
2E,
2D,
BF,
C1,
F5,
0F,
61,
2D,
99,
3A,
D3,
62,
5A,
77,
FB,
61,
0A,
CB,
FA,
EC,
6A,
BF,
4E,
AD,
5D,
19,
F1,
F9,
71,
F5,
8A,
60,
0F,
88,
44,
F3,
7C,
3F,
C8,
2D,
8E,
BD,
4C,
F6,
57,
49,
0B,
C6,
1B,
1E,
98,
00,
4E,
9F,
A7,
1A,
FB,
30,
7C,
EA,
DF,
79,
3E,
BF,
7A,
2C,
20,
A4,
88,
20,
D2,
99,
71,
8B,
DC,
25,
3D,
DB,
3B,
40,
C7,
29,
33,
08,
AC,
F4,
88,
17,
9B,
D7,
84,
16,
4B,
56,
CD,
51,
39,
E8,
8E,
A3,
D1,
D5,
A2,
7D,
AB,
31,
CE,
74,
36,
B7,
F7,
6E,
24,
5E,
2A,
05,
C9,
81,
87,
A6,
06,
D5,
9B,
3F,
E6,
6C,
F5,
FA,
B8,
07,
3F,
33,
B0,
A8,
F0,
11,
62,
83,
D5,
C7,
DE,
61,
F1,
B2,
EC,
3E,
9E,
5B,
06,
63,
A2,
09,
7F,
13,
0C,
C0,
EC,
DB,
E6,
51,
FD,
47,
8A,
74,
8D,
2B,
15,
A2,
D6,
FF,
22,
E4,
26,
BD,
8F,
FA,
F0,
F8,
54,
6C,
E9,
BD,
61,
95,
CF,
70,
FF,
3E,
E0,
24,
7F,
82,
41,
06,
DC,
72,
CC,
DE,
D4,
10,
07,
D0,
D8,
7E,
A1,
AC,
F6,
A8,
2D,
73,
51,
BA,
59,
CA,
F9,
92,
B1,
46,
23,
69,
3A,
4E,
61,
BF,
82,
07,
4A,
C5,
8D,
5B,
8C,
45,
CE,
78,
47,
6C,
47,
17,
55,
53,
6D,
F5,
29,
88,
9E,
96,
1F,
56,
4B,
06,
D0,
5B,
A7,
2C,
75,
3B,
77,
D4,
35,
DB,
C0,
73,
21,
50,
21,
A6,
DA,
C5,
09,
0C,
20,
82,
AB,
AE,
88,
1F,
EE,
FF,
8D,
FC,
58,
BC,
5A,
A6,
BD,
3D,
12,
AF,
88,
1D,
C9,
0C,
56,
C4,
D5,
B7,
DC,
92,
5B,
B9,
C7,
4C,
F8,
40,
11,
3B,
49,
BB,
99,
06,
01,
36,
58,
7D,
8F,
27,
60,
7A,
A7,
64,
F0,
BE,
03,
66,
70,
37,
3F,
63,
BD,
F2,
90,
BE,
AF,
29,
F7,
72,
DD,
02,
13,
41,
C6,
4C,
72,
39,
52,
72,
4F,
1E,
55,
D2,
F3,
BA,
2F,
AB,
17,
EA,
77,
BC,
A5,
20,
7C,
C5,
C0,
96,
E6,
B4,
24,
25,
85,
6A,
9E,
91,
25,
1B,
41,
51,
40,
AF,
81,
9F,
AC,
37,
80,
DC,
51,
B3,
1F,
EF,
76,
E1,
1F,
4C,
0E,
FE,
47,
19,
59,
AC,
2C,
16,
AE,
18,
59,
B0,
12,
F8,
E7,
65,
36,
06,
4B,
1D,
50,
BE,
E7,
08,
F4,
31,
3E,
FA,
3D,
4D,
EE,
5D,
60,
FF,
6B,
C8,
6D,
9E,
D9,
ED,
F8,
53,
6C,
49,
81,
FC,
FA,
93,
28,
9C,
1C,
8E,
C9,
52,
3E,
F6,
E6,
4B,
F6,
D6,
8A,
81,
97,
C0,
49,
D5,
7D,
8D,
7D,
EE,
51,
98,
47,
32,
61,
8E,
46,
23,
67,
BD,
D3,
D6,
E7,
2D,
83,
E4,
B4,
CC,
5B,
D3,
00,
A8,
87,
2D,
7B,
28,
22,
7C,
5E,
B9,
6B,
92,
25,
A9,
FE,
8E,
61,
3E,
D2,
7C,
FD,
1D,
CC,
B9,
8C,
65,
6A,
61,
7F,
67,
CB,
C5,
6F,
8B,
04,
0E,
F2,
06,
74,
C6,
81,
FA,
38,
8F,
D6,
E9,
F1,
11,
8A,
22,
49,
BE,
A8,
35,
50,
B6,
D6,
2A,
25,
2E,
ED,
0D,
A4,
85,
37,
85,
66,
C8,
63,
69,
65,
03,
E9,
77,
A7,
D4,
5C,
DE,
79,
F4,
F0,
80,
28,
FE,
92,
55,
32,
71,
07,
9F,
68,
02,
1E,
30,
B6,
D8,
61,
C9,
13,
B1,
E9,
60,
AC,
26,
BA,
08,
D1,
DE,
71,
14,
C9,
56,
22,
B6,
AE,
EA,
D5,
2D,
F1,
60,
80,
F4,
4A,
8E,
97,
93,
10,
23,
E7,
A9,
1F,
2F,
68,
0D,
83,
3F,
8F,
67,
96,
6E,
2D,
80,
0A,
22,
B1,
B6,
E7,
9D,
37,
DC,
43,
64,
2D,
2C,
2F,
98,
4E,
1D,
3D,
CC,
DB,
30,
EC,
F2,
7E,
D0,
CD,
89,
45,
AE,
C5,
91,
08,
62,
5C,
B2,
C4,
F3,
94,
49,
62,
AA,
52,
2F,
9A,
E5,
0E,
91,
34,
1D,
FD,
4C,
BB,
2D,
58,
03,
CF,
7E,
B5,
F6,
50,
D0,
D0,
89,
4A,
31,
5F,
D7,
38,
7B,
CC,
53,
B2,
7D,
E8,
08,
39,
16,
31,
FD,
13,
97,
F4,
C1,
B9,
C2,
FA,
26,
FE,
2B,
F5,
D3,
38,
7E,
3F,
EE,
95,
29,
C3,
CD,
EF,
A4,
17,
20,
6C,
4B,
71,
06,
49,
80,
1A,
1E,
95,
DA,
21,
DF,
11,
07,
87,
C6,
3D,
9F,
62,
EE,
90,
EA,
3B,
03,
7A,
B3,
64,
33,
29,
46,
8F,
AF,
77,
9D,
A6,
42,
82,
26,
D9,
28,
E2,
42,
89,
3E,
46,
AA,
CE,
06,
E1,
20,
01,
28,
E3,
A9,
04,
31,
C9,
4E,
55,
B0,
EC,
0B,
1A,
D2,
1E,
F0,
1D,
4A,
41,
7D,
25,
92,
E9,
5E,
BD,
B5,
3E,
40,
62,
97,
B1,
84,
B8,
35,
CB,
BF,
EC,
8C,
EB,
88,
37,
72,
38,
DF,
95,
1C,
1A,
7B,
66,
B6,
A3,
68,
4C,
EE,
85,
EA,
48,
E4,
3A,
21,
9E,
24,
7D,
1B,
19,
48,
F2,
97,
E4,
FA,
06,
12,
2B,
34,
E5,
A1,
83,
44,
61,
F9,
A7,
61,
54,
F6,
2B,
D4,
D9,
B3,
68,
87,
7C,
D5,
C9,
5D,
0D,
E1,
5B,
56,
79,
23,
C8,
99,
BA,
7F,
EC,
5B,
D3,
9E,
95,
A5,
CE,
A3,
99,
23,
8A,
D2,
97,
B2,
B0,
FF,
97,
C3,
95,
7D,
48,
07,
17,
B2,
0F,
51,
CA,
EB,
53,
2F,
83,
47,
09,
4D,
A7,
9D,
B9,
0A,
6F,
97,
67,
A9,
2E,
C5,
1B,
E9,
62,
27,
0C,
25,
73,
A1,
68,
47,
79,
C5,
07,
96,
24,
20,
9E,
BC,
19,
36,
79,
EC,
10,
0D,
C4,
B3,
95,
93,
20,
B1,
B1,
53,
40,
9B,
EE,
AB,
B1,
1D,
F8,
70,
54,
83,
69,
85,
21,
54,
FB,
55,
86,
DD,
A5;