memory_initialization_radix=16;
memory_initialization_vector= 
2F2B26DB34341F2D2E271D3D2526292C27280432273D262C1C292C252D261D2C28212927252526252645FB243426191C2B27241A264723282B1F262625313038,
1C1D251F30F4241F29252A1D27252F26262530242625272D2B1D1C272AFD17D420211B26242627271D1E2726402B280021262715272B45270C312E2626123A1C,
112626323D2C302A3C25283D262714142624FF29251F25312C2125252E2C373D252524272626272629211C27281626181B25241B250C1E242A22352526112C2E,
26272626262827262627262627272626262727262726272726272626272727272626272727272627262626272726262726272727262626262626282826262727,
292327292C2E25263525222826261C002627192C26262628231F2826272C282E23EEF0262F272525092C24242F19211823272727272724242A23222626272A29,
2E3926232B24262A2625072C2726132F26262128272A27292B2442241E132E2C2B9136252926282733211B26381C2F3622262729262228282923282627412726,
4F2F262E2C292A2A13252C2727261D2C2523262A25022627223523223B1E27292625262725272626222D1D273720423D2B26271A261E21242A251C26251B2922,
0635250D352137292424231D2626222A2523152D2443271A37361D26312338362E333E252326252524ED4D2635213B391E26242A254B19253137292626321F11,
211D262933F22A2B222525282727301E262748092717263D2B1E27272ACF26D310211B271E2627270E32202627201CDC2627262225285826193C3D2727073A06,
062E252E20152B322E26274826261C022526F335253D261223EE0827360B2B2F371C2626202626281F1036271E33273A25272633242A18242E201F26251A283E,
202D27221B3421202425274E2527292927253E38272A261A261B2B242C1E34192545322725262626200F312628302C2328262428262330271B2A0826262E2C0A,
1A18262B2F271E243326132525271D032726202A27202629272823242F272A2917CF1D272F252628D6292E272C2326222A27261D25242427262524262623232A,
26432640342725341F2628252527284226251229243026371F3E1F23273E2425443136262B252526281E20252429253241272514260B24242D252725270A2A32,
122526282428202C2B25182227270E1E2627252A2529261A241C35262B342A2514D12925252526261E2A29273721321822272626262D23252B292426260A2D27,
2E1B262B3023251D24251D22262738282728122F2521271F512E3424293AD7341603FE27392525252241172626341A3C2226241728152424242F1726262314EC,
27FE26362E29252C1C2551282626463425251127242A26351F3A1E26251B2529CB221F25302525281D2C22262339212F03252515250E25242820272625522A2F,
101F271F27312F2E23271D342527271F272714342529252A25251B261E1B242A1E2526262826262521271B251F273E2A26262628262E2328272025262520292D,
242526222C1131272426222726272922242724242623261D28173A28250D1F020F2A1C272425262601212C261C3023332D2627222821332723271F26272B2A1B,
2C1C262C3A262D28342529352526201C26240535251C25292A192D272030283E17252726262427252126272729121E2A2327251F261C1C252926322627152831,
26262727272726272727262726262727262727262726262726262727262626262627272628262627262727262627262726262627272627262626272627262827,
211E272228342B252526132527261B212624232A2723252A2B212C253114292C1A29F52726252627EE2721262E17213124272522242D23232722292626252629,
212D2631261C21312526242325252E27262528272628262126291B2530322F27170F2F26212626272C2D2C251F2B222F2526272C262E272429272B27272B2629,
4026262A312D1D2E1A2624212526272626241A2826512520253722252F1B22282E141C2526262626261F30262E19F3212A262627242923242B2E242526272826,
262A25172C15342C2A241929252626242724112925092522353215262E202E2A222F3926232526262A1D2A251D212F331E27242424312825282B302725292218,
2E3426233911342633273C1E2526391C272440262622263225111B24253815F437160C272526262826322625221329F51D272634252436261B4928262634301D,
1B2C252B2032112F3227323127261E2526230041252025041B1209230E152C1C2C2630262A2627270E0B2828270036232B272625241C212831220E26271C2636,
1C23272E0E2D21272A251F2F27261F2E252435252612252D2C2E2325291E181F2C362D2627262724172A31262F15262627262626252722251C220D26261F2B13,
251C27252A1E2C2929251D262625191926262326251C2625262823232FFA202C2111002722262726B5252D2630271B242626262224252928261C2B2526172623,
3236262A2B2F32251B26272326262A382624132C2520252927393124272A222C302F312632252625261E2925202D282F3025241F251921252C2E26262616272E,
253027232E1C2E233325282A2627162A26252528252025222A1D2A261E312C382FCD35272C2627271F252B262A312E2F2226252B25221E232925282726322C2C,
1F14272F21122224242627252525302325262628262E2723372C2424312113252D091327232627272E3612272838202A27272629260C23252C312226261D2A09,
2414262C2C2A2425292436282626303027241A2A2623263127352B2727242728002127272A2526252C231D2529262C2B1D262520281D2124272326272639202C,
282026122632252528262B2F27262A2825251C33251C262C25232C252627332A2A241F27302526252232202521232B2224272426252E1F27282B2B25262E292E,
2A2428232A1D20241D2623212627252226273F27252B25292325052720161C052D2A2726292727263C1E20262E1D1E162226262A263035271A26282726212A10,
242A262F2F2F2F2D3024233226261E1825250E3E2623272B311832261C1F2A3125262927232526262C212827312022302525252F241E21242F1C36272720262A,
26272626262626262727262627272627262626262626262628272726262726272726262627272626262827262726272626262726262626262728262628262627,
212D27281F1E262730272B2427271D12262521302525262222272A26241B2028271C00262F262626F9282C26291E292629272527282D29272B23252626232728,
26272520242D2B272826082727270E252724282A262B252425252227252618291DEF24262A2627282923272624172B322427251D26242025221F2626282C2D23,
0F2427262C32272623261E2525251E232625202C2645252424382E2834222A2B2C172727282626242F342926242F322B29272521261D2926302A212626282921,
432B2621221730262526211D2625272C2623112B251A272238232026232F2232292930272E2625252825302622321231252624292532202627272A2627241D1C,
381B2632401B172B2F251524262632272624371D241B2731341E29242C0C2B072939052818272628351E272530212AD42626273027243B281A4D372726203B0C,
262927251D3721322A261C3526271F082623262D271A2702141527241417322731443E2522252626022227272A08221C27252526263010252B15022527083928,
2C23262A232728261E26283426252F252523372C2629271C252026241E1B2815223332262C2627241D1A2625273B25202726252A24232C241F38102726313C11,
1D21262624281B282F24142027272C022626242C252D262A271D262731252E2920EBFA2629272625EA2D28252D2B252B30262625282F26262635222527272828,
2934262C212F2A2723262F282625232925241D2E2422272E2122162528291D202B2927252E2625252B332D262B28242328252629261F26232D2C2726261E2932,
2D27252B2234232B252528272727170D27262128251F2724281C29291E1D212827104B262D272727292C29263516232627262529282D26242622272525112724,
273326322E0C2B1C2E261A252526252F26261B2C261F25202E262F242A2A022829071B26342626251D24252527382C1A29262526252A1D242525252626342200,
261F272A252C242B2624252526262B2825241D30252C252B25222927262A2E242128272627262726272423262027282A2126252B251F25232D2B2B26252B282E,
332B270B2A32212F26262C322627342A262627302421252E241E2727211F2429222717261E252724292B1A2624361D292A252621262C23272E26292626223032,
1A242627321414261D261B2226262E1F25263D262516252129342428202930EE1F2D382630262627043526242D302A1F31252625252E37271F30222627252B21,
292625281F2B2C2B26243430252732282725223A252D2735331E30231B263231282531271D2526252B1921261C1F1E292126261F242124242622332626292D24,
27262626262726262727272726272726262627272727272526262627262627262727262626272627272726262627262626252727272627272627272726272726,
28242620283C29252C260F252727161726292A2D2423262727252B25292E2D2C2411FC262B252628DB2821262414242524262521272821292621242727322C2C,
2A2B2725282E2A2B26272C2726272026252627262421262D291D33262A282A272ACE362632262628272825261C18282D2226262C25282B26291F262626302A2A,
1931272F2828232B252737282725212626242529262126201B41272435171D1C312A2D271F25272526212525292C50182427252B242124222323252626222524,
3B32271D271128272425272526251A3426242833253B252B301A14252427302F1F232F25282625252517272528291C2325262628262A1B24262A2125271E1C1C,
293427264B06352E2B25371F2527302025252A22251E273232181627362317F5226B3A28222726272D342825243C22132526263926264D261C282826251F3613,
232625331F32182D3B2500322626051D26232729252226131D14122B27292E202B27162628252725183124251F2029202E26251E26120124321D0826261E3E2E,
2B31262D3826202A2E263632262726292625281B2722272126181E2525282B23252F3527192625251D291D2631162C3C2827271E2419262520211B2626363C14,
2225272823122D222E260B24272720142727272C26232822252921292A20232825E60F2729272726D3253226292529232A262523252823252828252627332924,
2928262B2431252A22242A2526262D2826252139252E2632201C2A242A152E292528262526242626242827242F2B201B2C252523251D1D242825282725282129,
2B18272C241E262E31252D2726271F2626282932272D261C251A39271E39273121DA06262727262619282927232C22281D252531272125222C33282527002827,
2B2827262B04272726272D2327262E312625202C2527262337252724252DF92B241928282D2525262E290B262226341123272621282E242727292226262E2415,
20202727252B22282A262B1E27262A25252326322427252B202427272A32232B2A2925262924262421232C26222D231D2427251D26231E2527282625262C2431,
2F202628292E2F2B2E27312726252B1D2627242B24292627282124242F212825292C1E271D2626242B2814252A2A212326272529252C1F2726262C2727222429,
292B252529132C263025391C2626192E2526402625332525201823272B2625082D440E271A26262649202524303320272526262528213627202A212727153117,
2A2225222823252B2526243426262A2927243237252526352D293123212A26222C24352625272725292D2026172725232127252224222C2424202F2627242625,
26272727272528272627272726272727262726272626272727272626272626272627262626272627262626272725272727272626262727272626262626262626,
2919272A26282E25322524242726261E26272131261E272625232A22280C1D222C3209262E252625D7282F272722292222262523252A262A2C28222727182929,
272925242E1F25252D25192725271D2C27262226252F27282B2B2D232A2A2F2B1E0717261C262727262520273524212621262628252523272328242625212226,
312326251F281E2C222722292726222625232631261B262426322A232C24263322122027272626252B2A2C252728282C2626282D25242E25292A1F252520282C,
132226272513252A252433242525242526252F2F25312628291A1424272029211E242F2625252625282929262024361D2C26262425272725292728252523291D,
243525212C301E2E2E2633242626272625273F252625283A34261C262A0532F5151C0E2723262725081A1826262B2A012E2625212623472718261B2526273724,
151126232A3330252525163028262A1426250F3624262621190716253036231A1F1F12263327272727502C2526141F2B2426252F242309242923082526142726,
211F25322B212B262226353527262F352728271D27302716251F162326292C2427243D2622262526290E29262D3728322327242924271E261E241526262A2426,
281C252E28291921312610262626241A262626242623262C28202526321228241DEEED262F252625D62B2727313025252626261E282E29262726262726272C2C,
1C28252D1D2F2B262C26362226262F2E26262B2F253026262A212F2420172A27282B1D262B242625262C2B25262527132427262D26212725272225262638232B,
1B1D2723242D2B2722252D29282619222623232726292528261B2E232A252C2D1AE713262F2527252A2D3228352822292926262E24222528221E2627251B2229,
2F29262E2F0727271F25282228272B202727222C25162722341E1D252B2808362D232C272B2527262D2E16271F331F2A2C272426292824252725252526151C1D,
26192729222E2329212722242625292226232935251F2623242026262F332720282A26272D25262423262D2636262B1F2726251F252227232928242625232929,
1D25261E2D302427292524292727272025272532252B252E242D212525342C2F2C2822262C2526242B2B16252719232F2525271C252C212528262326251B252B,
24342528231E1F21292422242626331D26273128251827262C1914252D091E00282207252725262511202925292A2A2821262623242A36271B36252625182423,
2D24262E2B2930252B26253027272A2C25242A372526272D2F2327252A2B2420202331261F2726252C1C2427231B27281E26261D251D1E2426252E2626272627,
26262727252626272727272626262626272626262527262726262627262626272626262626272726262726272626272727272626272627272727262726262627,
282826202738292526261C2627271C152526252A2625262127262827222E332B26421E2629262625DD2A2326311D1C272826262A24252324242029262721262F,
24282724212C2B262125102A2626202226272A262627272524281C2429221B2B210D22272D2626272C2A262625252B2E2626272C28292927262D2C2726322825,
363125222613331E202620282625212727252E26242D272C273932233417223326262F262A2626252F2D28262A2811202626252E251C282626362725262B2C24,
221C272024161F292A25252026272B2126252C34251A262928320C252F2E252B2F222A262C2626252828282623232B1929262626243121252522272625282523,
1B1D262B380A1F282426331825262625272A2D2626222644393B30262D2F1FEB174D1B2626272726312924261C38232928262736252B4028212D2426271C4912,
2E1026220B3128203525223927271C1F27231B37271A26100D1603263605242D01143526232726280E2E28242414234426272726252309262E230E25253E1426,
204525192F1D2A2A2725113A27261F21272526222619252424301F272721252D242E362722262625251A2B2525241E162B26252525202D252618172526232A1E,
281D272220262625312738212727290C252727312723262226182C242418272425FAE22627262526D02029252A2426282427262A2426212524282127261C2923,
1F28272D242E3024202637212727252E27252632261E2628232525242221292C1B261C252626272526232924232C2D2A2426251F2623212229242B252732212C,
132A272A28252A2A332517272727161527252C262728261C242331261C2E252931FD0B26272626241E2125272C2932181D252728252626272E2F2C2726182728,
1E2526282C061E2A27251C27252729332728272D242D27202B2B2D25292DF42916203C272E252525272B31272C2730222F26262A27352225301B26252731280B,
25252625262C2629242516292627242925252A2F25262522262726261D29282C102D28262626242524252C26251C281A2C262528252B1E25282B262626282B2C,
222E261D272D1C21272733252827232E27273029251D272128252E2425242929182920271E262725291A2E261B292A2B3326282326271F2628262527262D2124,
210C261E29162C221E25142825251F2F27273828262C272722232A26212F18F11F22302728262624121E2825262C28282C26263725243D272025262627333013,
292B27252D262E282D25272527271E2A26252D232626262C2A231B232C2228292D282926162626262D181E27282E21362726252A261D202524213425262B2825,
27262726272626262627272626272727262726262826262627262626272627272727272726262627272726262628272727262728272626262727272627272727,
2119272B25242A29332610242626231326272B2B25262624211D23252E1A232C242B0D252B262725E22424252522262723262529252729232A23222625252423,
2A272631271F22292425122825271C252723272D2623252927222B252A2B282526D932272526272727252B27281B262722272724292726262B172A262629222A,
1B23252D2021203120272E2625252A1D2725242F252D28232A2E242329192322132E2427232526262630172625222A3329272727262729252A1F2026251C292B,
362125272719262D2F2626222627282925232E2C241726282C2128242A2C2532261E1F2626262625261326242027212B24272628242A2A242B262B262523201D,
2D3826252E0623362A2728292727273126242B1E262C263633131A25421C27F32E432A27172626261F3D2026243B28FA2727282825284527172F362625224524,
2E2026311C2F312C2226132826261E1925251C34261E26061220E1252400321B1A172A272526262735282F252826150026272631242011253A2C062525062F28,
2D2026312F2021212A272F322727273325222913273226242C1D15261A31241E1E282726272627252B1C2725202630002626261C252D262725301725272A3022,
270F272E2B281C29312726232627290E2727282A27282629262827242833272E2D1008262B262629DC2525272928242E29272625262B2526282D2625251C2428,
2A2E2621302B1C2B2C252B2226272D2227242A2D24212624261F33251E2128252B251B26292626242B1B252521242B2126272429252C1E2328212927262A232C,
3614272A28212E282E27322827262220262627282716272428132223221D1D270FE729272A262527292731272A1F2F332127252D252828262B21212726142C25,
212D27261A0B1B2A1F26252026272C2027262B2A253027222E272325282D0C202C2A3E2722262624281E2726201B25292426282B252E2723291E2326252C2B11,
31262627222B272727261A2526262433272527262525252726252B261B3B25213D292927242626252B292226242B22282326272D242A1F252924262526232327,
2D2B262D222A2D2123252728272729292626322A2620272C28223124292023252A2A242731272525282B31262633311E262627282624202528202A25261B242C,
2827252B28FB1D2B3226251D26262B1E2727372D262925292B32212525242C041A5118272626262437272826252A24312826261926283A2822251F26260D2D29,
1E2C2625242314241A252C2927262116262433282422262B2C2F1F23271C242A2F282A251E26262432292227281D29232626271E262E2424282B312626222128,
27262727262627272726262726272727272727262626272726272726262726262626262626272627272626272626262627272626262726272627272727272827,
262427272B2A26252527202326261F1826272C2C25232625282726231B16252D1D3B022629262625DD2D2B263226250D2825252729282125291F2327252F262C,
242D271F281F362C2725072527262232252527242526262B2D272A26242A212E28E317282C2725242F311D271F232B332226262C2729272A27292525272E2D27,
2F26261B2A28292325260D26262728232525262B262C262327352324351833301D3324262E262724233123242E27331D2A26273124292424272C2A262525292A,
2825262923212A232A26252227272B2A26242C2825302625272621251C2B1D28271D18262827252526212626292F1436242625262525282629252A25261E2125,
2519272D201B2C312F27191526262A292624293326202639362020272E1927E41D0A0E262427272730282526243B25ED2927272A252B4D291A2516262719310D,
202A262A1B0928223D25052F26261C1E26272428262E26151C3503242021261C2E0849271E272727290D1A263126162E2226272525320F252A260426270F162E,
2426262D2721142E22272333262728222622222D2632272625202F292B2F2426291E29262525272628273225252618FA2827262C272124262C261625262F3619,
201C262D272A26292B250F242626281026282D2726232522282339222F282E2B2018E0272A272625E2212D272F152017282725272526252428242A262628272B,
1F272627252D1A2F3425282326272B222623302025282623242C25242B33242230251F271F272626251F27252C2E1C212D26251C2521272225232725262C2721,
2F242721262A29242A2732232527181F26252926252727242727292229332A1F2C231E272B252726102B2B282E301A2C21262721242B20242A2F2B2527102A2B,
2323262023142C252E272A2527262D3126253225251E252122261D2324311C2322303C26232525262B25112429271F232B27271826221E2428312326272D231E,
2A2A272A1E2B272824261C282626252625242A2B262D262226242127212B252327292B26282527252F292B262A2625252226252B252A21252726282726172526,
2D24271823271B2F2326232B27262A2B2726372F2625272824252423181E38192528272529252626272A16262C2716192825262A25351F2428242A26262E2C2D,
221C261C2E2E1F1C20272820272627162526312C2411271F292223262C302D15314219262C262725382126241D2B2D321F26253525263C2822342C2626162918,
252426293225252E2A25232928261E2A272630272521272E2A2422242722232A1C282627262527242F2F222727242B312426273026291F252F2030272627282F,
27262726262726272726272727272627262626272627262726262627262627272526262727262627272627272627272627262627262727272727272627262626,
24212727201A2D2631250424262622162526302727222625251C2C2328312922222435262F272525E92029262C2F28382826262A292627262B1A2426261E2727,
291D262426202B2524270D282726172026242B28262A272A24242426273225271CD50A27292626272E1E1E25272025262226252626252A2826232627252C222E,
3A25251F262223261F262B25262521202525292B261326272429342334051829243830251E2627261E1D26262E202F1B2926271B28232A232519202725322B29,
1C2A2619222323251F2531272626141D26232D25263627262D2332252B2E2424211C1626232525262C1D2A26272C272E28252527252727252A22212525282522,
2024262A3D153C2A24252720262732152725252A2727273125211B26291E12FE2D081F261F262727172B232416261824212726212921432517342F27271D3D14,
0D2E272A2043202630252D31282824132728232226352601121931261A112E1C271F0E262F2627261E231E2524311E0D2825262628371D253025182725162B24,
232A25272E242D2124271E372726222B26262927271426232636232738213225191B242729262626242A33263232321D2626261F24242425222910262725281A,
222126232F22142C2D2510222627231526262A2C2523272024162024231823282B03FD2529262725DB282E2824202D392727282025282A242A1E222626202426,
2B2A272D2B2D27232225252126252D28262431262532262825262424242E292633231F2725262626291E27252D2926212927252125211D25292623262625262B,
1D1726241E26242C2C251B2726271F2227262726252D261F231D32231423293124EB1026302626251C262926221225281E26282C272229262830212626072424,
1C2927261B1B202C282722232726241D27232A312525251D382F2E242C260F24282E382827262527212D29251B33232C2D25262E252A2F2326241B26251F2303,
23372626222B2C2820252D232627302426242B2326282728272224261D3025221A282827232526252A251E2723291F3127252624262029242D22292625251D2A,
182E270E1F2621272926282F2626212D26252E29252E2623252E2023243122271F2B2527212726272134172627182B1329252520252B252328272C25252F2929,
1E2B26252B083C2A282627282626352E272633312544262521222A24242319181B39FC27202726241721272623291E2B2526272426263426212E1E262624381C,
1B2A25271C2626222926252E27261D1F27262E272427262C2D252B2425252B32282224272C252625262E2027253028132C262626241A202428202C2726202629,
26272726272726262727262627262627262626262627262727262726262726272727262726262626262725262627262626262726262627262627262726272726,
22202726292129292E252B2526261F1625252A27262C252525241B2325131F2824231A262B262627C1362327261F212524262829242522242420242625202B29,
263226262C2125282726292A26261F2B2624242B252B27272A2133252E33272B1AF5252723262625302423252C292238272628252527222924192B2526292B22,
3920252C251D282825262C242525282B27262626263C262223341725261937243027352627262724242C19262717121B20262825272A2D24292C2226261D222B,
2121261C242C2A2C252521212527292326242F2B2420271E2A2F26262D1D3327231F172625262524291D3326292A24242625252724361D26282B292726281D1C,
291D272E30141F2D2D262624262729392626212E271F2547320E47233C1B38F02418F8272226262827271A242E1829E12A272630242E482714382F2726153D29,
1F31261E2C071F241F263A342827211C25243529242527111A093926192F36231D1E2826392727252E2429282D21292D2A25272727210E272629072726FD2228,
2621272A161B2E2432261D3526262D2725282E20252725232B271E24262C302A2C1E262628252627290B2226252D181A2125252F25243324233B2427272E322D,
272C272A2A1C2D2A2F250E252626271226252B2626222521252021242926212B20EF33261F272626CC2B28272722260926262824272625262A29262626252829,
25252630232B27262025241E2627232F26232D27252025271E242925272923272C2322252D2526252A2E20231D282A282D252420251E25252A24292525202428,
151B272D24212A2721252D242726171A26262530271A2526282935242526232728F51D2828262724202425252E27321422262620262E1E252628282626252D2D,
282C262A1E252A202B26292227262C2C26253524262425243D2B2C24282E0B2D2537372629262625202F27262D20231F23262721251E1B2427291E2625202413,
27332631252C1F2727252D222527342D2726312D252526302132192529252B211F2B262626262525282A23272D302D292126241B261927232B28262526242028,
282627142023352820261F312825322925262E24251E252C20282A2420232126362B2C262C272629243113242D2B2D1D2425261D25312624221E2626262C2931,
290D251F28F01C222D261C252726263927262E2C2419262628193A26302F33182B3513272E26262524292F2623272C322825262C262944272A282226272B3425,
1B1B262D2029302521252E2D2627241A25252F28252826302E1E2224202F282B2B24252726262624292A222728312B102027251B24252524251D3026261C2628,
26272626262726272726262627262725262626272727272726262626272626252526272727262726272627262727262627262626272626262726272726262626,
231827222721212C2C251D24272521122625312125252626252738262E2B27292A1CFF2628262627D72222272025291825262723262F28242D26212627112329,
2E27252B2829242A2926152625261F2826242B28272A2727242625262B232A2728F42C27282726252B2A2226252B271921262729252A27252E2B2526252B2024,
13222621231C2F281A27312A2726282C26242A272635272625364127390D112E262C2E26282626252115332726142D3A2326282A252D1E262724282627322F28,
2D2A261C272E292628261C1F2526262D26262E242418272234341C262F20312C251E172623262524291632252E2924242A2625272535192429272C26262E1D1A,
2729262E50F21B281E251E292627372326262533253226362B1A17282C1B15101D1EFF271D2627272A342F25312B1C2C2627252828253B27243335262733341A,
281226272B1E2D2F2726003F2825291E2525370A25212602173418271BF92F0B2E3E1B2618262726200C25262C0C21182427252C242C2523351A182726362E2B,
2E27262A27121F2A25262C3027271F2027261D2B262325262A20182619361F1E2C261B2728272526242C2D261E23323F26272720272A2F2429201626262F3A1D,
2718262C282E272830251D23262527102526262327262622291F2A232BF924221301EE2627262626DF252C272733271D282528272628252527262626261A2525,
2E2E262F2727312F26262E232625263525233428252127292120232528342C252E262325302526262A232025282927253026272624231F232E25212625272530,
35212625242D2D3032261E2527261D1925262A282616271F232418252234262F15DF342628262724282A2C26242426212326282D2524272429271F2625071E25,
2C212633272C221C222434282627313026262F20262A2623361623231E2717262F3D34262F25252526281C25332C21442926261F281E2724213927262632251B,
2A2E262A2B29272A2A252A1F2627302C26262E2524272728232F202629242A290C252427262526262727252720312B2619272420261E2427282C24272524212A,
2924251D2825212A2526292E2626242626262F27242626212320222320222E29252B2E27242525262D252826282424152A272720253324252B262625262B282D,
292827332F170D2F19250F1C272733092625313824262729252F1826260D1C273A3A0E27272627252F2A2925313225362827272F25302D251F372C2626282B0D,
2B1B272E212F2F242C252E312727232427252D26252026302E293125232C2B2E212A272727252726291F232726261C1124272822251E2423262F30262620222A,
26262727262726272726272726272627272726262626262726262727272726272627262626262626262626262626272626262727262726262725262626272627,
272126292822232430261A2426271D2026262526252126242420252524172F211B0C212530272725D12725262521232A26262826271F232322202527251E2626,
2522261F20232D2622260E272626222C272726252520252B28263024302729281FF324262E2626262A242227281F27452326272A262527241F2927262624232A,
271B272E2F2F25291B261E2726271E2727272F2626232627233512273A1A222934372A261B2626262B262626312F3C322827262426272A222A2F262726222025,
302C251D2F2F2D282525112425261E2E26252B20253C26203B1B28242C25262E252517252C2625252E1635262525311C252626282635242625242D2526241E21,
1F2E272520190D3421262B2227262E2526272A29251D263E29131328282D1317332142262E2626262C2435262A102BF93025282828344E281032292626253215,
3F3326201B1C272833272C3A26271E022627371E271F25151F1EF6251B221C0D1E2A082624262725194133281D141B0C2526252D251904262D370A27261E3025,
2A242526240E352B21262A342725302A26272621271F271B2C2529272D322C25221F0E272926282528252B28311F242723252925262128271F261E25271F2713,
272F2725272022232D2621252726211C272529242729252224202A232D302A272AFE0D2628262626CC272E272D1D1B4627272422242426252522282626212927,
2E2326322A25252C24262A25262722362622312325282729202E29242722212930252527282526262A2327252626212230262723251822222B2229262527262D,
2917262426223522242630292826181D26262D27272B2722271133251C3C2C2E2D0807272D2726251F26252638232029242628202828282227272B27250B2226,
262D2725243323242824242A25262E2A272529292524261A372739262C290B281B3C34262D272525262B1D26233022322726272027251C242124272726252511,
212625312B241B1F2A2523212626332B25242E1F242C2529212E27242A232725142423262D26272623252427232624221827241B241F21252C212A2525292A2A,
283027143122212F25242A2F2627293026252C24263826271F2122232124232B2927332622252626292A1D26231C191D2827282D2632212427202B2626262A2C,
20342620372D261E32272D2D2726251C26272A36242C282128282C262A322C2A1E41FC262A262628412E1E2521362E402A26271D26234524271E2F27271F401A,
2020262A30242A262B262D3025272327262431222624262D2A212F25262634292F241F26262526252E1C22272D21202A2925262C241C2423272E302725212922,
28272727262826272726262726272626262627272626262627272727262627272626262627262727272627272627262726272726252627272526262827272726,
232125222822292A28271E272527201026252C2726232722261B2B2531232A2324203C2525272525E22A20252A27271A27252626262C23262A2425262715242B,
292B262B2A141D2A262622282526202125282926252825292B2A25262128252228E62C2628272725252D2726292C2D1325272826252824252A1E262726342F2B,
3F2F262C2421232D1F272F2B2627313125252728261B2624262F2D2530071C2C313D1F27282725262B2B29272C1130132326272B262523262C322A27252A2A2D,
1A21261B262D2C2825262F2226262C2C26252A27252826242B281826252434292E2916262A252626251B3326292831261F272523252E2226292A25252631201E,
2724282D2E0C2829262725212626312B26241A29262A25302C201C26201125F82B322D2627282727332521252B271F261F27272628254B2518452C2727303C1F,
0C29252F2B3B2B203027223A27271D2227271D142526261F1C26FE252717291B2227052622272626232B24272C292F2C2527272B262728272E180A26272A3F2F,
183B262A32201E29262725372825222626242B2A2620252020241B283134332A261912262C2526262D192127282B262B2727272A25252C28221F1E26262E2E1A,
2129252227281E282C2625252627230927252923251F2623251E262426F226241BF017272E272627C72B2C2528282A0A2B2626262529262625252326251E2224,
2B2B272B2C1D28292E25332326262E2626242C1E2530262924262F26252E2A222E282226282525262B342D241F30242A2F262726261F22232A282D2527262126,
171E262B2E1F2B2732272F2328251C2327252428263426242A2B2B242418252322E646262B2626261E262B272A281C202126252D282327282C291E26251E2F27,
2D1F2728333B301A30272E2326272D2326262B1C2619261F2A1C3625222A172A1F3B36252A2526251A212525281D2A1F282726102618252229251C2526301D0E,
272827252E26242C24252C2426252D2E25242A282625262924292D272523272423202325272526252226242522292A1B1A27251F241C1A2423272825263A292D,
1E272614301E27322F25313525272C1927262C1A2729272A202631242D2A222B28273626252626262C2E1A252B2A2A252626261D26271D2427262326262F2E2A,
1C142521301E31261E262A2326272B43262738312726262627160D242A2A2A1E1A5C1B262F272726052E2B282409223328262523241D2C231A2F3126273A2234,
2D2827232E2932272E26282F25262E2226262E2C252A252E291C2C241B29262B1F261F271C262626281627282A1C29212026271C2521212423282D252623282D,
26272727272626272626262727272527272726272626272627272726272727272726262725262726262727272727262626262626262626262727262727272626,
231D2623292B2A212E25152426271C1E26242A21252526252228282728212B2C27070F252B272626D52121272B1723352326272028272A23251F2825262D2628,
202A262A333A312B24262B2526261D2A2728292826292627242E272532281D2C22C11D26282627252E292A262028222D2327262A252927252D27272627222222,
311E261F2F2F2C25202519242626162026252B28263D2625223A2E263D132026342924261A262626212527252A3D07442826282527272B262B2A1F2627232226,
283325203034282327252A242626282E26242D252513262428262E26251C282E2527192726262426252022252C2C2F2228262528252A2026232F282626262525,
2F16271F320E1F212A262F202726243626272B39272727302F031C2629322AF72FFC2F27262627282B1E1F262D3127222427262225253F261733302626272E26,
220B2639331F27312D272E3E26261B1F25242D15240A26080B3729263638352D2826152624252628391724262E2223332D262628262E11272B24122527282926,
2B222625171D24312927263C2626262B262523222628272231292B2725251C221B1C0E2620262725261A3B261F2A21342E27251F282623241D18172626242C27,
2323272C2323292B332514212727260F2625262A2529272225241F253016282615120E272B262628CD232625262828362827262725252726251F292625212727,
232F262F2823272C202629242726242B252528262424272923292F252426312829292626272427242D1C1F25241E291D2B26272725191F23282527252527252F,
13182625252D292629273E2B27261A242523292325182720271D27261F272A321E0A1D262527262726312327312B3A2B2727252C262A25272E302B272513222C,
2E2627232C411D1F20273A2526272628262623252720272B3627252425321E24273C392625262624292A16272D221C172426261B242C282424231E2626302616,
292127262A26222A24241B232726282327242E272420252823232A27292622260D21202629262625221F2226252F251C292624272526232527212325262E2729,
212325243D23241C26262A2C26262B272626241C2724272826262623252B25263329352727262625252A28261B2A2F291F26272624291D242C302127251C2924,
2929262827132E251E27312227262B172726233B272B262A2C362E242C3227241D551B2727252626462D3128272E20062325263D272D4B252B2E252627153B24,
212D26332F2D27222B27222E2626202F25253026252F26302E2727242F2B262C292C1F27212527252D202326272023ED2926282A24241F222C243227262C2A2E,
26272627272626262726272627262626262627272626272627262627262727272526262628272627272626272626262626272727272727272726272627262626,
212A26272B19272D32271A252726231A26252A2425292627272227252E222C21311B0F2624262628D4311C27252E25132427252C272725242D212327261F282B,
2B2727231E252D22282705292727172927262A282726272D29172A26272E2F2E1BF008262D2627252E221B2625202A2C2525272225262A25221C222527281E2B,
182C262C2E2D2E272228292526262C2325262E3225302623242924262916302D18292E272E262627242C2A252A1E372B2A252725252824252D262026252B2124,
3126272524322B21222523252627222926242E212421262A2B2C2325292A24262226202524272626272F21262A221E0827272527242926252825222525272F1D,
1D2827222210382428262B182626301C2625223426202746280F1D262C0720F42549F32723262627182F21272214210E1E27272725203A261436292727262D19,
241925322219262730270B352727171F26252C18272E2609162102232D4E1D17340A142721272728251C32251C2824112426252D282D0C262A201E26261F2F37,
2A2F25273A2A361E1C261C2E2626222C252825202621251B271F1F26232829221C1424272727272724201D2622291B321E262623282223252B211E26271B2C25,
241B272A242827242C262C232727251126242824261E252B28262824271B252921D6D5262F272627D424312524201F382726262526272B26292B222526272C27,
292726292E252B2027252D272626262B26242916242127242A2127251B36252226272A262F262525282F2624242C28232326262026271F242C2D262726321C28,
3C20262D2B172B2F2F262A232627181926232624251C272B242627261D312A2A1F061A262D262526222E2A25282728102526252C241E1E25232C2425261E2E22,
1D3427213442202922272822272623302625291B27312619302A28231B2004252A3B37262C2626251F2A24262D242A222825282A25251D2424272C2726162A21,
2C1C272326211D2222241E2627262B262623271E2527262323282C27212A2D25202323273026272523232A27272320142626252C2628212528282425252A1F28,
321D26272A24201F28263026272729232625201C2522262D2C2C2B25292B2E2D1F2634272925272A292325261E2E20222C25272624211E25283225272625242A,
2534272A2F1B1B2D2825261D2626290E2529363B2618251D252621261E271F2125301B27302527262A261F29132F26262B262619292B2D241D351F2725183715,
2727262A2C27242E2C27382F2526292226262A2227232531262D2D252520272F272A2427222527262B111E261D2130111F262522252A252427292D25262D2327,
27272727262726252627262627272626262726262726262726272627262626272626262626272626262727272626262726262727262726272727262727272726,
241C262D29262B252D262F2626261D142628272226252520261F2424272C2B271E21102524262728F2282625331B270D2325272A2527272329272C2625152A29,
252826272B20322D272613292627252E2725282227202624292F33282B35212024E2372626272628292528282B232A231E2627352625252329252F2626352D26,
1B2D262929232827272728262726201C25262B1E262226272441202531182B2623281A272326262931351D2628142C2A2B26252D251D2F242D271F2726262B23,
3329261B2D39272828251D21252729222626251B2528251F282613271F1F252A2A2922262E2625262A1E22252F3323302426262A28242A2726222B2725222723,
2226261B22F71C353027241C27262A262626304B261C25182A29282917170DF0382645250B262729FC201F2526322E1D2C262622252C3E281E272428262F291D,
1A0C252C29F422202B280938262622142528260B271F251D182618232A39303D1741172528272625552D2526331F19242C26262225242A2927250726253A242C,
2626272D3B232F262325393A25272C342626222A26352523272010252619292E2522152727262626222B2F27212C2B432327262F251A2329292E1B26261F2727,
210D272F2D2226272E270E25262524222627262A272B2623231B252229272A273620DB262A272727DE212728290E2B3324272826262923252A28262626272728,
1C29271D32221D251D252E2C26262B312723231E242C2625272C21242315271F21282927262525262E202D25222728382925252725272A2427252627272A2823,
242327242741332A2825382627271B2427262A28251D271B25172625292B211F30EC1A27282727271B2B2A26331C1C1F24262428262B27242C1C242625062028,
1E1D2625253F232A1D252E2828272D24272629192629262021252623382E25201F322E2630262626261F30252E2830182F27282B26242725261C222626322215,
1F24272C2B1E26292C26192A262522202625281F25252723252530272636271F1421222625252725262C30262A24291E2B262427262D25242D302726262C2528,
2B34272A23202B2B2525252F272626232726281F2422252D292A2325291E27212A252F271D27272927292F272D2526282A25252526292C232F282A2527222E2F,
311F261F2BFA26271C2619272626263226282B35273D27272B1E30272C0135363C44FE26272627261B2624272625142D1C27272F2726422426203326251D362D,
292927252B2818282426282C26261D2C26262A22262525332E1C1E251E2D26223B2425261B2626262C2826262D212D382625252A2524292427242E2626222C23,
26272627272627262727262726272526262627262626272726272626272627262626252626272627272626272726262626262627272627262627272727262626,
292A27231D2326272F26112327271C0E27282825251F272626211B252C1B2E2628380D272B252628DE3322262B2925332927282826262D2527242226262D2627,
2C2D2521291F1D252927142527261F1A26272525262B262623291F272326202830E42F2624262728332E2527272E202024262622262C29242721262725322721,
352B2630262A1C2A24263025262728332725252A271426282A2A23233D17242831222C2727262725202327262D222EEE27272523262B2825231C23272529272C,
192A2626263A2F262E2720242526242E26242622243A272529231C26252F231E2A2E2325272626262A202426212A2A212226252B252D2B272A2A2925261D2321,
322A2622400D202D2727131B2627401E26232C2E2712252F2F213927291524FF423129251C262727281B17252B1429FB20262729242E502520351A26262F271E,
1819263429DA2B242026343927261F2527273713271D260D1B2C23251604301E35402226242726252D3816273213242C1D262739253E032533490F27262A253B,
1A25273917282B242626243725262C1C2725202A271E263124343926391E2C232426172631252627220D2D252B2D270C2827262425292A262223142626282C11,
1A2227232130282A302617202526241127252724272326262A212E2332142F2C1AF5102629262527CB282727252D28412727262525232A262627242625192E24,
2227252B2E22282B25262C262526303025252425242526291E252A232422241F282831252A252625232325251E262626252624252524272425292B2625302E29,
201027322A1821252E2535262727181A262926262533262C24292D24252B282D250333262C262625202229252F2B272C1F26262B282727252825252725152F26,
22302634234215222625152C27262C2F262523252525262229292824291F2B22283325272D2426282F2A1926211A252626272425252C24252A41272726223006,
252627282D1F272524251D262625212926242A1A2629252622261F262A3625212F2525272B2625252C262426282827262525252B2528272326272826261D3030,
1F2D2715221C25262725272B2726272525272A1F2528252A27222B26262E1A2224262A262B262629292C2125241C272F2326242A2632302629222E2626202A2F,
1D1D272837251C222425152727272C2027273439271E2623263A3127252E2223183F32261B26262718282C28352324032526282328242B2520391F26271F2E21,
2925272A2D2D2A2530263030272627202725271F251D272C2F34212420252C282024292627252625292623262C28240128252727242A2A252E242B2627292623,
27272726272728262626272627272726262726262727272627272727262627262726262627262627272727272626262627262727272727272727272726272726,
251E2729281D29253126232326261D1E25252A1D27302623252327272C272D252B0EEE2728272526D22A18262E271F2622262728252C2A26292725262611292B,
2329262D29252F2F2B26232B27271C3226272A252528262627292F262B25232923D11727272725252C1D24262727292E2327242C25231F24221D282625292927,
3A3227231E153322242620292627251B26262A20262F26222A31342523121E272E2625261F262726332D27262B32092428262626261E2A2727262926263B3029,
2025272A263429261F252F2B2626262826262620241B251B2927242627272D221F302B2722272524232A25262D272F1F2726262224212727271A282626292C21,
272D2727320A13213A273D1D2626352525242E412637273C2C0D2C271B2A1AFB252810262B2727272A252D262420302428262712251D4525224121262535340C,
302426262C05252E2F271F4227272A162525130E2636261B19153828341533152E2D332721272625333039252D30233B2626262F2508292432190C2626363229,
2F2C262F2724282421270B3327271A3725262B2F242326232E291B26282417271C273028322627272B2638252520221A2726262725222C2320321C2627313121,
2B192728242C26242B261B222726270627252A272720262125201F25230A2826242D3A2530272728D424282627201E2A24252427242C2B26292A2026252B2429,
242F27262420232126272E2325272C2226242C1D2525272C232831242926222524292C261F252626262128242B2929212827262825202D232C232D2625252E28,
1124272720202C2C28252B232727211625282626272025212826202625382E3232F400252E262626272B21262A252E2C1E26292B282B1D252630242625202627,
322026282E401F272526202126272F2A27252525261D27222F2B25252F33F62B2E2A1A263126262628321D24261F1E312A25262625282826321D2B26262B2714,
2B1926272420202A232623282625222427242523252026262A202F271C322F2721272127232726252D2823252128281026262627261B2C252B2D2C2626292F29,
25232704271E292929262B2927262B2826262A252425262D263529261E2C24232526232528252725282F17261C322E282B26251A26302D27252A2F25252D272B,
322E25242A152A152A26122C25262C2026253444282A25292A170C2627332018274816262D2727281B2B29281B3A20272126282E251631252431262725193424,
1F242623162C232519261F2E2627201C2624301D26302634302E2D2421231A2B1E2729261E2627262A241C261E2B1D2722272722252D2F25282B2F2526212524,
26262626262627262626262627262727272727272626272627262626262626272726272626272727262626282727272826272727262627272726272726262627,
1B1E2721261F25292A251C27262622132624232224232627252A28262C2416282315DD262A262527F63032282728272D28272628272B2924261E2426252F272B,
2319262D221F292A2025172626261D2B27262A26262827292A2424262D362E2718091C2628272627242C1E26262026282126252D26252827292C2826261E2A30,
1132261D2C3813221C273722262720352627261E27462624293119262F173031361619271927262521331B273D1E352829272721252329272526242625252325,
3420251624392A252A2520222627282826242E1F25192727242B242529282E2C18322E2627262525281534242B22212B2626262B252B31252D2E2C262523281D,
2E21272A35FA3429222630252627382926251D35261D262A251B14272F1E2DF6242F1F252926262715311D252A19270C24272631282A562721423D272726261D,
1A22262628F938252027322B27262D1D272431092621251F1D151D251F39370519363E2628272628362E0F26340C22151F262826272A19252C1DF9272625281E,
301F252A272B28242427343C26252A23272823202425272224192B231F252F232B23272622262626220F2F25292A2B4721272624242837232C271727262F3227,
22242728242B272432252C2527251F182626242626272727251F2A24322123280ED7EE262A272625D7222D271E2C29342827251E27242A242728252626072427,
3432272A1422213027251F1E2526252325252E232521262526252C25241A2B2725292925302724241E27292432261B112B262620251E33232A262C262629282F,
3B1B26282C37262A2727342A27261A2327252D2927122527281D3324251D2C2621FC25262926262624252328271A282124272826252923262E1D292527072C2C,
25342526213D232625251F1E2527282B27252B24253126183318332616230C1D2032122637252625262E2C25282E2E302D26283225262E25232F242526272400,
302C27311F2121292627212826262B332724261E2527252B27231E26173422252A2C2627262526252C232525242226202727241D241D29252C2C302525232729,
341925151B18192220272D3025262B2527252920251B262C252425261D2D292C2B24242629272627272E18272C182C1C2A27252925303224252B2B262620272D,
21262532432220312627211C25272821262530352632251A201C2F251C1F251C0E442926232627252A2C1F293B3B374134272832253A3D2624321F25262C2924,
231D27302D2528292A262C3325271E332625281A272925342A1D24251D281E2B312B2C2725272625302D2E261E1F28292926262624143324261F342526272A2A,
26262627262727272826272626262725282726272727272727272726262726262727272627272726272626272626272727262726262727262726262627262626,
2616262A221A1F272F25232427251D0626242A20242825252A1E2C252D202E212D1909262B262728F02223282D1F26282727252624242C252A292C262622302C,
272A251E25282424222619262726191A262624272729262A242627242F20292B3012262628272728242C29262B29211122262624252B2E252B2B2727262C2523,
241E2627252823291C26232626261E2326242B282620261F1F4224263B031A2E341A22262D25272526221F252A3041042B26272926222326272B2527252E282A,
2E22271F242F252223252D1D26271E2E27252829252A2725301D2A25222D2F2E2E35322627262625212D28242721101F2926262325342B242B252E25252E2319,
222A27274023192425250D222526352926242F40252D262629143125182B23FD18412625232727271A1E2924312424332427262228264B272440252526013326,
2026262718221D1D3826352F2626171826242C15252625180AFE14242F31183B2C0E36262E262627E53431272319301E2B26281A241A1826252A0526261E3126,
241E2733193724262E272A3E2526282B2727292D262F252026221222222D1D1B1A2C18262A252529271C2126222926322B272826261E27241F2A152527292D1C,
1C1F26272326282A2F270F2526262B012525272726272624252423222D042D27240B132622272629CC2527272C1D23EA2626262B262B30252B2E2A262620272C,
2222272C1A1C2D292B262E2225262D212624212125302624222923242727292E2F2C29262C2425251D272624282B271D2825261D241B322328282B2626222B2E,
2B2926291A202F2F27262A2625260F1B25252527242E261D231E2D251F351E1F0E11012727252727222A2D26323F153422272631262524262A312426261C2C24,
1A28272B0C38242A2A251A21252639322724282A2429271D36322D25252DF3261A251226282525251E2522261A2738122826271E2427382730301526271B1F00,
1E37261D2D1D2A2A1E251A262726362F2724281C252F2526252B2925242F29281D2B2E271F2625262D292325232E24281F25262325222C24272027252619242B,
3A2825210E26252B2D262433262728302827262125252527270F23261F1927272D2223262C25272429222C272B2D102425262520253436242C26302626252F2F,
241226202B2F33221E2732242626242B272438382526252D29121525331C2A232A2829272A262628301D2E281B15141A23262827251D202721152527272B261C,
2B2827281F2B2A292E2720332728301E2625261C251C252F2F2314252B1F262C242B2B261A2526242E2C2926291C2E2520262928261B36242D36362627272E22,
26262627272726272726272726262626272726262727272726272726262726272626272727262627272726272726272626272626252726252727272626262626,
232026291F2530282C260C292626241C2627222726242725252923232E272E2B1C18FE2628262628F62C23262914254021262626292532242A292E2626242928,
2B27272D2929232533262C272826252A2727282326242629252326232833202131F53326282526272E222927282A2916242726342525212424252727252F2827,
4629261D2C2C2D281F26342A25272429252322222500272D1E271927371D2A2F2824262728262724272F1E2524253B2B2A26252325313325242E1E25262B2A27,
171A271A172A263029262C1F2525272426252822243F272233271724292929232831372721272625210E312521222D2327262623273436252D322625261C241A,
291C252E3B131F272A26182F2626272827272936261D272D27182528371F20151D031C26302725252521262426372F1D2B262526242545261C263A2726322B27,
302225272B1D25211826184F26271F1D252429152721251F1A1B04261B2839272A242C272C272728213129262221171E29262528281227263420152625342A23,
1D25261F0C3F28232227283326271A2026282330262026222B231E2622233328293425262C26262828142524232E220E2226281F252B3925222E1A25261F2625,
2823262C20292923352511242726231027272723261F2528252317273832222C17F1402726272527D6312926311C2A20272726232426302528312A27261E2826,
181A272F1821282B252631212527212C2625211F252F2625253028252C2E271D302F2B2626252724272623252629392631272528251132223129322726332C33,
1617262A26272C28222635272627262927252B27252C252B29231C25212C2F302EF123272C2625272E3122252525212B24252829242A2827202225252524261F,
2B24253021292F222B272B242526302527242D1F241926222A1D282431270E222B160A26332626262C2F242724342A3322262928252734252B2D2527252B3113,
1C3A262D1B20262821271D212725342926252527242E252A25382E262E202521172F30252A252525262022262B252D1A1C262625251D2D24292C292625172A30,
0A2E26D8102D29302A2424382626312A2626221D263927341E3232252528201815251926272526252C4BF625282033112826251D24403B2529292926252B3C39,
1F2E281A6C0C251F2C261C372726382A2723384C252F271F241E3E25223032453263112729252728302C2726253034FF252625232521522518363527251F3D1B,
231B2635082E19303A26102F2626170F2624271B2529262C2E122426281B311C25242926282625252B2D2225311D2427292727252612452427374427262E3A2A,
27272626262726272628272627262626262727262727262626262727272826272727272726272727272627272726272625272726272726272626272626272827,
271C27232227222835251924262618042729292526292625241F2E252B2A24232510F5272F252725D6291E26292B282D2426272F282D2E252B26262625132829,
241F262229182E2E1E27202926260E2926262424272A25262A283B23313E292517803126242726282A221D261F2F292A19262526262A2C2528242C25260E262A,
411426312A2F222C1A27232226271E28272825242659272B21412B28461B2025272720262F25262421241F253029F7202D26252826202E2430351926252C2626,
282525081D2A312C25261D1926271A24272523232519261C433A2025341F2F252A2F3B26272625252AEA4A25283338191F27272A2750282523312E2727291A0A,
2A2326254709162D2B27221E26262E2627283241262E28362E0A1C25201F1D03342C392622262727252C2A242217273A2527262024204228183F30262625301F,
3532263101101E2E332619412727171F27261423272626162B302A26261E2E0A1B34652720272626181421242B25341F2A252628282F23252A150E26252F2E30,
1E1B25342D3F362D322622522627222126271A2D2626251B2F251527342E2F2221383C2631272726252C312423372E351F27282B271B352429270A2725273719,
242B2629202F1E2328270A2426271D052624252626242622271E2225291B291E21E5FC262B262628CE2233263A261E252A262623242A2D252A222C27261B2829,
38F12543101F2F3621272C2427271E48262520242423264021303023263D29224A312D272D242726392122251D3526263C25251E250A2E25312B2C2526472634,
21232627242A2A2531252F2827251413272627222720261F2A12352424291F2B1FBA1E27292626271E262D26342533191C262528272A26262D3F24262616292F,
2735272F27211E2329252D262627322C2625182A241C261E532136252D23D12D1E1809273F25252A2D421E252523160B3025251A241F332421221C26262912E7,
2D5C26330A26212E2C263A1C2627432327251E24251F25361F381C2530182A1FDF3235262F252626192126242526282607262513250E38263022342626002538,
000000000000000000000000000000000000000000000000000000000000000026343533453233453634362B5C3235411E3A3B323E4F3B3441413D385D332D3C,
00000000000000000000000000000000000000000000000000000000000000001028293A4236452737383C3841363233FD2E142809502F3B06420E1C37372F37,
0000000000000000000000000000000000000000000000000000000000000000243B56214831324037333A32223535324B332A3229373A2A40463F4B2A332FF7,
00000000000000000000000000000000000000000000000000000000000000003836333D34343A393E353C363836313A373D3A35333F38303E39403D3A3C3537,
0000000000000000000000000000000000000000000000000000000000000000383A333C3A343A3134333D3B38323737383A303E313632333A38323938363D3A,
0000000000000000000000000000000000000000000000000000000000000000313B423A31354E402E334133163235382B3520390B113F3C293D2D2850313538,
00000000000000000000000000000000000000000000000000000000000000004033413E3C343136372D3C2F392E3B3341293A2C1E3A413D432E3C393B362A40,
00000000000000000000000000000000000000000000000000000000000000002E48322F2A3641382E3439323835462B3830332B26391E33324642284535302E,
0000000000000000000000000000000000000000000000000000000000000000383E373E3F37353436383A3E3A3641333C333433373C2C343E3B3E3533383335,
0000000000000000000000000000000000000000000000000000000000000000362034193734383F313245393139383C2B2D353B092C363537EC373C32313033,
0000000000000000000000000000000000000000000000000000000000000000383F2C103F2F37353228372D2A32285516322E3D32274B3734323843352E3A38,
00000000000000000000000000000000000000000000000000000000000000003239373D31353C373D39373E333E3834323C37313235313B3A3B423B3C3C343C,
000000000000000000000000000000000000000000000000000000000000000032302C093C2B3C2C2831AB2880372A100131152B2D3A16362FB62D2E1C242C0C,
000000000000000000000000000000000000000000000000000000000000000039323A3443332F3637373A3D3933383F323D353B3334313E3633363736363B35,
000000000000000000000000000000000000000000000000000000000000000037373733353E323D383936363C353A3E3C3A373838363E343836383539383336,
000000000000000000000000000000000000000000000000000000000000000047343B414630363B313236333B2A373638333345222D3A37313F3130382F3334,
00000000000000000000000000000000000000000000000000000000000000002D0980542E2F3644303C283038314707523380EB5D44452D58302813E3363542,
000000000000000000000000000000000000000000000000000000000000000037323B293C3635373230382A333236373529573308373C3B3C3F3A383833363F,
00000000000000000000000000000000000000000000000000000000000000003F3C40253930393633313529482E4138522E3939111D43383B472F42342D253B,
00000000000000000000000000000000000000000000000000000000000000002A37274C3031373A2B35372F3E2D3D3144283E2B29393940373F3F393931353C,
00000000000000000000000000000000000000000000000000000000000000003540353D373E34373236323B3D353835363B393A3C3D31313D333B3F3C323837,
0000000000000000000000000000000000000000000000000000000000000000393F301D3D2D372E353036382D2D272D2F30303C143D51383B3A3741312E2A3A,
0000000000000000000000000000000000000000000000000000000000000000324133103A342B3A2E3838362E35295226302D3B2A364A33142E353D21363725,
0000000000000000000000000000000000000000000000000000000000000000411B19162039D43E2D3D4638DC324728343480482C007A3A0B139A442D30308A,
00000000000000000000000000000000000000000000000000000000000000003A383239313D2F3A3E37373F323D3733333833393D36433F3C423B344139343C,
00000000000000000000000000000000000000000000000000000000000000003D333A35373F383C363635353B363D3A3A3D3537343B3D38393B3A3D33353636,
00000000000000000000000000000000000000000000000000000000000000003F3E393339373436373D3B3B3137393836393A3239363B37343A30413C343633,
00000000000000000000000000000000000000000000000000000000000000003541423D3030373F2A28392838313D423C2F3B39FF442C3F2333413947332E35,
00000000000000000000000000000000000000000000000000000000000000003E3D3E373F3D363D33363D3E3D3735373A383D3D373E353E333C353E383B3A36,
00000000000000000000000000000000000000000000000000000000000000005637363B33398066383D803743357F83342C703D3044513216435741803636E5,
000000000000000000000000000000000000000000000000000000000000000006882C7528353F452F36603BF33C173FFB370C492820D0F84228D0202437394F,
00000000000000000000000000000000000000000000000000000000000000003B1D372C45352344332D243FD8372D3E28302B3E33D70F0DFB323430DE3B3680,
0000000000000000000000000000000000000000000000000000000000000000494249274136381A332F2F2F3E36402F433E3F30243D493844453A35442D3772,
0000000000000000000000000000000000000000000000000000000000000000303D343147373F353035393A4133313D23303740382943384F3E2F362F2F3639,
00000000000000000000000000000000000000000000000000000000000000001E455330583734522F293733312F3B353034233E46403D25E11C415538363A55,
0000000000000000000000000000000000000000000000000000000000000000123143194437343132303C303636371A463A413E0D441E331D373A3A3F383724,
0000000000000000000000000000000000000000000000000000000000000000312E383A3C312A373A35373A3B333A4436353A38353641392F3A393B323B383C,
00000000000000000000000000000000000000000000000000000000000000003B40264151362A2B3A3B3139342B334A3433471A632B4243283D3C3F42303C3E,
000000000000000000000000000000000000000000000000000000000000000049124746453A3216342E3A3537353A35313A4A391E3C2A36154B3A303D31300E,
00000000000000000000000000000000000000000000000000000000000000003438333D342E052F34363B350B383B35452C233B094E3D3A304232364A2C3D23,
0000000000000000000000000000000000000000000000000000000000000000483A3A343533472F332839353B29413816343D3C1C18323B2A3F384335313330,
00000000000000000000000000000000000000000000000000000000000000003B38393E363C35373835373F3A3C3640393E3A393534383B383235373C39333F,
0000000000000000000000000000000000000000000000000000000000000000332B3F2A3B383935392E3A373239343732375B39DD36323B3A473B3636372E3D,
0000000000000000000000000000000000000000000000000000000000000000353A383B2D35383E3A3D373F3D3336363F343B383B343A3C3A30333B34323338,
00000000000000000000000000000000000000000000000000000000000000003517333E38343C3337313D353C3A3834323B30303C2E383B34FE253A30342D47,
00000000000000000000000000000000000000000000000000000000000000003F1130E439333932343D473131333B383A30362D3B28363D40E82A3831372F33,
0000000000000000000000000000000000000000000000000000000000000000343436363E3E373B32393B3532384236363335403A3336423533333637383436,
00000000000000000000000000000000000000000000000000000000000000003B3B3D3E38333840393D393E3B32343D3236393C313D37343D3A373A3E3E3C38,
00000000000000000000000000000000000000000000000000000000000000004F322F3723323AFE362E263447323F34232D3636293E232D3A1C173528312B06,
00000000000000000000000000000000000000000000000000000000000000003D3242544436383730313E332E2E36362C332D4E3A3131333B4230383B382A24,
00000000000000000000000000000000000000000000000000000000000000003D3738373A373B3835343A3A393E3E373B3E3636383837363A3537363F32353C,
0000000000000000000000000000000000000000000000000000000000000000333C3E39373533393832343F31343D3536393338373A33353C393832313B3A35,
0000000000000000000000000000000000000000000000000000000000000000393F3D3A392E273C31383B364F2F39393232353A51513D382F3E3A39F734303B,
00000000000000000000000000000000000000000000000000000000000000001D3A4D203E331537353735313735312F7F33353B21333A2C5F2F3C1E242D37FE,
0000000000000000000000000000000000000000000000000000000000000000353F3637363533333D39353E3C333333383732363A3836393B323840353D3A38,
0000000000000000000000000000000000000000000000000000000000000000323CF6133F393B3E2C26372E392F393C363220233A33383B37353B3B37342D30,
0000000000000000000000000000000000000000000000000000000000000000464042502D36403B2C2F352D3D3A42303830443419353B434034474232323423,
00000000000000000000000000000000000000000000000000000000000000003F3D3BC14730373E3B2F35353834383B4030423818383B3F49383E3C372D3236,
00000000000000000000000000000000000000000000000000000000000000005138332E472C2D2A3739B231263275205C3557377C37713663454A5E452E2C6C,
0000000000000000000000000000000000000000000000000000000000000000361B3A123A37373D2D33342C37273A38302F3837182E3B393800373C302F2C4F,
0000000000000000000000000000000000000000000000000000000000000000323F351E423537343A30362F34392A56F83B323F1B244B373D3C33403032372F,
00000000000000000000000000000000000000000000000000000000000000003638363A3D3A32383532393D3E333A38353F373B3F343B383738373A3F353738,
00000000000000000000000000000000000000000000000000000000000000002D3F5B234830353B2F2E303A35393B334D383234492F3C31344E3650272F2E4D,
0000000000000000000000000000000000000000000000000000000000000000342C3E263B3835353939372B312E333B343C58384235353B3E433B373634373B,
0000000000000000000000000000000000000000000000000000000000000000000000000000000000000000000000000000000000007A80776DDA7275757AC9,
000000000000000000000000000000000000000000000000000000000000000000000000000000000000000000000000000000000000736F727172757675726F,
000000000000000000000000000000000000000000000000000000000000000000000000000000000000000000000000000000000000747C7678707977777576,
00000000000000000000000000000000000000000000000000000000000000000000000000000000000000000000000000000000000073717776717774747A71,
00000000000000000000000000000000000000000000000000000000000000000000000000000000000000000000000000000000000076727876777B78797773,
000000000000000000000000000000000000000000000000000000000000000000000000000000000000000000000000000000000000786D76756E777576796A,
0000000000000000000000000000000000000000000000000000000000000000000000000000000000000000000000000000000000007C767A7C7B7578777B76,
00000000000000000000000000000000000000000000000000000000000000000000000000000000000000000000000000000000000078767D7A797C78797775,
000000000000000000000000000000000000000000000000000000000000000000000000000000000000000000000000000000000000777073736A767B7C7671,
00000000000000000000000000000000000000000000000000000000000000000000000000000000000000000000000000000000000077797F77777F78797879,
00000000000000000000000000000000000000000000000000000000000000000000000000000000000000000000000000000000000072757973747973737A73,
0000000000000000000000000000000000000000000000000000000000000000000000000000000000000000000000000000000000002678436A53592B6F6D41,
000000000000000000000000000000000000000000000000000000000000000000000000000000000000000000000000000000000000647C6D6C726B6B6B687B,
0000000000000000000000000000000000000000000000000000000000000000000000000000000000000000000000000000000000007274737A747172727374,
0000000000000000000000000000000000000000000000000000000000000000000000000000000000000000000000000000000000007A707376717274716E72,
00000000000000000000000000000000000000000000000000000000000000000000000000000000000000000000000000000000000076727375777576767973,
00000000000000000000000000000000000000000000000000000000000000000000000000000000000000000000000000000000000075787C75737B75767577,
0000000000000000000000000000000000000000000000000000000000000000000000000000000000000000000000000000000000007A7269757A687A7A767A,
000000000000000000000000000000000000000000000000000000000000000000000000000000000000000000000000000000000000736F717369726F6F7572,
00000000000000000000000000000000000000000000000000000000000000000000000000000000000000000000000000000000000074767775747775757A77,
00000000000000000000000000000000000000000000000000000000000000000000000000000000000000000000000000000000000078727373716B6E706F73,
0000000000000000000000000000000000000000000000000000000000000000000000000000000000000000000000000000000000007678797C787F7D7E7676,
00000000000000000000000000000000000000000000000000000000000000000000000000000000000000000000000000000000000077727575707475767276,
000000000000000000000000000000000000000000000000000000000000000000000000000000000000000000000000000000000000727271756E72706C716F,
000000000000000000000000000000000000000000000000000000000000000000000000000000000000000000000000000000000000777978777675797A7979,
00000000000000000000000000000000000000000000000000000000000000000000000000000000000000000000000000000000000073747675727674747873,
0000000000000000000000000000000000000000000000000000000000000000000000000000000000000000000000000000000000007573797773717375797A,
00000000000000000000000000000000000000000000000000000000000000000000000000000000000000000000000000000000000073797472727473727378,
000000000000000000000000000000000000000000000000000000000000000000000000000000000000000000000000000000000000737055727462716F7471,
000000000000000000000000000000000000000000000000000000000000000000000000000000000000000000000000000000000000767674787B7476767576,
0000000000000000000000000000000000000000000000000000000000000000000000000000000000000000000000000000000000007A767B75797778777876,
0000000000000000000000000000000000000000000000000000000000000000000000000000000000000000000000000000000000006E776F70756F6E6F7077,
