memory_initialization_radix=16;
memory_initialization_vector= 
671A801E1D560E461C66BD1AD0191F9D1E281D1915200AE61D1F1B441E5D5180002CE3461BF36801611B021A16FB1A21107F211FF66F1F3740081FAA54207F3C,
472FDF1A1F293729163BF71A1A1D1EF5EA3A1A311C0D031F19191B2E1B4843DE091B063E1F3D68172C1B4017221B1B1C29561B2007F72308251E05EF391C6FF3,
3315E71E1A21062017360E1A121D1B0024163D131A0F293A1C1A1C00203D32F726294415192B311A1D1B4317F524132044601D211DEB1BFB2F2EF83AFA2065FE,
2A22131A1A463635182BF717F7162020071E0D13181A12381B1F1A1F221D362F1B0C59DE1EFE1022331A201BFF1E142153341E1E2608211C290A0BFF49213546,
2B43281C1D3639331835F11C241C1D1CC226250B1911283B1A1E2012220A220A23434EF52241032E1F1E0318111A1720170F1B1F2511201330060616211FE731,
4646FA1F1D28231E1321241A30181919202027271F151D37181B1D3220181944081A5E2E1CFF1F0E1F1B291DEB2E161C2B08191C1DF819171721003927211E18,
271B381D1E204739151A3B1D20161E32FE2C172F1C48381D1B21181A1C0C0AD2FF24611C20461B1A1122181902251A1E070B1B1E2EE81E37291DFD34372117FF,
260030181A142527170A241E341B1E1ED3041021212C12111A231F482012100519382D072137260F111C2119FD23121C1D321E211CFD170C0EF9081F1221F335,
29233C1C1B0F0A2219101D1A21151D28F51B411B1C0C020F191E1C2A1E0507B81E0C1E29212F1212241B07172240172113261F2012EF17142F0F1C2D1F220929,
392B6E1C1B25231217EDF617001921EEEF2D2A0E1B151D0D1A1C1B211B13071215201119203828142A1C1B1C252D151B3D3C1A1F1736181735161F3F18202620,
2D2D291A1A2D07371B0BFF16F21620E20E141C11221717111D221D3C1E1115D31B23112F15233D082A1A3515023F171A31551F1C0911182F03F215334B1B1C0B,
2D081519201436272017FE1C041622EA1C344A03201B23211C1F1B1C201618B32B2D15291D04431027212115193E1C1F3747211D012D1A302E2128322E1F3E2C,
2707141C1A1E27321222EA1DF0161F082A39473C21122F27191A1D1E1C1C32000B3118281AE94F09451D1A1A3B4A1C213B57231B0F3C18212202361B4B1D5421,
2DF71A181F2C0C39162A061C171F1B224B002B1020FF1A2F191E1A13202825EB0D1A49F81D160C222520241C1133171F1647201D0F3B1A032438310B1C1C6211,
1C18DF1E20261C2219082E1833181C0C1B191F2D1D322A441B221B241F302922131A32082209161D0E1C3A1C3130141B1C1B1E1E25F31C15272330FE2E212F2D,
2212121E1B1D162A19012F163B231D12260B31161D0C2A34181F1D15212A2C7E0A1A74F21E33191E231B19191D211B2055161E1C1BEB1D242321340E221F1C49,
3831251D1C1E30241BFE3418251A1C38ED25F21920361A1719171D1E1E2539C338242BF81F1F221E0E1B1C1A412F181B2916231C2ADB1A142C1E371E1B1D1819,
2B28131B1C16252A11210F1802191F22013220611F391E13171C193B201D2D25062255411C1E07150F1D021B5A2A101D0E2B1B1D140E200928103E0D2A23E620,
4A14361E191C26221BFE101DFA1B2014F8123C0F1D361207161F172B1E19292E33114E2F20231505321921174E1C111B182E1C22FE341D2C250C331A22220305,
4126321B1D32343A121B0019321A1D0B2E2520061D1014221E221D221D20240816402F1E232A0E1B341A381848FA171B27341E1C1719141C321735182F21021E,
34056A1F221F12211607F727061B1DF831351C281BF711351B1D182F20200B822623162023315C22491C101E2DEB172248471E1D276017291A162F383620D317,
422D7F1A1C210527141ABC19D81A1B8D440A6C131C0E35F9251919471B020D802919EF1A1DFC6E02591D2F1722C51918557F1D1C277F1BF3351B2B3E611F8021,
80CD2C1D1CF30E0A17530017EC181A46ACDC111A1BFD7F3B2C1B1A7F22A5E2FC3C80113A175E087FFE1DF4162EE41A1C374E221C1C381A2910FB0A2041215D20,
D04B341A22193A321956211925281E0D552D5514221443361E1F1F521EABDA340BBC224B1624FA300D1FE816013B17201B461D1A173120340C442B08481B1430,
8301F1201FD7484520672216FC211E26CC6920ED1E0C1BFD1B1B1A2720CA1AEB1F803C181A385061FA202B162E2614204F6D1D1A08ED19302F1766B4332027EB,
8017221D1B164510193F1F1B50261F3A463D3E2618363F1D1B1E1B621ECC4E03F9B412DB1F55E554E51F4B1B14341B203327211AFE001B191D127C071C1A5619,
D121311E2031F94D1D2625181C1F1B2D4BFEFF1E16F94F251F1D1F4A1EEE2D3D32805441191B31430D20F81C1A1B1A222D41231E0B031F1823007F40261F054F,
9B470E1C22227F2C1916381A1B17211E1F1AED0A1CE72F41251F173B221A51250D34002916262A2A0B1E1A1819111B1C42341F2137D9181D0ED97F13581E470C,
D70F4E1F1C0EF31E1820171E34252243E248253F1A49FF1F1D1E1E461F3D500007193E66101D1908061F2B1CEA2A1E2114392125253D1AF92D0F7F19191EFAFE,
082FDD1F2136221514F81A192F261B250C2F153B1D152E00181E1D371F6373301A9204F210272D47EA1F4A20F128181E47121E220D26210D29047F57082155F9,
DB1F461D1CFC0F1714263717F21E1D15DFF30B3C22DC2E28171F1E191D6B7A2314FB4D19151A22613220052018111D1E241F231C1871210602FA7F350F211C3D,
B9F9471E1BF41A2C0D1BE21DC31E2325002FF8241B1B08ED191E1B2C1B5E75022EDF2F0D1B60F52D031BE71DF3321E1E1139201E12402145EB48725426220238,
C919181C2220170A16F4192004211C224E0D47111CFA341C181821391F5877F025B02B371F6D2362EC1D17182A2819242F3E1F1B2C1617271512531718223B1F,
F01B4E1C1C246D091620FC26011F1E297F08375518F3271E181B1A421E557A441FE123FE1112DA61121C2E1C04441D1D4749211C2458150CF40E3522531D0835,
CE15051B1DFB2A2115F2FC1808211D130210043B1C2041061B1E1D291D65631A3CB03D261535327D161A151F145A182036361E230C291E33052E1AFB2E1F3528,
8C1001191DF1171E12442C1B3E1E193B381352EE1929390920191C2124693D2716BE1C35153E4268F9191A1A4A2E1323F8171F20130E20253703EFF11D212AF6,
FE1339201F104B2616FE0B1CE22221331101222A14C718311D1A1B101E78480E12F54B1510F91D0F071AFE1A19511B1F4B391E20172C223F1737D412041F1010,
C732351A1C12FD2B0F203F1A34261D172A1AF0051E22FB24171E1E0F217F2E3507B13B251A13233E0E22451B2D311E220536221E041B1C002CF1AEEE1F233B0A,
AF264A221A1EF046190C5B232C1D1F450E482137214932211A1B1B40237705DD2B803A2A193A303104223C153A212623512C221B23F61A2330FD9936261F1AFB,
F7F5D71D1B1B1B211B1726291C172037300053FF23DB3E391D211932203811395EA126311AFAFE590D22DC1B350D2421073422250F24190020239C42401E2944,
D7143D1F1E0B2B2222144024081D2111C7591E0B1EAF2A3C1C1A19392425E81632803B1B17221B65121F22193606181C4B3E1D201039221F222190341F202830,
800D581E1E19171A17FA2F1B1F1A1D29ED356623181A14F91B1C1E561EF29F29248B2F2F15431F3D0719021E36F11C1D421B1F1A18EB1E40F431B43D501C5322,
A82EFA1F1C0E4A381811B41E2B1D22242F06662620CC5F4022201E1222CFA6391ACE084C1715386411223E1C261F1D1B10471B1A1B211F16140ECD084221D201,
80D40F201CE044141414D927DE171E0E7AEC551C1BDF7F0F1B1A1B6B21808CDC568072281459407F02220A1842CB24202567231F0EFA1B17F8191246331CF040,
432CDD1D1C147F3A1E1C3021271B1DF3E95319581C3A1EFC201E1F2B20FE800132012815175DCC2E031D03200D231F21D1D31A2224431B4C182D2D14221C1309,
001D131A191A0E0521252C1729261A16340A181B1A0D4B3D221A1D372310803D4543370B1AF3102B321B371A20331921281F201E215B1F0D2635231E2F1EE1DA,
1436F51E1D17492E1D16181D4A20200E58D97F501F3A2C0C23201B222185C8BC00FD5D00183BFD10F81C3F1421181A1AF0C11D1B1C2F1F23424406EE2A1D2B33,
35359C211A2CF93D1E112B191E2520140727EE20251118161D1C1D2B1E18800A1F35F8181653F927211ACB232B3A172211EC1D222F572022301E6435261FF173,
241E061A1E15481C1AF6302733281FFC353F182E200A31201D1D1D3D1B83804E4E3D681A1C061E28081A0523201F261BDC08212211321B2837370505222017C6,
1F44D71B201B192717212324301D1E03382231441A2A0E041B1C1F361E528F1839263219163C2B17371E551B1F1C281EEEE623201C5D193E1908E42E4E21C303,
24069B1B1F14F5351622321F25161E1500F5F3531E2D31F12322212620EB80490207332C1B1EDE19F122F91A252C1D2117F120211C6819252D527F2216211014,
0E40FD1D1B13381019FDFE1635191F18C3272327192F3D0F201A1E3C1EEC99032D2E4BF81D201E153022F519141D121CE9E3221E0F2E1C434230E033381F0578,
360DCF1A2134483E231A2F1C381A22223171344922134C1D241C211A1CFAABFD4E2E21021D22F7220321E41A112A121B14ED1F20337F212B1D293B191B1CE2D1,
2241FD1A1EFC2A37262110253C1B1C0B05F5262F20321FFE1F1F1C301F7F800C1019E5131431322D161C561E25171B2011F51B25124520512131003F331CFBE2,
1F0FAD19223423210E25262604241C142B050F671F191CFF1A1D233B219DA339403578F51B53C6200B21312021391F1FF7E51E242C491D150C5A0D1F131DE12B,
18FCA01B1D01212B142215193C241F0F081C15171D362E2617231D261F5580D9421C560C18E316100022DA1C252D1F1BE9F91F221BFC1E4F47393C17191D085C,
3B3B191F1F28271F19FC3F1D061D1F0DD4512040191A170417211C2524F7802820131F1A175A2C271D1AEB2046181C1CEEE01D2214391A0B21300A153B22F0D8,
14169C1F1F0A48261D2B0C2137261CFE2619CB0D1D291EF51B1F1F461FC480154A2913D41251F912001F3B1B1F221D200EFF201D23F01A3434131FFE161FE0FA,
3330C2201934422E150531160A201C0935EE453D243133C51C201A3124FC1238012F53280C2A22201720211B1D2A1A1D02E5211A135022301329301F07201444,
1936D51F200907321D2624193A19220851450130204A2328201B1F2E212B80C022F8FA0D120BD1261722DA2326221E1F040E1D2025512340243E08262F22D261,
2722E5202138443F211F1E1A24221BF9E4512838221809FE171E1E211FAD804B2A193DF31E491317F31D24211C381920D8DB212220E01A532F2E18262D202FCD,
290EF11B201EFE0E251A0D173D1F1F2B2B0C275D24513B2E1B211A431CD080EB3C34192F103EF11C2719291C2113121E0EEA1F242A3C190F23313C151022F9F2,
212882211B2652350C1809204B1B1AF8260E3412212B25E91C1D21201F99800A4A236DFB206DEC18F41E39225028241C1D02211E2138194A3D1CFE163820E631,
1423C81B19200D1C151E3C242A1A1F221F12DE5C1F2A38282021223B1D7FC1212508F8FC2828F62614200218270A1E23B9E22020222618183210560F321B2039,
3735501E2025192C11FF0D1A341B1F0E443E492F1F31180121201F38225A8044693649FD1C2FF82E0F1B05182619181E2EDE211F2C2418541340F33F11224519,
243BAB1E1D142C331B123B1C1C1D230DE4500964222C30FC1E1C1B181B2980D4182E57331D5CF216EB1F2C1B2E19201FFDBB20200FE2193138052815261E1ACD,
561C7F1E1A36334A183FAA1BFD1A1B761C1E5AF81A0D076C1C21173C20394B7F0F2A7C1F1248450A7F1C10171406181E7FFD202014352209604102C37F1B8066,
5237541F204D2B4A0F50C6192619214A1C6C291E1A111C2316231A1D1E344148F7223D381B28481A1B1F421A0008191F350B2119084A1E1B322709E54321EDE4,
3F320C1F1D3425271051F217F91D1924F8203225171C22F91A1B17371F2A3741402C222114122B0B161F4518090A141E083C1F1B0F401E34283BF4ED38200C0B,
4427291D1C341E2E1053FE1B051D1C34C7F21D51162C22FE171720481B282A1B2232ED151A371B1F191D081A103D181A111B1F19FCFF192148080BD32E224F58,
244018191C3C123513380519271E2126092B2C311424091D1F1C1AFF1F362A15180E1C29174D251235211917F938141E0F37201B123E201D071306141E204217,
2A3E48181C342A1A1523141A19171D1B1D1C1EFB191813111B1C192E1B4C262401170E17132D19FD2B1B18161916191B47481C1B1D351E1830250C3E311A230B,
11282C20201E1B22162F221B21191B2A6925230E1A39043F1E181B1F202B24090320D711150937241B1C3717FB1113204B341E1E353E1BF91AFA0E50F92029F6,
25F44E1C201E393714FF201F051F1C110F273715171C43241B191C441E30221F0D1A60F018230A2D15200915DE29141D331D1D1F233A1923043318402A1D2128,
4118201A1B221A271101E61921211D31FA2BFC171901F638172017241D1C2B2925491C1618432811282016141D24191A32161C21132C1C0536211227431E4211,
1F081D201B3B252D100DFF1F1F231D422F1646FF163A58341D1B18251F0E243D0D2F3D191C411C152A1D481BFB38161C1E3D1F1C10511A3D2828F93830243233,
3C1F22191E290F330D0CE41912221F480C0A1D1C1B2211301F1D192520171B462B070D20152B3D062A22241B124A0E1E5E0C201F182F1E1636191B2D4D1D0F3D,
451A221A1C081A40120113171D221D4618202A261B06122D1D1E1A461A111E3D1A365727190F04082C20081B2656131B5D1C1B1D12401D1D44492023431E3F40,
251704181B2B14301818FD1906171A3B242F24F813033F30181C1B3A1A0B1237201029221B2914FB221B061A203C111F4311201CFB151B041D23320F461E1B19,
331F1A1E1E101D2B1AF8091A0719212C091F2C3B1920FD2B1C1C2019200111541C2B3D1515141C1A271D4D191D4A131C243B1B1E091A1B0E132039323C202F30,
0A23361E1823101B0E200819F4191C3B0AF53D361A2300191E1D200221011B470D15533014183717101C25180547111E0C30201E12261A5741EA391B211C2002,
38102D1C202B0B2710FD371B2C17201C08321508181BF232171E1C2C1EEF18341A2508FD1955011F161D0915392D13220E39221E0C311A3631F53445081D3E2F,
350750201A33172A0C07111E001B1C172E3B35121428101F19221F1E1BF31FF2372A0A0F16181A12261EFE1C4E1C19204018212009651C0514483D173A212602,
33106A1D1D1B0B221B23081E3C1C2114CF221B1F1A30381E191E17341CF83227222CE00416410A2F1E1C461944301C1D3F411E1F0D5E1F381D3344FA391A28F5,
2B0B241A2024182416FAF91912191B36F0043241152025151E1D171F1A1F24182940D72E172EF5054F1E3F196C09181E25391F1F1A30170B301A4A17301F2529,
4E29FC1D1F213739131C011E2A1C1B28111725331C3A523119191E401A23293406F82A2618DA0F083E210E153FFA141B2A131A1C26431C13212F4407361D5629,
4021DD1E1C1E40381A09E71B00161B45432639051B29FD1F1A1E19501D4C4146370B2E21144A6A20281B061936CE161E662E1F1C12221DEF1B5042332E1E604D,
502DAB201821193A1413AD1CD41B207F4E1929151A03FC241E1B19311F5D4B7F1A177F210FFF7F00641D46162CCA1A1E7F24211B1B241D02551A21557F1E7F1E,
2C25EF1E21370F2F1A3B2C15121E1C301AFE1E6F1C510C80251F1D301E808008FC2AF22B1B0EFC220C1D151C1D17151C94F7201F17A9222612FD41032B1E3315,
1F25FD1C202D492418481F16101E2022052CF64A1E294980221B211D227F80E0360B4F6822DF1019241A001D12202221C1121D2017C71B5A13292A04371E1324,
3623041F1D2E3E311B45331D331D1F1C8010F93522201B802A1D210D1FCFB017213A933A0F10141A131D211D20201A1B87301C1B19BE22432F271C10241D03F5,
24169E1C1F1B2723162D1724FE1B2026582A35FB213C0D801B1C212F1C8080BD25120851152FFF182020221D1C151D1CE4011B201A361B50162131142420150D,
2916341A1E0630291E343515201519142FFB06241E261680252122451B713B161E25AC131B00041A0A1F0720222E1B239B221F200EF21C32141E38162720E631,
1440E91B1C17221D1C2E1217191C21227F263A1B23212580231B1D291CC280ED3444D24D113D0A2D1E1E122016231922C6151C1B03E01F462F25450A10210EEE,
2523211D1D1F252E1810291E1D2420165231BC2A252207802022202F1E80055F202D22290E1AF111131D34202E1D211D0B161B1F1ABD213D231E0E384320B507,
2036231E190F312A1F32231C1A1C2024670005141B4C1480221F22441D8080082817EE2017271C26331BFD1C1527151CC819232310381D36172226152E21EF16,
2223081B1D2B011B1D221919241C23265E25261C1B1E1180241E1C3221BACAD71F26DB48180013180F21291A2E1D181EC01F21210AD31B54332A121036201013,
160FFB1A1C12191B1C1F2C1B1E1F1D31AB2F25271B353480211E233D20DE80EE161D801D161DFC19121C0019132A1823A410221D18191C3725FE27220C1A2A0B,
202A091E20250B19181F16170B1723217FF0F93C223D22801E1F1E271CB7802F202C4738112F06140D192A20162C1921F40A1F2018091C3B130B062018224224,
1A18EB1D1C1C1D201819261D21271927F824532022361A801F1E1C211D8085D00C168033122D002B0B1F1D20101E1E1AC4221B1F11F91B4627233F25371DE422,
29261A1C1E1D282E1F1A1C2313261C1CA61E0C20212431801C1C20021D528005330B1D29150B061A09190C1F1E341B1FCC221E1E19BC1B452D3CF5302E203623,
1D15061D1D0EFD2C142E251A052720236B3C0417253E278019201F291A808C332713E2101404DB1607231217382C1F1EDA13201E0CC21B3936D20C44111C0A0B,
3423271C1F301726141A1E1A241B2026E104D742213C0780191F212E2280E305323E25450D6B12250D1A131E2139241DC3251D1F15BD1A332B1D2E213A1DF503,
2715F41B1B1F3C271F19321D181C232C3E15262A21191880281F1E301EA2C33C3E2255281723241D2B1D24232E242222BA28211F0F1F204B28F425313E21BD20,
112BF51C2108261518071D162D1D2117241E152D192B05801C1B1E201E8080181622E4151636E5200F1D12214922201BB32B21210A68214B181E1D060B21F925,
3735241E201C1F201C2C3F24FB1D1E1D1919464D232233801A1D1B421E8080F71428CB4E1F1A0625381C101E131C1E1EEE131C1E1EC51C4C09EA2C243D1BF325,
152952231E1A2627180F261B131B1C2F102C1A281F4F1B801F22212B21C080182610032E2909291A0D24101D35212222D304222414AF1C3D0D3CCA122420180F,
272620201A0E5A1D1D1D4328181D1D453218303B19273C80181E212A1F8080072A3D1B4C221FF921301F3C1B34171D1D8838222206D5174326F227151F1C08F9,
111FE21F1B30F41C28291A160E1C1D1D17F123461E3B1B801E221E0C2280C809380580441010251C1A1FF31B1E121D1EE8E91A1C1CF6182A2934FE2F1B20F61A,
2D13101E1E131B202115141BFA1C222C0C1E103821402A80251D194520F780DF2B2E2341170F27232C1E03202C041C208BF820191BD01C5516FC2341311EE5EC,
E965201B22AA2329155DEE21332621015D3D6412144C361A1E21214A1D79690A0D433E5821D71A43F2191D1F3AEC221E090B221E7F0F1E4D3A617F3C5919EFFC,
181D001E1BEB3C0E196A3318FF241D0DBC0D3F12171AD425251D1F381F1B582B2554100F1FFE10310B1E041E4711261E04ED211F5127220C12267FB4FF1F18F8,
F53B2B211BD62DFF1723FD1D1F2621334D1F280E1E0AF520281B182E1EE537ECF0FA3A0B0BCD0D1F051B431D392A222134261E197F30223E1C1564E95420FF13,
204D411D20DF243711622616141E20077F332D2C1B41BE0F1C1D1D0E1F20113413431AFF1332E9150E211A1705122522132F1B1D7859221515243121301B0045,
0B4949221EF3500413350F18221C1F21EB0B051819661F312023204E244822F624E114271FF22B3F101D131742321F1A62EE202053B0230B17271520411C3744,
C538241D1ED4100F1E2E2A1A171C2024B1233B321A3AB70D201D1A491FE11F151334FB6E1E6B59164A1CFC212D051A20F5341C1A63171E1D153328DE6A2219EC,
2322001E1EF23D282A11EC18441D21137F3235092043340C1E1E1D2321D80B1A3D2BE91E1BC50621101B591E2E0F1F1C5836231B6E6C1A101D4410723C201E1E,
1936F1211DFD093318110B25111D1DFE50EF280B1CF80416222121202315D4F30C2A28101E01FF24EF1B0A1F0518281A370B1E1C3FF51FF4FD5F3071201B432C,
2338161C1CDEE6F817121E270018233E58082C011C76ED1D19211D061EBBF6F20EF61B1B24342B4C0C21261C0C131B1F341F1F1D791E22284916F8E21B200B33,
EE3D401F1EFD000C24381B1A2E222023321E32252208E83C1C1D1B371DCDE71D2F54584D26F21604031B041F2E32161E1E0E1B256519211D28FE03502E1D76E6,
CF2202201BFB1E022128081F1A2A1B132214FF4C25341B2718241F2922BA010C1B36513920291835F1210122081E231F2C461B23572E1C0A345ABC161E19162E,
F86F421E1CDB062916432E230421201D7F4F10FD203C35141D1B202521F21F35FD015EE71CE5042E1C1A111C31F71E2206FF222248381F1B2E01CA232D1C213D,
3C513D21211375111751171842181B0AEDE33C1B1D0EAD29211F1B261C1DFE352D47351C17FD243410192019063D241B223B1E1D5DFA1F4E143FF2DC2E21081D,
EA251A221EC32B0F1A171416021E1F1CF9514D4D1F552C151D1D1E2B2015F0E71A50086622125F1D121FD52221291D1F340D1F2064FB21140A391440211B2E11,
EA60431E1ADC1C351F140A21361E212680E21B1A1B4F22271E201B1B1C2BFE2A1E1742312A4406181F214F1C3A0B0E1C0D25201D5510210D41D40A223B1E1E17,
0D472F2219DE451A211C3C17F31C1E1C81451F051B23F53419221C221D2027FCFD154BEE1DD6F935161F5121CF290C1A532120204F44212D0A0A06414A1D033B,
FC2D131C1ADFE21D1B3A07181B191F31DDFE14191A31EE1B181E1D0D21613E173A1B0A2323024614131BE61D0C1F1B2109031E216FC61923302DFA41E61A7F04,
1F17301C1FD617FC1EFE22172A1520104F27643A1C29BA281C181D0B1E7C142116362B1C13DAFF19DB224621F82227205A441E225D5D1D0D1D320A31501B010B,
D2775F201FEF09031A1CEA16FE2121267735DC4C1FFA2AF719191CE9225B451A133226191BFCE51E07220C20F124191C2A1C221C4E611D3D2F051F673B1E4931,
C8774A1E20C36602143711152F1B1C22061A74231B1FECFA16211E351E4F530CD926F1FB161E0619F5202B1D3462131B18431A1D59271CFD1D2520102D1C1235,
D032001F1CB70EF61B0D20181F1E1C211F1DD7431C4D2FE114221D231E3C5E36FFE4FF2818133E363B18CB1E1A5D151B40001F2041011B2D200B3BBB3D2113F3,
AC37401E1FA430EF2246131D25171E26133745251F4DBF031E1F1C1924507F17E757FD381732F11FEE1E2D20687F19222B2B22197F221A16050955F10F203B04,
453E411B1FBAD82D19124325271D1B2EFF581B34170AD4E21F1E2106227F55EEAB3EFB1B1C2D4833DB1F1C2013D51F2200E020207FE61C533EFDC187491F4E5B,
112D571B1FD806581F21CA2624191C28FFDE080F1D2B4908242222382138152D216D25F21D92F1EB021B0820D92C171BF8FF201E7FE51FE40A1BF93320190B45,
1D4BFD1C1D94301B1CE5EB16ED251D32FC46E711214A5780231E1D3F1D60BA3674E2494214D280ACE5191E1BD936161EE5E21F1D445B1D68F9FA0DE3201C1E06,
FD27181D2180F83718E82F231D251D00D80EB2561CBF3F5F241E21251D7F5FE996646E001AF7D7FAFF18091CA54A1521F73B1C20344D2106186680241C1E0EED,
2951611E1EB4E94F1729A019451F1E1E7212453A196D4753191E220B20543C3ED753D956256AD9E8EE1E5F1EBACF191BDC2D24217F0022443E1B97351E1C1647,
74182E1C22C07F531A8F7F196D231DFA3514CE4F23DC673A1B1F20161C0B7F5BFD4792DB171137F1B51EF821CE6321211A021E226D561C061632802A591CE7E4,
3714711B1F9E1B222A30171B0D1F1F3716E701521F193A7F191D20271BDF7FDF7D456C3012E21DE2FA1B0222AF1D261BD50C1E1C67A62433070D802B361BB1EB,
6241011F1EFE042E1DB33A253A1A1D14C81526F51A4DF3182721230A24D5A958DFF97F39138A0BDAA81F3D20E437191C00E022205DAD2047221EEA0D511AE715,
1E2C27221BC9143121C63D1D271C1D3C51110E3D1D14DF6B261E1B151FD61D273B5B6A611E2A65AEA41EA916D83A161B03EE1F1F7F40203B4C2100536D1FAE0D,
447F2D231DABE2412324211F3422201835422836211733131E1F240F1F97220FEF28E1221A801DF5031E1D19D4F922220EF92023710F22460734743442192CB2,
1945FD1E20A9653B1C91E81B3A191D1BB4F0D2F824537FE819221D1520A32DFEB5F30CF01980FC00D71A0022FB62231C88FC211E703621532521F5EF031C547F,
323F5E1D22E5EB5A1319351736192115E509B3371E1AB3031C211FE51EF27F3FAD4280EF20E359E0881E0A1BAA65171AFD2A1B247F801C24423BFF33241CCD27,
260D801D209E2A1E22BB092123201A2F3B2B0939242B153F1823226B1D24FFFA106043E91C6BA5EDC6201B17295B161BF509202458701CFF13029E37FD1E4900,
1431DD1B20E51A471AF963241C1C1A27B5FB49151AFE12FE1D201E431FBD0123F43DC8EC1F4BE9CD841C5B1E0C112420CE1524244B3819471C037F042E223DB6,
3FDDBE231E921C2F19BD501B18221F0F3FDD1E4A1FEBB62A202320FC207FA240F51E0A05178F5AF5D91E3C1C2516221EFBF61D1F41961A7E0C27A7F12F1E2F05,
2543981B1B9836701AC804174C1E211D80D81F251A42275D221E1D1B232EE1EDF24E80141B8006CD991CFD1F58F41A1BE9FB1D1E25D11E0B364D42F4491D043F,
1DD47F1919BB123E1CA6101A1F21211C7F10D51515253DBA251E21111F5CD385391696601D8EDAB6C31FED2062F1132001F622226C0F1B5D062749AE0E1FC540,
1C21D21E1BA4102915A80F1741191C1731FFD21D1B367F21242023531DCD0100EA1061471ADB9DE80A1C1E165EBE1B1ED22D1C2445DD1A181846522E0F1CC8D7,
3D7FFB1F1EA3F84E1787CD1CFD1B1F3F032B050319174CE51B231A271DDB233303402C2134CCD2F9CE1C0E1929201120F8961D1D51801A733AE55002531B1E12,
276BA3211B87D83319C1451C1F1B1B20F40CA22D20210F8A1C1F190B1B7F7F4A214EE1D41723D9D48821EA203C1F111EA401211E5AF41D2E4D0A64F91B212A1D,
601CF6231FBC0E49240AF6161A1C2334115E80222725ADBB20221D301C471D35F434D7BB0FA4CCF0931A03197F80111F18FE1E234951215042C74F03341935F0,
7F28ED191F00033D17E22E16521C21196E2051FF2461C503271D1E041D1DF3654131B05E21A18013CC1C7A1B5D801D1A88F51E1E7F221C3F5033D9063E1A3E99,
0246191D1F457FE3267F0417061C20196E21E00E152F361A22211F0E1E6D35578DF802051BF3A9406126401E7F4F27241E401C1CFB0E20313ADAA57F181E132C,
20334F2021701CF51C7F18171D1B1C33FA44661F151D0A1A191B20451EF68DF9D805FF652618E3223B22F81E612B202227221F1C43E51C2F2300CE73401BF32A,
1F54871D1B177F13207F1E250C1E2115551614491628FDEC222121101B1C7FE5800F34E4194AD32A201C3A1B7F41151E29591F1A0EB61A1A15E60F7F2220300D,
FA1F2020217E7F0A217F2F2449202014B322E72E19F84CD8221E1E2B1B0044168039FB4222D3F2182D1CF81C5CFA191F2969221D18491D0C2B5680592C20073E,
B1585B1B20077F0E197FF91ACB231C27134505171D38172D232123341EC5261880EB2EF12337B8377721631D7F40171B175D1E1EF87C216F09D1AB5120223920,
FC22411D1DED5B03197F3E1629221F05802AD53318E0F22520221CF5192A4C7F8016D92A226B0845441ACA233F34121EFE7F211FF0CD20223C07B77F0F1F2D50,
FA2B431D241720FE247F37180F201D36F93D511E1B00068029201DAD1A7F1D6680B8E1DF28242B2DE31AF31C7F461C1F1E2F1F21F31522455BF4800CEE1E1D0B,
E73B1E23202C5FD21E71061B222123FCBC07D20C200A41E5231D1E1122807F1880039D351FF8C0277F20041F580E1B1DF4481D1DE2321F251767C50E0E2226FA,
1D3E211D1D4552E11E7F1A1A0D1F22160B204B3A1F00FE3327211E1D22428043802D4E2B1EF48F42452023206D31211E5E171E2004421F2E0B01BB4F0023DC42,
0278462021357FE61B7F1B281F2020011CFF2333190B1853222024211D3B4F34801BC8051DF50337481A301D2AEE171E334C1D1C081820202924B33E38241420,
D94E191E1D2A4EC4257F552724241B468033C1301C5C14341E1F1E3F1E7F0951DFCE3C2728CFD02B7F1EFA1B2A30211C183F1E220D321E0758B7E90419223E02,
EE5951211D5B541420751825261A221F38F3334A1942582D24211FF82180FCFAC1D8F03726DFEB315E1E4E1B51181C1C1364221E2AFB1BFE27F2807F3D1F2922,
287DD61C204367D4207F3F17451D212D802BE44015EC2021241D1E0D2380E2148068F277107FBA4E7F1B0023400A1D1C6B2C201D131D1D3B3900D2453D22FA2B,
D47EF722234256DF1A7F08280A1E200917E61CDA171033DE22221C001E01A13A80CCFC2A1CEE09184B2123202F191921D64D221F06211B143077D77D2C1C1404,
B94BEA211DDD1AEB287F311B2E20202B801A75171C192646202224131FB9AAF78022E63F2003045F6C1D031F5328161C2B301C1DD9E821454C38F0063B22E619,
147F0B1B1F5E41DF217F281724242320802874171C047EFF1D1D1DDF222D7F408022F37F19EDCE555F1E371FFE32161E4C2121212A2720305F109A3D191C673A,
CD7FF3231D173C07277F311B61211C252B1067F31E13294B1C21211F1FF17FE180FF41391D47746B7F1E0E1E1F3A2D2219201F1BE4531C152501A966331EF7F1,
1765211E19F11DE6217F101D081B1F3E862F301F1DE3EDA018231D1122BCF5D7804F962E1CF51C596F261B1C1B7F221A1C211F1D15541D403FFB4835081B5B16,
D161021B1C2727F31F7F1D1C6E1E1D19D10D79151824583C231D220C24727F0E80E0106124DDE24D5024FD1B0D2D1B1B0545201B02641B323F5D987F1C205728,
B276041E21637FEC2676152146201F1C802F09461921FE5B241C21E624966A289E33B335162AFD564C21F216F8631620224D1D1E14D81B4331E0F27F4F1DF168,
FA47561F1C267FF01D61161A581F23F9802ACF0C1B1E4D1D261C1C1923B4DB6280D7691B17F2C61A4F1F0E1C207F1720F36D1C1BFC7822531E58C86B101F573E,
98709D21207D77E91F7F261B0D1C221D80F606201E034EB923211FFB21EF08C1801F802E2021FD317B1CE022A77F211EFB46232127181B0F302F80512C1FF709,
ABED2A20213D4A1119287F222D202202E76854281A7F802E181A1D221E75452F1A4400571B03717FF61FE71B1212192115ED221FE9F81D1B35492EF8A31A1824,
EC15F51E1A1D4E391A605920131F1F20103B0B081949BC0B181E200820624C250F29292816E020520D207F160E27181C14231B1B01361C28491D2EE1EE20ECE0,
E6113E18193E18301432561B111C1F2A00C3092016243A0A191C20211D505B403D433A0D1A2DF94918212F1A2B2519223EFC201FF83B1B110E1B4315FF200D40,
F72511181E35403B1A4C341B341E1D1E32090F321656D6271A191C22204051E6343D242A181634152120EA19023F171D2625211C0D04192F182F6D14DB1B0356,
09362A1C1E26ED2221210B160C1F1E20FF41213A1E1A2D10171A200E213247030E3B20211C16212BF01BEF16051F1C1C271C1E1F32421B021E2B561C2E201806,
0A0FF71C1A2C2E2F23333B17331B1D0C0A2F2E081C14072E1F1C1D221B113F2CFB1041191DF311291A2172170F1C171D40171C1B1604213D1E43711D1E1D2DEA,
11210C1B21340C1F232F16262D1E2016470F54411A0FFB2D1E171E3E1D0C2B2F2E1BFF0220D01C28021B2719F21B1C1F0F2920190AF81A2526236A39EF1F2952,
F941231B1B0F19281A202C15211B2022A0FB0F2F1C0A42201F1D20151B071D0C1E152F291B1337342E1D09170940161E2C0B211E1B131A0F09314E1419211F49,
1A191D1E1F2644101C04301B25191E240F4238351B0D07191C171F1F23E720193D25F3181D3D1C26141FCF19183B151F3E261E1D1330192113255645041A5524,
FC044C1F1B1B30291B0C3D190F1B21FF1C4D252A1C54F2181D1D1A2E1CDA2A402A59151A1CE52534171E2419232C191E37351F1C0E441C182734391DF01F0AED,
07FD131F1B3913191C135A1D281C1D18F54C1A181D5CDA3D1A181D361BE119183E1F18371727F075071F791803301A1E3FFB1F1B16C9191A273A4142FA193545,
EBFA3F1F1E38202A16EA5C19221B1D2F14162A401950DD28161A1F131EDFFE1A374C06421EF459560C21E513163E1C1F391F1E1902F41D241F293D21F41C2D39,
F5FA281D212B30251FFA5F15211B1B1D1715302A1D54FA2817191F1B1DDE02122352FA3B1F1E442DFD2206143443171D1129211A0908181B362F3516F51E0809,
0C1B26191A0A0D2E1722231A201A1B283F2138221D30FA351D191B121FDBF30916163E311A50103A1F225F1C1B3A121CF7D41F1D204C19021910100FEA1D2FF3,
170BFD20192F18281C26171B1F191D1461D4422B1C1C081F1A1B20261DE5F72126F832F518091E221B1F451B2434161D2F3121210D1B1E2C102D0A112B1C1B24,
FA06111B1C311F31162F3016251F211731072305171DD11F1B1D1C1F1E02FB1C4E1B362D16270937271CE117363E111A2A26211C0D1F1F41391EE72122190B61,
121A27191E220E19180A4B171E1C1E28EA3212121C262626181C1F371F2C0D43321A3D4418B34F262A1EEE185534181F0930211D031B1A2E2801DA140521F50D,
FA2A111A1824232B1A202118161D1D36F85E14061F2928281B1D191B1E4416FE082B042315D5ED2C251F4A194141181E1B141A1A175417182C1BCE19211D0CD0,
F6F5FB2019072F1C17EF2E1C251D1C1911F429271822E0191B1B1F251B4112014245221418D4EB48311B731A5325151F57EB1B1F19211A162327C820F8205173,
F3F814211E2D23221D0550192B161F1A4BCD500E1D481B26181A1D3F20482C284F0E43121C0510690C20EA1931C8131F37241B1DF9081D1A1D47E10C081F307F,
E40E281B2146322618254A16141721FB524407FA1A2EF82D1F1C18101C6B410E2C3E053E1DD74E5D0B1BA81A28C71422131E1D1B29E8162E3855D938E11B2D1E,
C5FF501C1E29654B18E97F1B2D171EFC6A750A5D1C7F80161B181F131B7F513D6166134C1DF75F65EB207F163BD6121B2F0D1D1FF811151629620A5CB81B5B9B,
1C1F381A1EE95C47143E051E261A1D3903802A481802140B161E1B421D0424211804F17F26327F0931207F1D1618252226FE201D0D1123EC360E432E491DD27F,
2130321C1BFB3D171954491A111A1D2E34721A1419FC432417211E27211F1727432EF76424E821FB3B2080190C0D121B2B1520192F561F0226393637FA1D287F,
2D263E1A201A30231D130D1D28211D32937F462D1A000E1D1B231B391D0DEB563EEA8E751D157FFF011C061E2632141D12FB1E1D1E0F1EF22812271A231CFC14,
1B131A1A1E161C18202812190923202A275DFE7E22F153081B1F21E920E8DB614C47DF431CE84B28131D7F21FB1E201D5C06211C0E6222F20ECF6938F81F4DC8,
2A4575201E2A1C23222EFE1D1C1E1F2516A54F311C233A521E221C011F1B1E3F22FDC9111B574C2D0E1E431C052E1D1EF119201F2C061F170D51D7FE1020516F,
34232A1A2212F5121924311D101A2023803F0D3B1D22110419231C2222370D4B2615E17C11102D2F251DD5202E1719225426221C19451F152DF52E1C461F335D,
11321D1D2300233C1541F918391B1F302D38D5241FF85B49281C1C1222EE270F1C33E44A19067F14231C0C1CFE31201BF4051F201D272120212512282B1C3BF0,
1607341A1C031F391B17261B19231B2C3164FB2C1B2F3517211F1C3D223E28E33C46DD2C1E162B15121C471B4E3D1E1B12341F1E192A240F233F3B40361F37E4,
1F0F12211D002F311C31242118271E277F9D7D2C1B2119091E1E1FEC1E152C591E04D07B1C3D700B181F7D1E2733181C04DB1F1E13EA1A061A384342021CFD4B,
3C2C2E19212F50351E11191C30211C10D148C637242B30341C1B232721007C4A37F59E45193A431E141FF11F25241B1B494B231D344222013C110B16341F437F,
1A030D1C231D412E0E2C221C171F22274F7841491E1E1F311C1F1EF21C2D6459290CEA6F22CD5D11231D121D1C43202221FC221F22FE1DEF2B1841434023F023,
27414D231D2616241EFE391930271F106F3BD51E2352D708191D1D251E3F361F40C8B76D217F61181C215C1E222E151D35281E202E4C23ED2742F4110B1D0BD1,
310FFA1D1E0E362B163B302219251D04EFCBDF201DE9351415201D231F5C22461765E71F18DF59100C1C791C1F1C1C2233261B1B16341E1B2824F619371B056A,
28334F1B2106E818122D1126EF241D2AF244053D1F1FF7FB1C231CFC1A48691528E4955610562B15221DCF1E30291B1A05091B1C18341C001F120F1D031B1971,
2E2B1A191E2C352214152B164A211C2CF754223F17124A1016241E3E1D1752F84652E55D15115C22131F361F311F191B1024201F1CB71F1A1029242FEE1C1C44,
3329F41A1F060230172C211D2121202A542F0C1B1DDE491C1D1D1B1322143DCF0C12EA2C12143F3012263B1844151922F82D1B1B1D3F2005490409073B1B13F2,
1537331C1923611E1E25F2193E1A1F1D05C7262D1C273A42181C1E2F1F421F1D520EDE580F4F6A20352239161F40182120071B1E26061D04FB54CE1C0C194B5D,
3527061A1B032D2C1A40161B3A261D1F37252822193530331A1E1E222305CD0F531E1536102D501E171FEF1D4A1D121A1E0E1E202A0F220D37FE24011A1E0F4D,
131A0C1C1D1913110B160A16311B2015E47F35291A190A1C18241902203A304AF5FADE5A16237FF1061C071C2918161D20081A2125632018330F262641214BE7,
0928281C1F082E481D2CF71D0819202B345144171F295542171F1F252023E136332E0D57263E691417197F1D3805181E11FE1B1A18FC1E0F1D2250351D2015BE,
1C25211D1917403417102A17221C1E2E0A80E83F1F45001C1E1D1D1E1AF5D53E240FF0431B0F631B041B7F1C25EC161C1E221F180B171DEB3DF73C4C2E1E1F7F,
0C2AF1191EF4192F170BFE1DED201C347D7F056421F83B0E1E1F2018221C1B1C2A21FD740E0F5D0C211D8819301C121A36F61F2021351BD0302D2B383F1F447F,
2E1EB91D1B3515271A352F1F1C1B1DE82F2B41FF1EFA0C2E261E22171E4980E0182A7F491172262C1C192C2117171E1F2ABD1E1D2B0322FC413DE6290C1D0315,
2227441A20201A1415081B1A581E2316DD2B3026202B0B3D241D1B271C54804A0A035424121E1118291C171F122722202F191F2422381D551A102C2A39212331,
111A351E20213131183D3418131C1D0EC8082A311C2A3716262320261E1CCA47322B064416211E15301E292021171F1FEBE91F211CE61D0C1715241BFF1A3021,
482EFB1D1D2638292024191E39191C08251E051E1DFE3513201C21241DF4A4E6213F5F3C1D17172E2A20271E1D301C2231F81D1F1BE01A062D2AFF0B3A1EE713,
212A291A1E26FA0F16FF121835172213402C23231C16F836181B232121DE80102C101B331E432C231D1C271B1B2E201F4DF5232131101E3141441B293A1E2A12,
08204F1B201C0724152B351D0D1C1D1403033F23221B405325201E151E43804628051E12230328111C1E311D1B18241EEA021D211AD5212A18F8022B0B1A3A37,
1E3A5B1F1F411A2812171A1E59221CFD0F2D133124241A2A241E201D1C64801703095A3427534129151F05220F241A223F1B201F29D11C2339500433221C2819,
33FE27201B0DF40E1B2E1F1B0F201B1B382C041A1DF10C3D1A221F381CA380F140423D201E2DDF293A221F21242D1D212BE023212B9623240D3A18FD12232134,
0D0F0D221F2122391921281A301C2010390F24071F2F293F18211E241EF8800C38F8284F1B223E15211F2B1E272B26212DF81E201A311C14324D71552E1D3004,
3442571F211DFE2D1817251B1E242118D03937291C203C19182120271E3880270F1A25071D1A2C322B1A251B1C2B251A0A031E1B260F1F202EF8D32D32203229,
2F11151E1F2428001722191C2D231F107F200126210E162D1C1D1E3E1C158000282C224816451E25331B041B1B1D2321360E1E1E22B91C0D1E3A1204021C0C1A,
170633191E19314018232F1A2A231D0BE923331A1C0E2D311B1D202521368027202E10301C1A1F17202330212533161E27001D1B1ED61E2930142926331B223D,
0E31291E1932EA152A0F201A18251D21680D2A341B1217481B1E1D12211B80EA3421523D1B51092C2120321B3113161E32011D1D2D2B1E21241A09371C1E4E1C,
3F0E3819201F121E282E1B1C20181E0B1F1B06231AFFFC3D221F1F2A24AB80F6231A4E221D1516172F222E1F2434172003E01C2127B720141B31071D161FF72A,
21393D211A192B222E202A21381E1E0D553013FF21FA4C45161B223524E180263D0A2C151D2D2439311D1C1A1520191B510E1E20189D1B21385F022402213B16,
2D0C291C1E2DDE321F1F24281522200E231CF1252234182020201C19204D801C1B26332E1B330B212B1A101F3C23132119F3211824CA18162A0EFF224A1D232E,
1828501E23353C1D22282A2838221F1C3D3319181F1C2F38201F1F3B210DB80831F10F2916F528161A20211F1D30201F0E051C1F2DC1190A1D34360A14212516,
1E0D09191C16241320111818271E1D0A1D08155A22041A1E21221CF41CDE9FFD32432C2F12393230252043181D0C1C2035FA211A22EA1A391A1A0140131A2C21,
2E2F461C1E1D012A1F31251B341D1C0D3A26E5F51D1B2722281D1F4E1D5E802C232C282F1E52F929391F07171F211F1B1E04201C2237201D312E3D2719213330,
123C36241C1F020D1B04151EF91A20164E31DE141E22102B25221F2E1E1680F728E61C1A220E1A18171B311E2F2616221BBC232021A41E2622313C15061A201C,
291E3321213223291422401E35231C1B450C31FF1A373B35201D1C0A1C41C1E023424E4618F12B1F0A1D261E23271A1F233D1B1B12141F1B4B08F31D4B1C3A09,
1D217F201E26112B24270D1C29221D0D6142F6691FF10B5221241D281B618033343DCEFC167F17322A203020250A1F1D43D01D20359E181E2D1C1331121F6A40,
2C27CE1B1D1E1F341A3F3B2541201C153C24312A1EFE2C801A211B432080C31B11142E321A400114181C2A1F192A282091E51D1C15E91A5B250F200D1221F623,
242A141C1C3E2A2E144E1B281C1D1F0B7F1AD32B1F103580241E1D241D80E3F6313E233F12122A1B1922171D200F211FF6161E1D2AB11D3726451AFF291F0312,
35460E1C1C362C2D183615161F1B2020251F023B240F0C8027211E311CA7EA3A094005391B38FE2D1A1B2716042C151E99F71B2114101B442003ED0D2E1EDD1F,
3124431A1D15FE1C152B3421281C21243A22242025504580231A1C2D1D80D71124DE17381C242D18231C11170E13161CCE0B1D1D22F41B2F2A19011D0A20FDF1,
302AC81F1D1B202A1D2E361A26201C0E1F02223D1CE32F801C1920282280B9301B3C203623221119131F4522F92E1A1BFDF81F1E11121F4C182BF8272820FD1A,
201D391C1D0F1723193C1E1C2427212C54192C341C0F5480271D193222B66A251E3DF0371BF0081E1E21011B1A282721BAF4212013C51C43231C13FA10232E2B,
2B2CD61B1D37202A102322182D221A13B522F1531A1F268024221F151BC508FB233335211415011D051B1B1F0B20251ED2F71C1C1E431D3C1B311D2A3A1FF316,
3425011C20120A3B1419222335182114CE193D1922F64B80241D1D171DBDF14A07370E401B220E23221F281A142F191DED121E2019EC234E3924E632231F300A,
261E3B1E1A26011A132D202505231F115D13DF3421080B801D1F22311BC09E2338300A262025240D1B1E19190B2D141EFEF3221D16D6193F092D332B101EF713,
3414D9211D1816301D0F371D1D1E1A23EC20212D19052D801B19211A1B770517132F10491834EE1F0E22111C20381A1CC504221B24FC20262F2B0C260B1A0A12,
1E1DFE1A2018040E101102211C241E1C2D13081B1F1A2380192322481B08B4EF0944E1151B1A0416151F091A1E181F1E04F8201F15EE1C4917120E272B1E0B21,
2910C5201C0A1F3B1424431C12211D18E42A1705240C0E80221F1E241F80F4302C2333401C68211B1D1E1B1B0849191ECA071B2014FA193836070A220F21E511,
2830041B1F170516160D1B162C251E151A07011F23115E80211D1C331FEA10162602CD1A10F215181A1A381D222D191BDD021C1E1A30183E2B29082B1C20060C,
2122FE1C1F16EE301E221E2A2E1D1E25682745371D290480191B20441C5C150F0F294C271036F51B1B1F0F2220471D1BDB0F1C1E15941A4B203AEC0620210A16,
371C421B200F00291B0B242A201A1B25B51B1F501D303B80181C1C281F8B74F7391ADAEE131F2124181F131B3635211CE601201F1106201B181F2E312020151E,
1215181A1C0F0F2F1228211A28182010221E0E181A15158019201E301BB530143713ED3E1B12F809171C1E1A3234201CCE0F1D1C14C41D532A2D161A3120E90A,
431C0A201E2C0615141119172C1C1C2420F3F74C1F112F801B1E1C2B1FFB7F1C3354400D22251D220B1E1A1E2E1B1D1BD7F221221CF31F1E1B2B6721061C2727,
2A29E422220D24352F1D2E1B13191D0F0E2C0F21204227801A1C1A401CA44F340FF6B2280C30101B1E22FD1F490B201CFE1C1D2215171B4E193E271D2F20E929,
35354F2222160A1D2C08282307191E141815D4171C072880261F1B331D80C514363C3E2818331B24202011163A2E291EDEDC20221BBF1C37182A7924061C1525,
2421101E1F1B1332242C3C28221B202B1F2BFC2B1E3728801D1C1C421C81F3212404F0161E2E220F0C1C1919480A1B1ECAF9222114342047221CFB0125223A09,
2B1F1A1F1D2B0B2313103A160C1B21174908E0401F0B2380201E1A1E22802AEE3729D34A18380A332D1A12212C12171E07EE1E2318CF1C1A1A3156240B22FB0A,
2830211D1C0F112D1714212020232311E208E641161736A41A1B21421E808010412538221F240210241D1E1F34E7201F80F51C1F260D1B5B1C1B3D362822132B,
2324231E1F231E1D221C22232021211B1F221D2023211E202220231E22212120211C242122231D1C201F21241E23211D1E1F1C221C21241F211E201D1C1D2020,
1F1E1D1F202220201B1D211B201E231D1E231E23241E2020211C1F2322231F1F231E211F1C20221E232020231C1D23211D1F1F1E21231D22221C2121211F1F1D,
1E1C1F221E1D1D231E22201F1E211F2120221C1F23201D231C2222221E2320211E1D201D1C21232123242223231F21241B211C1F1D211D242121211D221E1C1E,
201D1E1F22211D2221231D1C2320221C24222321241E1F1D2121231D1F231F23211C1E1E1E1C1F241F231F1D2221202323231D211F1C1E1D1C211E1F1D1C1D1D,
1E23211C232021202321202021211E201E1C1E1F20242022201F1E211D201D231E201D1E232223221F2020221E1D211D1E2320201E211C1F1D2420211C202221,
1F1C1D21212323201C221F23211D1E1E1D1C1D21231E1D23201E231E1D1B1F1E1C221E221C1D201E21211F1C1D231E1F1D1B221E201E24231F231F21231D201E,
1D202223231E2020221B211F2220201E201E1D1D2324201F1D1D201F1E1D1F1E231F1D1F201C231D211D1D201D1E241F1F1E23221E1D22201B1D221F22202323,
1F1F1F221E211D20212021222322211E1F1F1C1E231C2024212023241E1D1F1B2223231D201F1C231F201F1F23211F1F1C1F1C201C201E231E1F1C21201D231C,
1C1E2321201D20221E1C1F1C1E1E1C1E1C1C21212021231C1E211E1B231D1D23212221201F2021231C201F1F221F2121221B2120211F1C1E211E1D242220201F,
1F222023241F1D1B20231D1B1E20221C201F221D23221F2023231F211D1C1E1C20201C1E202121211E1D1C1C23221E1E1E1C211C211C1F23221E241C24202224,
221C211C1E1D1B201F1C211F21231D1F1C231E1C1D1D1D1E1C1C1F1D1E1F221D241D202222221E1F211D1E1C1D1C2023231E221C22221E21211F231C23211C1F,
1E1E1E1E22211D221F1C1E201D1D1F231E1E22201D221D231D221F2321231C1B1B1C1D231C1D1C1C22232220221E1E1C1B231D231C1D1C22221E231C1E1F211F,
1F23231C2020211E1C211C1C1E201C1D1C1F231F1E1B201F201D1E1D221C2123211C201F1C211D22241D231F1C1C1E1E211E1D231C1C23231C1F20211C23221C,
1E1E1D201D2021222323211E241C1E221F21221E23211F24221E1E21211C1E1B21231F1D201E1D1E221F201F221F1C1C231C212323211D23221D211E1D211D21,
232421202220201F231F221C1D1D22211D1C1F1D231C1F22201D231E1F1F1C1E1E1C211C1E22211D23221F1F1D21202120212120211E1C2420231D1F23221E22,
212221231E2022201D1E1F2024221E212323241F1C202023201F1D1E2123232123231C231C1F1F211C1E1D241D1E211C2023221E1E21221F1E1E1E211F221F20,
231D1C1F201F232321231B201C1F202122211C1E231D221E1D23231E1E1C1C20231C1F1F211D1D1F231F231B1D1C1E221F1E1C1D1F202121221E1C1B22211E1E,
1D1F1C1E1F1D1D1D2223231E1C1E232221211B23231F1D1E211E231F1E1C231F201F1F211F1D222121221E1D211F221D2323201F2321231C21241B222123221C,
1F23201E2322201E21211C2022231B1D1C1E231D1F1D2322221F211F1E1C20231F201D1D231C1F1E1B20212221211D1D1E21201E232121221D1E231C1F1E1C23,
201C1D241E1E24231C1E1E1D1C221F1E1E201C221F23241F1F1D23231D1C1F23211F231F1C2320241D1C1F1D1E1C1E1C221D23231E1F20231F1F1D1D1D1F211D,
23241F201E221E1F1F231C23231C1D1F201F211E1C20231D221D1D242023211C1F1C1E1D22201F1C231E1D221D22201C23211E1C221F2123241C222320221D1D,
24211D1C24241F1C1F1F1F1F2020231E211D1F21201E1D1D221C232021221E1F222220201D1E211D21201C211C23211F1E1D21231C1F221D1E21241F1C1C221C,
2F6E3E1C227F6223177FCD1C182120282315F749180E3C32191B1D241D291718F64CF2261C14C93F381D2A18F020151FC0E01E1C41C31D7247E83EA3591EF012,
0E3F21211D615F3C165EEF1C26281D031840F62A1C29373D162019EE1E313116381D00331AD510434418F619F51C1A1EFE47242152032040292D320325212634,
2E2E221C1A5600201755D3171E201C2C2A2800FC1E3F39471B1F211B2038324A31FB27F81816F72F57182920EB24181E53FE231A53341F302B25193B4622F710,
151B0A1D1A4233251843391A0F23210D21F833FF1EF6172F1F221CFD1F2B21FD31EA1208173C4047551E461EFA45161DF605221D40001FE6191337DA121C1403,
101E2B211E321740182E2E1621231B27861525371F101D2A191D19201C2B140527361804150857453520FA170023182005211C2146481D451A2D393930221A2C,
13350B1C1E3F14231728161A2D1A1B1C673A08391D1E25371E1E1DF01D1B15760D1F39FD19FBF63E531A181D0C2E1C1C35FA1C1C36261C1427E527331820282A,
22123A1E1B3A2B21171B2E190B191F02C74609FA1DFCC7331D211A0F201430234121041A183B3B1F491912200E2F1D1F0F2C1D1B426720363D142134301E2322,
3E2E361F215015370D0215172F261C29801205231F11063A1B22180A21003528351F33421622223D451F44171E461A1A41071E1D400E21330D233A45531D390A,
3A25111E1A3B271116080919F5221E050728F42D2420DA281D1C1EF522001D01301E28F11736F2293E192E1836401D1C0E3D1E1B42271D3C214D2B3F1023273C,
0F29091B20453D231313F61738201B282F050B3B210BF5401B1E18201C0117432A591E1D1A44092E391C161C0D4B151F2212231B473B1D331C2C14452D1C0606,
2D0D041F1C4741201114FC1A0C242313C8F41F1D2210012A1F221921222230083D3236131B4C2B3E471E03181C3A1821141023204D3E1B36154344073D21F233,
261FF31E1E49FA1815181816F2182204C2314925240C2D2917201F1D211A153133264304170DFE3F481F251927421B1AED15231F3C3F1B0A18452C053A1CEFEF,
291E051D203504251505EB171F1D1F35CF26451823063F1E191E1B3521170D274E331B1A15311A38371D221722401F22FFF91D203F1A1C2B0F1F1FF2231B2EEE,
4125241D214704431AFF291D48211D144C331622220D414116211A1E201D25F52C120D21140C132F3D21071823481D202CFE1F252913192D3D1B184F2B1C161B,
240B0C1D1D4A312414173D1DFB211D1E1329FA27210B2B51171E1FFC1A2E26422E16F42010004435331E0D162654151CDC081D232B3619ED14D410131A1D37FC,
1A27311F1A5909161806F71D301B1F2261093E2420FBE43A1E1E1CDA1D29253B2B280B3611F0102C371E1E1C133A1A1F2EFB22231B231A3A25401F3B1A213128,
201D231C1F3D181C13FCFA18FA1D1FFC2823F1132316F335181C21FF1F4C13050614322F1A200F433B221E19652E151B342E202147191D3119462A323D1E1638,
1A1D17201C44071716360B160F18210A121B21E11C043C28182023191C5D17380B1D2E0B104B293B5A1F181965511521292D1E1C58141C1B311B10260F1B0D2F,
163B291F1D520B1F16140A17021C1C0B2CFD02F61E0AE9321A1C1BFA204A17254C4F1DF21348FC525A20391A6F0C19212750211A4856161F32373002281B1D28,
301F0520215FF6411608FD17411B1B18490E064B242707351D1E1A13212C1D194B2E01F61F4EE44A3120131E7FB91B1AE2FD1F1D4E10144739434444431F3013,
4B25D6201D4F1C291BF5F41C001A20112DFECB2A23221E0A1921171F1C201BE07F254706213BE6302B1AF4195D94131FF4051C195A2B1759253C1F71371FF435,
3F36C61F195B0D2D14FDB21BEF161BEFE51FDA2523F40A281E201C1C201618187B6438401A1A07364A1BFF182C80131ED2D4211D7A2517772F47357D4F1D1DC8,
EE7D011B215B61E31B7F091B101B1C19805845181F21384624201B2B22C67F4F7F50450E187FFE17002244197F6713212E681C2162F21D34FF19B37FEB253E03,
F61F3423231BD60A2107F91B21271D13EAD5D7F1263EF849261D1D2D212B242F112DF5531BD7CD293A1B1C1B666A172031141D1F144D21FC0D534132051ECD14,
132B351C1B034D171E7D6F1B4D2623567F6476722B03382D18221D101F2A7FBDF31A01F61743F304EE1A501F5A451B200A26211BF30B211C4A030C7F4E1B1F0A,
1559E91B221D4914194ADB183F252007220670F0252B33F02422203B1EDB7F21E40452221CB1E12F2A1A2D247F56191E04341D1B35CC1F2DD82FD82D151B3E4F,
083F02211E016C051931172611271F1A8F141359263426E2201D1CF01C4D7FE5110F401A234C6E1C101FFB206B5823210636202422D61B150DF419632522F7F7,
395EFA1A1F54061D147F1F22422023F439D51B1E24141EF21E221C201C807F785F5A86372149FD3020217D205C34251F501D1E1E20E61DF5221D8032001F014A,
D662E31A20015CF917393328EA1D1D321F1C42D129001C2F1F21184523F0481909FF23FD1C081C19FA1BE41D735E2A1BBA291D1DF81B1B263AF0EE432D23561B,
1672D8201D183E31187F39217E1C1A1098063D22264C3B7F1C1F192120EF7FF816224E3815405F352F1E302174132022E0321C210B4B20FE1840CF22261C292B,
570B6F201C4A41ED1234F716111B1F24550EA81725333D981F2021421FF17FEBFC302F2F15B6DC201D1E1E224C69211C7F31201F112D1FFD1C4CFC46091BD4F6,
EE7F01212143FB20157F121DFA211F2C7F3E5F091BFB3F7F251E1E2E1D807FFD2C364D2D1D3726240A2435165E2C211FF5191C223C3A204DFB1F3962051C5503,
B932261D1C3762001B3A4518422123245E174F4C1A292E411A201C2220BD727120F3B71E1FE3431B29221F15664D171CA7532322F6BF1AE743B6DF4254202729,
1B5933201D0D272F207F2C1C371E1B24503721131C422A151A1E1E3F20D05C32E55444481C71E6271D1CE61634401D216C1D1F211BF41E3C0DF68025FF1BB828,
F566141D1EFC3E0A1E571E1E14231D1732FB280F1D2207DE161E220523806BF2E2E61217172C0C0A191C7F1A4D521D223D5A1E1D24221E272F77A030191D33FE,
E628DA1C1D36590D257A1E185A191D034F3C34F9161E09691B211D351FE67F4AD93C48361C110B2B0020C817384C201BDC231D2007262007F6023E40F61FF60D,
283CB71C1D03180E276F261CE81E1D2849162D1B1F242062171F1C1E22E37FED9338151817074E30291A2B1E3C652123FE331C1CF91A1F4F32F78027311A2227,
CF4854201F1D1B03227B161A621C1C352524381F1925FECA171C1E2520460D0080E4430B1C30130D2123361D2469202041FF1B1B26D31AFE0B37DC28FD1EB409,
1214E41A1D1A60F124613015131D1D07242F302B182B05C91B1E19231B9F0F2580FEA43A19D2E7361D22E51A274A201EFA541F1C140D162B0A00FE12261A5514,
DF4BD922220B300424610824191C1D19220754451619047F1F1F20ED23BC7F3AA11820332212E505191B52191F7F1C193DE61C1EF66D17461E34CE2A1A1B3128,
073218231F0E460022633E1B1A1C1B4C002E4638161F5B92211C1E471E683B0080482C03241557280819DD1B1E7D1C1A023F1E1F0DEF1CF91ED4D24D231D16ED,
C52C091D22251DEB225A4620301C1F0FDCFEF8401D06FE791C2120291D222E3B95F2DC0423971712281A301A237F201F0B1A211F0A121DF91405F72E0F24152D,
F22D31231DFF2311225507250E211C3B531048F41D3509841E1C1A1420F62FBE8A02B51B2471E124F91E131D171622160F2A221E220E1E16224BC7370D1D1A14,
F371CC1D1E3E4BB2237F3123D6211C0A8125337F1C21FEF722211C161DF2090680E1802F23F5F7333C20191D14461B1C1F411B20F82D1A2CFF158046021BF7F6,
6D7631191C2B292C1A747F16F71A1D24C75306271B807F371B1C1B201EE71AD8E606261B1A4D4FFB56206E1EF60F1D1E2E491C1D6616172D492C39C5801C3DA9,
42421B1E1C471C37145E581A04181F1814C33C3224350C2915231B371F0F0C3A2324E8011F10BD23211A1919081C21244526211E55171D3A331A1FBB081A256F,
3A22051D1F33321B164D471B281A2230F236E33723E24023201C202C1D161733352A3CFA1F191618381FF11B072B192019321D1B483A21050DE7E5F2D91BE858,
32213C1B1B442C19203A461CED191D33263D51F31CDF412718201A271A121E19111435FD1C285A1E3C1D1B171A2D1E1F28311E212C341D2B2929FC2391211119,
442F051D1F3E0F2B1D454F1C2F171E114322F5141B0A35292A1D1E311C2F1F150CEC3F1D1C330C242D1827190030221B18221D2032211A201E19F30CD6213901,
443F0D201A30254112372B1C191B1B2E241F1A3C21412A202B2121F62142192D0821FD2819112E2A3B1B0D16FF261F21121E1F224418191B303103122E215933,
2D16181E20184D2519FB09171F211B370B0740FC1D1B132A2C201A2A21561DFF3C3F32281A3037343C1D0C1BF3051A1F102920211E481D260005162E221FF950,
162AF619200B463716F829161F201C0129422DF11C272D1B181D1C22205B2A541D19331B101E1F1E25221720F3161C1D21301C1F352E1E1DF516117B131B1309,
303D421D1F131E2117F9211CF91D1F1E182F2D3319EB3D351D1D1C1B1C5E2126340D2D3C144B1F042E232B21EE351F20E835201B5A4918424E24FE46D51F23FD,
352E1F1E1D3204211709511D3C262224F9E7F5111DF82D2B1D1F1B0B1F53212831131707110D0A01201F681D14371B1E4729221D442D1618440A0E49D5214624,
3A25311F1B1D1F311A17551B0521222FD81615271E251B3C1E1B1B142040331B28400D06120D06120A1E1D1524431C1D1E141C1F3F291F192D081B24F71B1329,
4C2B381F1C1CFC0D171E4B1BF71F1A14FA3B313C17D04D152A1E21361E3831611D0B120616302604351BFD1B173D1F1B284E1B254C001C05275B1305D4231F26,
2A2B411B19352227121B331A05191B28CF31E4231DE1580A221C200B201B3202230C4C1612033F1B121F3F182B3E191E38091F1F44251C2A21081F00BC223EE2,
39363D1F1C2D132717015C1A2E1E1B26EADC23361DDC30221E1E1B2B1B212519E969FBE5131518142720181C43641E21312C1F2334111C1243EF2212E5221639,
3814EF1E1B2E05271B03171D27211F1EFB4B531C1F4D3025181B214921142C301810052A154B0D283521041E2C4E1D1F2A2C222325231A10083B2C0B3B1C3239,
170A3B1F201B1E251F02211C12261E53322D29F21D3FED2A1A231DFD20072AE32828161A163E18260821F9182B4822223D1320251A5320200AF43923F81D3E0F,
331BEF1B1F131F261A09351BF4231A194211E9231ADD3031161D1A381D0B243541345719180939173D1A311B4D18221B072020242B17182822164839FE1C1AF7,
2A170E2121351E1D22013618291B211E10092C2D19D32534171D1CFA22FE362C1827094215170A27241D29163216211CFA321A1C214D204030423D2826200442,
4E470E1D1E2A1F402311381D0A1D1B2C28F95F161EED322C15211BFD20E2220B281501082322FD17401B081645201E1D2E58201C50371E2043084E2EAD233054,
3F2B3D1C1A3231252100401B1D1722160C3312091B04500D181E1B4521FF172F2D52221F1A381019381EF51B53F41A1B272F1D2142321D261919501DCB1D0426,
3B2905191D17052324103D1C251D1C1C307F23001AF024091A1F1C251D1E18FE3014EFFE1DF019192F1B2C1A58D521200023201B57F921103D444B23022000C1,
67464A1B1E1C023025107F1FED162033F6E71D5715807F1E1B1E1B1A232A072438F91F3A1A3829F3381C7A204F922520362A1D1B7BF7233E3C015758801D3043,
00000000000000000000000000000000000000000000000000000000000000003A332E31333B483F39303046346A3B2E392D24292033363730303439173F212E,
0000000000000000000000000000000000000000000000000000000000000000582325195C32592E2A3B26522D2A34572C3A362F382723253930285011704122,
0000000000000000000000000000000000000000000000000000000000000000353330413833353335392E403A33413035372D3E3D362B2F352B383D37313532,
000000000000000000000000000000000000000000000000000000000000000025342A28422D3C3D33541403402A3AC8671D372D263228382E3330450930412B,
00000000000000000000000000000000000000000000000000000000000000005B2026283B33D535373925FF3334262634381833212D2C223C333438F4390332,
00000000000000000000000000000000000000000000000000000000000000007F20244A75534B7D327F337F33692F720D7F2A16298037341D22204F242C355E,
0000000000000000000000000000000000000000000000000000000000000000312A22333C3F3551413A35FF3445274239352E342F3025393E33284E80393D41,
0000000000000000000000000000000000000000000000000000000000000000122E2A2B464E2E43483A30002E4928352846393D22302620394232235D46434D,
000000000000000000000000000000000000000000000000000000000000000028232E333A3A303239352C38110C2B313C362637243316213F393640F7C33C2A,
000000000000000000000000000000000000000000000000000000000000000035383D3042342B3A36313539312B33352C2C2C3C3F2F373E2C2C303234324030,
0000000000000000000000000000000000000000000000000000000000000000D1342313093B257621382C0F3A2F2D7F26292F34282F333033FA2D3F0C583808,
000000000000000000000000000000000000000000000000000000000000000039272EC636373E25353C605F38302B2B3637265C313935283B182537383E4036,
000000000000000000000000000000000000000000000000000000000000000030373A282B35363B2F2C3934342C3732303C2E2A412E2B35372D303336403B2C,
00000000000000000000000000000000000000000000000000000000000000003C302B4131342F393232343532323F3A333E403639392E30353A34383234333D,
0000000000000000000000000000000000000000000000000000000000000000131D3539352746392C2928395A222C21313125242D3F29273435324964462B3C,
0000000000000000000000000000000000000000000000000000000000000000E01F29192FFE06372211401C323222112F412B4E2F162332D1382B1233262A5C,
0000000000000000000000000000000000000000000000000000000000000000353C3F3E3833383D2E333D293C36322B3E2D2B393F363C3743352C343F3D393A,
0000000000000000000000000000000000000000000000000000000000000000322E3532312C2D2F45312C3941302D323245342B3039372B3A333E3F32312F2E,
00000000000000000000000000000000000000000000000000000000000000002C253329341DAC413C3119392232273835392C2A294E3C2E2A362C36A528F440,
00000000000000000000000000000000000000000000000000000000000000004E222E283814D22E3A34243C27283A2A2E34383B2F3E2A332C3B2E35402DFD2F,
0000000000000000000000000000000000000000000000000000000000000000352D2A2E3A2C28393B382E3A353B2E4032312C3D41333C383F3530233934382F,
00000000000000000000000000000000000000000000000000000000000000003C24343132394E38392B319A376F322A332E362B333823373036353A1D401F2D,
0000000000000000000000000000000000000000000000000000000000000000402C373B322F2B343A352E3036393F3742313B3840332F35332F3B313E363439,
0000000000000000000000000000000000000000000000000000000000000000282D292F4734401D3A2BFF053B3D2FFB34431B3B30361B2C254E2B302F393950,
0000000000000000000000000000000000000000000000000000000000000000123D2152312B4528383D5AE53A12214A303A34EA303A312F26E0242E3E2C352E,
0000000000000000000000000000000000000000000000000000000000000000EE28293D273855FA321D3B093653382A2F382F333037242EFB2B384B4C4DF451,
0000000000000000000000000000000000000000000000000000000000000000403B2846403B3D1A47451F7D034D2D2E542C202E37283A391E1D315F4417433A,
00000000000000000000000000000000000000000000000000000000000000003C353A2A3A3738263644322F34392F3149392D3939332F38331E2A3B39352429,
000000000000000000000000000000000000000000000000000000000000000012333640393833062C094AEC4043384B03333131273B272B292E334901482AF6,
000000000000000000000000000000000000000000000000000000000000000065383134654305A0143E424B3F122D272F39262A2D331C26602F346A27624B08,
00000000000000000000000000000000000000000000000000000000000000003631252631263F5B35471C34433328113D2A2C43383730273040334D292D3E27,
00000000000000000000000000000000000000000000000000000000000000007F33224A30384B4935513E1227413E472642313F2626262C0234314518524651,
00000000000000000000000000000000000000000000000000000000000000008032399C272E2BCDEDEF902D3F1F281A3F2334914113232C49122F4B2033073B,
00000000000000000000000000000000000000000000000000000000000000005C3634120B841A45C8840D1951EA33CC41FC3CC03A7732264A40301A7F2180E1,
0000000000000000000000000000000000000000000000000000000000000000A7323180446947FC2B604A273D7F212D807F2F4833803E357F80362D39323268,
000000000000000000000000000000000000000000000000000000000000000032383A3440303C2D40303E333D3D3538332F333D3E3D312D3D313D40333F3D3E,
000000000000000000000000000000000000000000000000000000000000000030232D4D36442D12402048D33739263B453E29351A371A1D413327273C454430,
00000000000000000000000000000000000000000000000000000000000000002B312D3B4326392D343A31372B3836323436332939393D34322E33372C363E41,
00000000000000000000000000000000000000000000000000000000000000003231302C3D373936353E392F332F3C39393D323A2F2F31323B3540322F382D3D,
00000000000000000000000000000000000000000000000000000000000000003B2E36452D3A463C4147313D372D352C2C333D2A4034324038263D29362A3438,
0000000000000000000000000000000000000000000000000000000000000000802728234A80F6EA387FD6204F802D2F1A4E2A98344B3D233F8C370CFC000545,
00000000000000000000000000000000000000000000000000000000000000001534320E3D2F24F72D54321E3A222717601C2F2431353525381E2E38F22C432A,
0000000000000000000000000000000000000000000000000000000000000000381D242944343739345E3DF83B262825231922233532272F2533223D08274036,
000000000000000000000000000000000000000000000000000000000000000032352B3B41392C3D29283D3C39373A323035303D392B322B322E3F333C30422F,
00000000000000000000000000000000000000000000000000000000000000003C302936374040324236371B1F3F1A49293D223F2533301F383429275617331D,
00000000000000000000000000000000000000000000000000000000000000003A15222D45254E39354706F236372460354424501B2F292C3137273614423C41,
000000000000000000000000000000000000000000000000000000000000000041312D353438413B3A3B33E52C6A1B2F34312B2D1D35282B332F313C1B3A2A33,
0000000000000000000000000000000000000000000000000000000000000000462F32A4F71A276B224B4974B1802D60E24D2934271A3C27483125246480E522,
00000000000000000000000000000000000000000000000000000000000000002F2C2534272841293338230F4A2C2D3531331E392D322A293931274D443A2E4E,
0000000000000000000000000000000000000000000000000000000000000000312D3637303531352E3E31343432373B3F39303B313136353D2B3F2F2D333333,
00000000000000000000000000000000000000000000000000000000000000003039323234322C313F2A2E2C3A2F3D2B40352C373D37333332252D472D392A37,
0000000000000000000000000000000000000000000000000000000000000000EC2114062423802531FC37211EF929D8F11D32801A80281A213C203CE521272B,
00000000000000000000000000000000000000000000000000000000000000003C2D3B3B3A453B373A292F2A28343B2B2E353F2D3F33363D323B30293D32372B,
00000000000000000000000000000000000000000000000000000000000000003438243047342B2F3254182A3C232AFC661B2B1D2132192B30332541F1214135,
00000000000000000000000000000000000000000000000000000000000000002D27292B3C33B334303221E53A2F221F3B353629374A2B2940342E33012E0C32,
0000000000000000000000000000000000000000000000000000000000000000302D342C2F3F39402E213B322D2E2C3B2D4432383E3734322E3032413E333E34,
00000000000000000000000000000000000000000000000000000000000000002427304A1A454C2B2C0937171F2D28341F4C30362B372E243544321E252A5024,
0000000000000000000000000000000000000000000000000000000000000000421D313A363B24473D45370920391B432C3A2437253B223331292E3C3F442C43,
0000000000000000000000000000000000000000000000000000000000000000342F295D1A223D1C3C40F3E8360D2F1F35302BFC2C452C23425A302938453A29,
0000000000000000000000000000000000000000000000000000000000000000383D3234372B35392D2B312A3F27383533342B343A3E2D2F29372F383B2C3834,
000000000000000000000000000000000000000000000000000000000000000033303B383C42363F2735412D2F393E3338293235323B303F36382E2E3D2D3234,
0000000000000000000000000000000000000000000000000000000000000000C5252D1E55404C421C38331C2B1D2D552A2F2F0F2B392D33422B2A4F0E683912,
00000000000000000000000000000000000000000000000000000000000000003225343306ED45E139255DE519F824D02D2A3244343B3432184A3245381C1BF1,
00000000000000000000000000000000000000000000000000000000000000003C222C72353E44442D3B5B3E2A3A380944302B721F312E324B2C2B4B2D2F2F17,
0000000000000000000000000000000000000000000000000000000000000000000000000000000000000000000000000000000000004103FFF8FC3008FE40F8,
0000000000000000000000000000000000000000000000000000000000000000000000000000000000000000000000000000000000003B4A3E443E532F663756,
00000000000000000000000000000000000000000000000000000000000000000000000000000000000000000000000000000000000034303A3B23644925363A,
0000000000000000000000000000000000000000000000000000000000000000000000000000000000000000000000000000000000001125FC0D8D2419800520,
000000000000000000000000000000000000000000000000000000000000000000000000000000000000000000000000000000000000491C121E2A1617274E1B,
00000000000000000000000000000000000000000000000000000000000000000000000000000000000000000000000000000000000056542F2110213E531E2F,
00000000000000000000000000000000000000000000000000000000000000000000000000000000000000000000000000000000000021492529391A2D342221,
0000000000000000000000000000000000000000000000000000000000000000000000000000000000000000000000000000000000005250594F303C3E445244,
000000000000000000000000000000000000000000000000000000000000000000000000000000000000000000000000000000000000FC0BE30118F82B0D1919,
0000000000000000000000000000000000000000000000000000000000000000000000000000000000000000000000000000000000003B18352D2707302C1943,
000000000000000000000000000000000000000000000000000000000000000000000000000000000000000000000000000000000000343779757F4B6B544436,
00000000000000000000000000000000000000000000000000000000000000000000000000000000000000000000000000000000000022FF07F4DC0B1F21184B,
0000000000000000000000000000000000000000000000000000000000000000000000000000000000000000000000000000000000003F5633313E29303F3729,
0000000000000000000000000000000000000000000000000000000000000000000000000000000000000000000000000000000000001832F8FA12CD210CFB1F,
0000000000000000000000000000000000000000000000000000000000000000000000000000000000000000000000000000000000005A3A5759BF5A2BCD1857,
000000000000000000000000000000000000000000000000000000000000000000000000000000000000000000000000000000000000402C3531631E2E66452B,
0000000000000000000000000000000000000000000000000000000000000000000000000000000000000000000000000000000000001B4D3A342D40331D1837,
00000000000000000000000000000000000000000000000000000000000000000000000000000000000000000000000000000000000014F211251A0D35210959,
000000000000000000000000000000000000000000000000000000000000000000000000000000000000000000000000000000000000231D12180D25591E2218,
00000000000000000000000000000000000000000000000000000000000000000000000000000000000000000000000000000000000065C1DCD7DC1AE1E8679E,
00000000000000000000000000000000000000000000000000000000000000000000000000000000000000000000000000000000000080ECFD808080D4804780,
00000000000000000000000000000000000000000000000000000000000000000000000000000000000000000000000000000000000021561E215227204F2C16,
00000000000000000000000000000000000000000000000000000000000000000000000000000000000000000000000000000000000052484F487F423E7F5243,
0000000000000000000000000000000000000000000000000000000000000000000000000000000000000000000000000000000000000F35696538D41E22083F,
0000000000000000000000000000000000000000000000000000000000000000000000000000000000000000000000000000000000002F43514C675256713449,
0000000000000000000000000000000000000000000000000000000000000000000000000000000000000000000000000000000000003A62414431646B583669,
000000000000000000000000000000000000000000000000000000000000000000000000000000000000000000000000000000000000D04E353140F73334EC4A,
0000000000000000000000000000000000000000000000000000000000000000000000000000000000000000000000000000000000001C3F4E45603C3B4A1937,
00000000000000000000000000000000000000000000000000000000000000000000000000000000000000000000000000000000000009592427410C34420D21,
00000000000000000000000000000000000000000000000000000000000000000000000000000000000000000000000000000000000036313C3C4D0946356926,
000000000000000000000000000000000000000000000000000000000000000000000000000000000000000000000000000000000000F9122D352E161113FF1C,
000000000000000000000000000000000000000000000000000000000000000000000000000000000000000000000000000000000000805A2B2C1980EF438058,
